//Conv bias Rows=5, Columns=5, Depth= 1
#define WTs_C {{{-0.063235,0.117782,0.429427,0.635644,0.345652},{-0.047796,0.251881,0.236453,0.486963,-0.421207},{0.253001,0.575644,0.772323,0.321279,-0.380470},{0.571594,0.652158,0.835761,0.265487,-0.210659},{0.384484,0.134604,0.679020,0.722867,1.036405}}}

//Conv bias Rows=1, Columns=1
#define BIAS_C {-0.003148}

//Conv: Rows=64*1, Columns=41
#define WTs_FC {0.137046, -0.092865, 0.083059, 0.158271, -0.170215, -0.010555, 0.315747, -0.092292, -0.064041, 0.009708, -0.156521, -0.267058, 0.114075, 0.165955, 0.085961, -0.046268, 0.029276, -0.212082, -0.112609, -0.136946, -0.216229, 0.075259, 0.154814, 0.117077, -0.176420, 0.013983, 0.149509, -0.210692, -0.061128, 0.061539, 0.196115, 0.042551, 0.161372, 0.252118, 0.544335, -0.183129, -0.127409, -0.245318, 0.191538, -0.131167, 0.185437, -0.132828, -0.049749, 0.173450, 0.138616, -0.040669, 0.044928, 0.008163, 0.051514, 0.107306, -0.063436, -0.107160, -0.467144, 0.103703, -0.058604, 0.400403, -0.253421, 0.110200, -1.310358, -0.003365, -0.070535, -0.047272, -0.114259, -0.404188, -0.116130, -0.259544, -0.014231, 0.106345, -0.224434, -0.182448, 0.228598, 0.126328, -0.064309, 0.049162, -0.053460, 0.000081, -0.190870, 0.013919, -0.249421, 0.034053, 0.126534, 0.258942, 0.192472, -0.041164, 0.122574, -0.009763, -0.008633, -0.149399, 0.127156, -0.119014, -0.042198, 0.034009, 0.009776, 0.028651, 0.163509, -0.056990, 0.533210, 0.309652, 0.035602, -0.147112, -0.019012, -0.144483, -0.061173, -0.242386, 0.141330, -0.084184, -0.262828, -0.085638, -0.228832, -0.114757, 0.045081, 0.216910, 0.109868, -0.106581, -0.002424, 0.206701, -0.676550, -0.052761, 0.036679, 0.027481, 0.045803, -0.060809, 0.236707, 0.118511, -0.148023, 0.087644, 0.244609, -0.015773, 0.248995, -0.083497, -0.053471, -0.009830, -0.124809, 0.002972, 0.076391, 0.460791, 0.033131, 0.160506, -0.095328, 0.283985, 0.254924, -0.176898, -0.050038, -0.079875, -0.400157, 0.204142, -0.305283, 0.236018, 0.007882, 0.255743, 0.008059, 0.018769, 0.005103, 0.014479, -0.384999, -0.070163, 0.019155, -0.443206, 0.117569, -0.069649, 0.228770, 0.075656, 0.026808, 0.223984, -0.162277, 0.111667, -0.080706, 0.180559, -0.042728, 0.309050, -0.083542, -0.111101, 0.019967, -0.197193, 0.046363, 0.227087, -0.085508, 0.058534, -0.407281, 0.075247, 0.132512, 0.166246, 0.065367, 0.148255, -0.107219, 0.122357, -0.249134, 0.071961, 0.074942, 0.038881, 0.319024, -0.202273, 0.189525, -0.117078, 0.045921, -0.442360, 0.107155, 0.080265, -0.236992, 0.270096, 0.117864, -0.007490, -0.066860, -0.110842, -0.171574, 0.072986, -0.038110, -0.194770, 0.277227, -0.156424, 0.243933, -0.146096, 0.117759, 0.153364, 0.026132, 0.241525, -0.073110, -0.563449, -0.164487, -0.034016, 0.146501, 0.260937, -0.158286, 0.317401, -0.160940, -0.269560, 0.158974, -0.084911, -0.022774, 0.050020, -0.117194, 0.074902, -0.242026, -0.174849, -0.055266, 0.098706, -0.666016, 0.219732, -0.063712, -0.043441, 0.058311, -0.029788, 0.263037, 0.047301, 0.172278, -0.037208, -0.174880, -0.082775, -0.340629, 0.283149, 0.121950, -0.041788, 0.028661, 0.247583, -0.124833, -0.191741, -0.047499, -0.177345, -0.615779, -0.076524, 0.141725, -0.001485, 0.169419, -0.157671, -0.033144, 0.089658, -0.156830, 0.561422, -0.106894, -0.013634, -0.087443, 0.339446, 0.227592, -0.390845, -0.009573, 0.090804, -0.190055, -0.470684, -0.155714, 0.164557, 0.242306, 0.032968, -0.029204, 0.258526, -0.032278, -0.227664, 0.093761, -0.071781, -0.085350, -0.245323, 0.049317, 0.326940, 0.110469, 0.509174, -0.060189, 0.283289, 0.202759, -0.094930, -0.217876, -0.000451, 0.102869, 0.359279, 0.112812, 0.381060, -0.144912, 0.136823, 0.049636, -0.369619, 0.456147, -0.156409, 0.010117, 0.073151, 0.030781, -0.111027, -0.082583, -0.079370, -0.218158, -0.095039, -0.382319, 0.049456, 0.207940, 0.033653, -0.072444, -0.009929, 0.156373, -0.052699, -0.174140, 0.233419, 0.089572, -0.179360, 0.361959, 0.094562, -0.207583, 0.181162, -0.101704, 0.156954, 0.109916, -0.044775, 0.084603, -0.106296, 0.263393, 0.076687, 0.055765, 0.008068, -0.222559, -0.217891, -0.292200, 0.093815, -0.038364, 0.116725, -0.445162, 0.154575, -0.255512, -0.098624, 0.112176, -0.187925, 0.321574, -0.048646, 0.087013, 0.058885, -0.080038, 0.096741, 0.280010, -0.194621, 0.003014, -0.229770, 0.218106, 0.042326, 0.299877, 0.142043, -0.037110, -0.109626, 0.304095, -0.278140, 0.070076, 0.256549, -0.196594, 0.175395, 0.036542, -0.183327, 0.328886, -0.168779, 0.365339, -0.063731, 0.013169, 0.177452, -0.518178, -0.065613, 0.164343, -0.134394, 0.039248, -0.347287, 0.137086, -0.165832, 0.005485, 0.091744, -0.067143, 0.048382, 0.043680, 0.067728, 0.000162, -0.103678, 0.038493, -0.279644, 0.016528, -0.039047, -0.254530, 0.110822, -0.112147, 0.129611, 0.398906, 0.154468, -0.025615, 0.201956, -0.016607, -0.126380, 0.361699, 0.289544, -0.011077, -0.212645, -0.219407, -0.058119, -0.080656, 0.228983, 0.047970, 0.110210, 0.135600, -0.459449, -0.245792, -0.007574, -0.293115, -0.111667, -0.442559, -0.143569, 0.109585, -0.292249, -0.004866, 0.204194, -0.188593, 0.037489, -0.213512, 0.107227, -0.029708, 0.144429, -0.644681, 0.186744, -0.198168, 0.214936, 0.115813, 0.014722, 0.068191, 0.337406, 0.170140, -0.151845, -0.039207, 0.011130, -0.134031, 0.020621, -0.099572, -0.023774, 0.047803, 0.112232, 0.097617, 0.222602, -0.102476, -0.138453, 0.140444, 0.286158, 0.553992, -0.176221, 0.129451, 0.197129, -0.244383, 0.024805, -0.400812, -0.121976, 0.138859, -0.251591, -0.110910, -0.116898, 0.055678, 0.121640, 0.103000, -0.003293, -0.000430, -0.265481, 0.098132, 0.177032, 0.297969, 0.254651, 0.226713, -0.218989, 0.011905, 0.076192, 0.325701, -0.178264, -0.151757, 0.324680, 0.014338, -0.162995, 0.103309, -0.190015, 0.355335, 0.247102, 0.138009, -0.111643, -0.467709, -0.118211, 0.138791, 0.168248, 0.082981, 0.213071, 0.210731, 0.190998, -0.088507, -0.147346, 0.122774, 0.189200, 0.165380, -0.040324, 0.039829, 0.213780, 0.105188, 0.147050, 0.089608, -0.231053, 0.209256, -0.040742, 0.158056, 0.115655, -0.081706, 0.045367, -0.471499, 0.003543, 0.200483, 0.240376, -0.281040, -0.200880, 0.024609, 0.042213, 0.259853, -0.264644, 0.016053, -0.128260, 0.349140, -0.065220, 0.131175, 0.042756, 0.245035, -0.387708, -0.623510, 0.055682, -0.156075, 0.196194, 0.188352, -0.055491, 0.298729, 0.166088, 0.241216, 0.008130, 0.292250, -0.140546, 0.069307, 0.051593, -0.357442, 0.185360, -0.107778, 0.126079, -0.035885, 0.264114, -0.193114, -0.172763, 0.222601, 0.078826, -0.062439, 0.250492, -0.029616, 0.149070, -0.128747, -0.051973, -0.040832, 0.129470, 0.191698, -0.342607, -0.177032, 0.192849, -0.350860, -0.072047, 0.153345, -0.009521, -0.148922, 0.053767, -0.102633, -0.251535, 0.255290, -0.331501, -0.103122, -0.075563, 0.074518, -0.162817, 0.191113, 0.205010, 0.107830, 0.254914, 0.076764, -0.114849, -0.058155, 0.319041, 0.377867, 0.013243, -0.055733, -0.102282, 0.178688, 0.081419, 0.058011, -0.296817, 0.241924, -0.069053, 0.097888, 0.239310, -0.107967, 0.305167, 0.141260, 0.182385, -0.145116, -0.234879, -0.122074, -0.643179, -0.050379, 0.084066, 0.091009, -0.047206, 0.106912, -0.370774, -0.226390, 0.064278, -0.402036, 0.057872, 0.162998, -0.297111, -0.144838, 0.096375, 0.248149, -0.217371, 0.211503, 0.080404, -0.295920, -0.096274, 0.210589, 0.150640, -0.301469, 0.244339, 0.191622, 0.277173, 0.145355, 0.250659, 0.254153, -0.008681, 0.125083, 0.104703, -0.163325, -0.071695, -0.071553, 0.225790, 0.066997, -0.041590, 0.017264, -0.123755, -0.027275, 0.122911, -0.125988, 0.118869, -0.123731, -0.124361, -0.091123, 0.233071, -0.059349, -0.087196, 0.099873, 0.091168, -0.373497, -0.276933, 0.155116, 0.103758, -0.108426, -0.012478, -0.505831, 0.105090, 0.004221, -0.031790, 0.066724, 0.245873, 0.088732, -0.098324, 0.218046, 0.260928, -0.035569, 0.086079, -0.063484, 0.225398, -0.155915, 0.035533, 0.246588, 0.065262, -0.100659, 0.347812, 0.114947, -0.158445, -0.070294, -0.051877, -0.287872, -0.127176, -0.012014, -0.053230, -0.363588, 0.097721, 0.012605, 0.112937, 0.005025, 0.246343, 0.125452, -0.013739, 0.168914, -0.432436, 0.036383, 0.082703, 0.220129, -0.261577, 0.068149, -0.053298, 0.037562, -0.535813, 0.254344, 0.121685, -0.308886, -0.008092, -0.189945, 0.062227, -0.164075, 0.120329, -0.123725, -0.130498, -0.035718, -0.015033, 0.230732, 0.172856, 0.100855, -0.116589, -0.021785, -0.417975, 0.237219, -0.302154, -0.078951, 0.136126, 0.185022, -0.095238, -0.102668, -0.025196, -0.033281, -0.012695, 0.077314, 0.209887, 0.241307, 0.046561, -0.391324, 0.118702, -0.230050, -0.316743, 0.044134, -0.108752, -0.081170, -0.127805, -0.523035, 0.054206, 0.128688, 0.068476, -0.058255, 0.074762, 0.380084, -0.229556, -0.088380, -0.113614, 0.197993, 0.124215, 0.337293, -0.032453, -0.034093, -0.012963, 0.160380, 0.024396, -0.400454, 0.129268, -0.322756, -0.323715, -0.097842, 0.156498, 0.505821, -0.024760, 0.144453, 0.124718, -0.006854, -0.000163, 0.312048, -0.178650, -0.037609, 0.056627, 0.110022, -0.365890, -0.141990, 0.283928, 0.675653, -0.299529, -0.008234, 0.314404, 0.108619, -0.021076, -0.048618, 0.055248, -0.022321, -0.120506, 0.218384, 0.093041, -0.177960, 0.096830, -0.320981, -0.107820, 0.099595, 0.038339, 0.404136, 0.202417, 0.238995, 0.133276, 0.295211, -0.013347, 0.002458, -0.199858, -0.060810, -0.210715, -0.063942, 0.360566, 0.190355, 0.211954, 0.216146, -0.004708, -0.276298, -0.281248, -0.273186, 0.171060, 0.335125, 0.079881, -0.151329, 0.175009, 0.148939, -0.281347, 0.533084, -0.275854, -0.213231, -0.070300, -0.095492, -0.196367, -0.082040, -0.157179, 0.145188, -0.015911, -0.023177, -0.023894, 0.043511, 0.169287, 0.030416, 0.129815, 0.172803, -0.021333, 0.004079, 0.055645, 0.243882, 0.196526, 0.152158, -0.331262, -0.191506, -0.245636, 0.252115, 0.227935, -0.214822, 0.242962, -0.083711, -0.007702, -0.080056, -0.086557, 0.154757, 0.347113, -0.030842, -0.024107, -0.049392, 0.021614, 0.104079, -0.235353, -0.023427, 0.072250, 0.078272, -0.036764, -0.113641, 0.084969, 0.185416, -0.134831, -0.244860, -0.199494, -0.152605, 0.028721, 0.058056, -0.358217, 0.230841, 0.132122, -0.143126, 0.131628, 0.023512, -0.163962, -0.084799, 0.086401, -0.178548, 0.361642, 0.316822, -0.316187, 0.141482, -0.677119, 0.046040, 0.309417, -0.070838, -0.173476, 0.310184, 0.154486, -0.228209, -0.094505, 0.131307, -0.081490, -0.321649, 0.320463, -0.230150, 0.133359, 0.244133, -0.374335, -0.282620, 0.089945, -0.212307, -0.038218, -0.067023, -0.227741, -0.433238, 0.169694, 0.071809, -0.194219, -0.210501, -0.064441, -0.271046, -0.245944, -0.117950, -0.481483, -0.443361, -0.196974, 0.030859, -0.471860, 0.050434, -0.236068, -0.358129, 0.118271, -0.756855, 0.288642, 0.087980, 0.217461, 0.165388, -0.207072, -0.071683, -0.115527, 0.275562, 0.276111, 0.049860, -0.036868, -0.126860, -0.001356, 0.220934, 0.018374, -0.300519, -0.010978, -0.027817, -0.137825, -0.009472, -0.080341, 0.083564, 0.179840, 0.020056, -0.239156, 0.010401, 0.048503, -0.016664, -0.054087, -0.112529, -0.167115, 0.191637, -0.148175, 0.115968, 0.151963, 0.110394, 0.229818, 0.199849, 0.048579, 0.111128, 0.032345, 0.157529, 0.156435, 0.085716, -0.129796, -0.000295, -0.117874, -0.235673, -0.091259, -0.278319, 0.009575, -0.251798, 0.174062, -0.145464, 0.127006, 0.125366, 0.037852, -0.383869, 0.191962, -0.201448, -0.235966, -0.009627, -0.055690, -0.210809, 0.158500, -0.011489, -0.060485, -0.012622, -0.020355, 0.047501, 0.021897, 0.022930, 0.039375, 0.018829, -0.152913, -0.053644, 0.221052, 0.009296, 0.097427, -0.023321, -0.101001, -0.160388, 0.017242, 0.330396, 0.143143, 0.049415, -0.017650, 0.050943, -0.215849, -0.088791, -0.222337, -0.148146, -0.261463, 0.099772, -0.289125, -0.099510, 0.020220, -0.606998, -0.129392, 0.083963, 0.272337, -0.361905, 0.316767, 0.223441, -0.140101, 0.317769, 0.027802, 0.140975, -0.034279, -0.035337, 0.272447, -0.092377, -0.316380, 0.101048, -0.061906, -0.157773, -0.000501, 0.252054, -0.060023, 0.186077, -0.007950, 0.055662, -0.088757, -0.024872, 0.234324, 0.148402, 0.164567, -0.084932, -0.055251, -0.016577, -0.015176, 0.027035, -0.152599, -0.085337, 0.272319, -0.176524, 0.023266, -0.237693, -0.397154, -0.090526, -0.121876, 0.331039, -0.130026, 0.034255, 0.206013, 0.071038, 0.292432, 0.155854, -0.188476, 0.115714, 0.081049, 0.189604, 0.057152, -0.417527, -0.290440, 0.100387, -0.004050, 0.326360, 0.051466, 0.197838, -0.180056, 0.195691, -0.050794, -0.117304, 0.245003, -0.148408, -0.253930, -0.502053, 0.219612, -0.020166, 0.077408, -0.094058, 0.391584, 0.117753, 0.113782, -0.290693, 0.190050, -0.096414, -0.231674, 0.217280, -0.081692, -0.156507, 0.112276, 0.111075, -0.037412, -0.033630, 0.211777, 0.229632, 0.281554, -0.289382, -0.246581, -0.101315, 0.152760, -0.282006, -0.097923, 0.223592, 0.203532, 0.272685, 0.040036, 0.107848, -0.247757, 0.332835, 0.136443, -0.113184, 0.088364, -0.000371, -0.056009, 0.174955, -0.016573, 0.042730, 0.122868, 0.435263, 0.239407, 0.320217, 0.029559, 0.129523, -0.355642, 0.018954, -0.275979, 0.022402, 0.114053, -0.025353, -0.291796, -0.040298, -0.212538, -0.139030, 0.131658, 0.171599, -0.039166, -0.089515, -0.080220, 0.151163, -0.098660, -0.057020, -0.294463, 0.073826, 0.203835, 0.086887, 0.072449, -0.084733, -0.123479, 0.087059, 0.219198, 0.097397, 0.074539, -0.030516, -0.075124, -0.090696, -0.109123, 0.195785, 0.035548, 0.117233, 0.276245, -0.112552, 0.008277, -0.042642, -0.092131, 0.008177, -0.152542, 0.010933, 0.393623, -0.003723, -0.271056, -0.220079, 0.223823, -0.041561, -0.061504, 0.208886, -0.368701, 0.104508, 0.408120, -0.113162, -0.215878, -0.012555, -0.136700, 0.117449, -0.221229, -0.188822, -0.042320, 0.130187, -0.032068, 0.230025, -0.129054, 0.304434, -0.343154, -0.145653, -0.125047, -0.089084, -0.062438, -0.082911, 0.188036, 0.005209, 0.165213, -0.135750, -0.268856, -0.400355, -0.010891, 0.061796, 0.239218, -0.281116, -0.088848, 0.331326, 0.203036, -0.029091, 0.004468, -0.142861, 0.005465, 0.004328, -0.042524, -0.277400, 0.363744, 0.178956, -0.078991, 0.148464, -0.267833, -0.072820, 0.082295, -0.485042, -0.432754, -0.019707, -0.092586, -0.339935, -0.179994, -0.244003, 0.016098, -0.395465, 0.099476, 0.020730, 0.077264, 0.110393, 0.191432, 0.147601, 0.036372, 0.054459, -0.450640, -0.258333, -0.087601, 0.019668, 0.104298, 0.193174, -0.066743, -0.042746, -0.235683, -0.117628, 0.200662, 0.129911, 0.098138, -0.055393, 0.164147, 0.088415, 0.126422, 0.038195, 0.007690, -0.266243, 0.231092, -0.161704, 0.100257, -0.051209, -0.243446, 0.070774, -0.286719, 0.002456, 0.088210, -0.365457, -0.165614, -0.022338, -0.330806, -0.091256, 0.181178, 0.462820, -0.041095, -0.174278, -0.084411, 0.135687, -0.037253, -0.044996, 0.047387, -0.080237, -0.274967, -0.092601, 0.076592, 0.107021, -0.021356, 0.073785, 0.032920, -0.274800, 0.109855, -0.215140, -0.052942, -0.001443, 0.009681, 0.115602, 0.019618, -0.138674, -0.123652, -0.099619, -0.269292, 0.084484, -0.025698, 0.007052, -0.132850, -0.122889, -0.071604, -0.112153, -0.250509, 0.115275, -0.066453, -0.098879, 0.036894, 0.086723, 0.010915, 0.087346, -0.079772, 0.065149, 0.015658, 0.168996, -0.142344, -0.120673, -0.248065, 0.077530, 0.172819, 0.381407, 0.046221, 0.183948, 0.094588, -0.014386, -0.261682, 0.004876, 0.123623, -0.005679, 0.125979, 0.078954, -0.150846, 0.134630, -0.246015, 0.272457, 0.328817, -0.272884, 0.319187, 0.308218, -0.222049, -0.110957, 0.247432, -0.071499, -0.125344, -0.379553, 0.066334, 0.055845, -0.065496, 0.117079, 0.181924, 0.191817, 0.004297, -0.023546, 0.326461, 0.038585, 0.328368, 0.199781, -0.044150, 0.115901, 0.084714, 0.472566, 0.047834, -0.014830, 0.075680, 0.185847, -0.680828, -0.073813, -0.011904, 0.089444, 0.121452, 0.134849, -0.026657, 0.014894, 0.361793, -0.018431, -0.324550, -0.303398, -0.078909, -0.053019, -0.079034, -0.175347, -0.037433, 0.300713, 0.328358, 0.343894, -0.078651, 0.058332, 0.136844, -0.040490, -0.227783, -0.233674, -0.335454, -0.276630, 0.256294, -0.109574, 0.130021, 0.151025, -0.171180, 0.132249, -0.013219, 0.058869, 0.111844, -0.119937, 0.183132, 0.211942, 0.288092, -0.424265, -0.009909, 0.272938, 0.197590, 0.296788, -0.444265, 0.090771, 0.310203, 0.273100, 0.048606, -0.148903, -0.000045, 0.148431, -0.074653, -0.192007, 0.139211, -0.091612, 0.276358, -0.005735, -0.137402, -0.286149, 0.066254, 0.129672, 0.123602, -0.018986, -0.090782, -0.137147, -0.283098, 0.023055, -0.284405, -0.246575, 0.135224, 0.250557, -0.254495, 0.011660, -0.139459, 0.199532, -0.186510, -0.064295, -0.034058, -0.030899, -0.074937, 0.222735, -0.048970, 0.101766, 0.174170, -0.084636, -0.063187, 0.185021, -0.170112, -0.181410, -0.137943, 0.232520, -0.128079, 0.458447, -0.002665, -0.155634, 0.198418, -0.154502, 0.088588, -0.261475, -0.333315, -0.102264, -0.029016, -0.246697, -0.044079, 0.172820, -0.243375, -0.032108, 0.163247, -0.142633, 0.098482, -0.062101, -0.014629, -0.024755, 0.090188, 0.171154, -0.164756, 0.126628, 0.098915, -0.031631, 0.390331, 0.014703, 0.256918, -0.159518, -0.132587, -0.046202, 0.241139, 0.170272, 0.170255, -0.290221, 0.125760, 0.250093, -0.116435, 0.141159, 0.259321, 0.075944, -0.185378, -0.224209, 0.237272, 0.139072, -0.243423, -0.090644, 0.234692, -0.209581, -0.121132, 0.115401, 0.245994, -0.321780, -0.099793, -0.151553, 0.049621, -0.213055, -0.227782, -0.411577, -0.027371, -0.230227, 0.186598, 0.100467, 0.319257, -0.163004, 0.083864, 0.004532, 0.174284, 0.275478, -0.213335, 0.135859, 0.130391, 0.233465, -0.050128, 0.076705, 0.072961, 0.185208, 0.148845, 0.150034, -0.116360, 0.022679, 0.291239, -0.027533, -0.277400, 0.304117, 0.049649, -0.386717, 0.265748, -0.053017, -0.227703, 0.140099, -0.198967, 0.207601, -0.283545, 0.235018, -0.097182, -0.121097, 0.069164, -0.294267, 0.141377, -0.097840, -0.441381, 0.330055, 0.106230, -0.082179, -0.397303, 0.197523, -0.026521, -0.119859, 0.012068, -0.123520, 0.059922, -0.197575, -0.130427, -0.183591, 0.375117, 0.109156, 0.171356, -0.125033, 0.244800, -0.246166, 0.215609, 0.146273, 0.179718, 0.082456, 0.063836, -0.228652, 0.086072, 0.144695, -0.010687, -0.336105, -0.359894, -0.162199, 0.146102, 0.350814, 0.090504, -0.200242, 0.167574, 0.431920, -0.286236, 0.005280, 0.147590, 0.019037, -0.234037, 0.017796, 0.059479, -0.280223, -0.119822, 0.092961, 0.253444, -0.120772, 0.143307, -0.191994, 0.015499, 0.032917, -0.178203, 0.116677, 0.255096, 0.002639, -0.074929, 0.107858, -0.043073, 0.046458, 0.186150, 0.068237, -0.150517, 0.070534, -0.238917, -0.222228, -0.189310, -0.050459, -0.075189, -0.307003, -0.070764, -0.055778, 0.224184, 0.133180, -0.295318, 0.080657, 0.069726, -0.125568, -0.031473, 0.155473, 0.030699, 0.042803, 0.215926, 0.124989, -0.053197, -0.304596, -0.049205, 0.079764, 0.152877, -0.007298, -0.086311, 0.018992, -0.080572, -0.098687, -0.169959, 0.121082, 0.145069, -0.013064, 0.030705, -0.313921, -0.126167, 0.002020, -0.044638, -0.018626, -0.250943, -0.152936, 0.061192, -0.051085, 0.010040, 0.104133, 0.031849, 0.162471, 0.025282, 0.040067, -0.243718, 0.109361, 0.415457, 0.134802, -0.336726, -0.154975, -0.095227, -0.142084, 0.090571, 0.393976, 0.180714, -0.086320, 0.132671, -0.215688, 0.099571, 0.297978, -0.021826, -0.226269, 0.324162, -0.322142, -0.427537, -0.279680, 0.214623, -0.134113, 0.149772, -0.394252, 0.236101, -0.078159, 0.117134, 0.232052, 0.263077, -0.012789, 0.271039, -0.328639, -0.170726, -0.151578, 0.011762, 0.079996, -0.234622, 0.118308, 0.061123, -0.532381, 0.168896, 0.288968, -0.134304, -0.133260, -0.141051, 0.006422, -0.196350, -0.190057, -0.442743, -0.369432, 0.171564, 0.172247, -0.228789, 0.031350, 0.170541, 0.209424, -0.148167, -0.152216, -0.276039, -0.074003, -0.194864, 0.146594, 0.007773, 0.205136, 0.152240, 0.222471, 0.383770, 0.282643, 0.397333, -0.231012, 0.002381, 0.020401, -0.218375, 0.041561, -0.031436, 0.085232, 0.225645, 0.060168, -0.136504, 0.052370, -0.161099, 0.059421, -0.044934, -0.266071, -0.092479, 0.246560, 0.009166, 0.082802, -0.189971, -0.291365, 0.058935, -0.154627, -0.368592, 0.175659, -0.073379, -0.083007, 0.124888, -0.015234, 0.198423, 0.146994, 0.353995, 0.111367, -0.005586, 0.043197, 0.073397, 0.277249, -0.450003, 0.079269, 0.163857, 0.199307, -0.076433, -0.073435, 0.046619, 0.122944, 0.224423, -0.039762, -0.045206, -0.197344, -0.303413, 0.184748, 0.396978, 0.088560, 0.125392, 0.244012, 0.260440, 0.077397, -0.109807, 0.172912, 0.161687, 0.199467, 0.000276, 0.358388, -0.084335, 0.201112, -0.173352, -0.023740, -0.156164, 0.230390, -0.099299, 0.124467, 0.178555, 0.147112, 0.035723, 0.196500, -0.049683, -0.136228, 0.071510, -0.054515, -0.057571, 0.036844, 0.042936, 0.110366, -0.043758, 0.088631, 0.029829, 0.335626, 0.033909, 0.068238, 0.017450, 0.002145, 0.154046, -0.238432, 0.081529, -0.296975, 0.112379, 0.080760, 0.057790, -0.013931, 0.146105, -0.355842, 0.254115, 0.156539, 0.010336, 0.022282, 0.125631, -0.390168, 0.260354, -0.156461, -0.073599, -0.063179, 0.185598, 0.054804, -0.074247, 0.161264, -0.103033, -0.001400, -0.325689, -0.119255, -0.024447, -0.210101, 0.110138, -0.095415, 0.129557, -0.336088, 0.088728, -0.022673, 0.025523, -0.033970, -0.121479, -0.038564, 0.081737, -0.045470, -0.246969, 0.130446, 0.045067, -0.004372, -0.071170, -0.112859, 0.348245, 0.286994, -0.364051, 0.243020, 0.200357, -0.008589, -0.459571, -0.018323, -0.167715, 0.099696, 0.053530, 0.151693, -0.231499, 0.085729, 0.112311, -0.109530, 0.162023, -0.108630, -0.241648, -0.304566, -0.017905, 0.027362, -0.133762, 0.045113, 0.261489, -0.278126, 0.019531, -0.322455, 0.049235, 0.226210, 0.236817, -0.035409, -0.374763, 0.182080, 0.036574, -0.029897, 0.080109, 0.018884, 0.001680, 0.263334, -0.127361, -0.135234, 0.028946, 0.037643, 0.038125, 0.077997, 0.181573, -0.171391, -0.010534, 0.036414, 0.023730, 0.174890, 0.056973, -0.539970, 0.080890, -0.131401, -0.096637, -0.017143, -0.060776, 0.223182, -0.345680, -0.041638, -0.020774, -0.226623, -0.088126, -0.014608, 0.093613, -0.034271, 0.061918, -0.070006, 0.077831, -0.135962, -0.002761, -0.502033, 0.188498, 0.158831, 0.092869, -0.067665, 0.076008, -0.244693, 0.015056, -0.068140, 0.231280, -0.073842, -0.194595, -0.308890, 0.346172, 0.214073, 0.268993, 0.068810, -0.110238, 0.196420, 0.084891, -0.044961, 0.010946, -0.100178, -0.114148, 0.012444, -0.011330, -0.009474, 0.001363, 0.130521, -0.382698, -0.030923, -0.033734, 0.165074, 0.158629, -0.192336, -0.292984, -0.290715, 0.245054, 0.035345, 0.155299, 0.063916, 0.041214, 0.128348, -0.029687, 0.212131, -0.079592, 0.147854, -0.145986, 0.165118, -0.273276, 0.047375, -0.017475, -0.168223, -0.265606, 0.220954, -0.144867, 0.270635, 0.240003, 0.098650, 0.155859, 0.061508, 0.313487, -0.082942, -0.171557, 0.022650, -0.231985, -0.068533, -0.133932, -0.279642, 0.378044, -0.367689, 0.274391, -0.278014, 0.140524, 0.214646, 0.028470, -0.254226, 0.186969, 0.153189, -0.024304, 0.037101, 0.095130, 0.135397, 0.048169, 0.074220, 0.217702, -0.248701, 0.154100, -0.097674, -0.004139, 0.055427, 0.106075, 0.156522, 0.188818, -0.217894, -0.348944, -0.128440, 0.020787, 0.235950, -0.200117, 0.182774, 0.056885, -0.060887, 0.122349, 0.184587, 0.292162, 0.083513, 0.099726, -0.093547, 0.185588, 0.171768, 0.462493, -0.056914, -0.194334, 0.027540, -0.036487, -0.148615, -0.083517, 0.217780, 0.000264, 0.015123, 0.037425, -0.149498, -0.081760, -0.398393, 0.069694, 0.160234, 0.107190, 0.020582, -0.036639, 0.340574, -0.362611, -0.065226, -0.039974, 0.143063, -0.053680, -0.141269, 0.367753, 0.165319, 0.088304, -0.068024, 0.201104, -0.159052, 0.026141, -0.181504, -0.148224, -0.004874, 0.001211, 0.253444, 0.023409, 0.277207, -0.011842, 0.017387, -0.085701, -0.366459, -0.000118, -0.110954, -0.100080, 0.070937, 0.113952, 0.328570, 0.243090, 0.115164, 0.104074, 0.207247, -0.265566, 0.112881, 0.050762, 0.201440, -0.146236, 0.308961, 0.165142, -0.113619, -0.253068, 0.232638, -0.464433, 0.046632, -0.172988, -0.027650, -0.010642, 0.066240, -0.361777, -0.107333, -0.280542, 0.238836, 0.246086, -0.264403, -0.020809, 0.003622, 0.289836, 0.331366, 0.055028, -0.021455, -0.364877, 0.126516, -0.426448, 0.116531, 0.307113, 0.120141, 0.072940, -0.055201, 0.175824, -0.230404, 0.079084, -0.000654, 0.015868, -0.130342, 0.265697, -0.728638, 0.311917, 0.119179, 0.090437, 0.007240, -0.143537, 0.261392, 0.038851, -0.616678, -0.038345, 0.070360, -0.041810, -0.344290, -0.214317, -0.208717, -0.049447, -0.302342, 0.002699, 0.192529, -0.179270, -0.106264, -0.323832, 0.307816, 0.117555, -0.284121, 0.018771, -0.445006, 0.042052, -0.222156, 0.052488, 0.147986, 0.094235, -0.351592, -0.275650, 0.005261, 0.147662, 0.058861, -0.073767, -0.228056, -0.173707, -0.254978, -0.325022, 0.185267, 0.089628, -0.129612, 0.082857, -0.426581, 0.195581, -0.016154, -0.288779, -0.136381, 0.103593, -0.278188, -0.132627, -0.181560, -0.072701, -0.229834, 0.008902, 0.331690, 0.140383, 0.196038, 0.005370, 0.346628, 0.037822, -0.343229, 0.030498, -0.337451, -0.033666, 0.224180, -0.168028, -0.026248, 0.099161, -0.008489, 0.307808, -0.371846, -0.216904, 0.308165, 0.118631, 0.117933, -0.237758, 0.204042, 0.278294, -0.221167, 0.119062, -0.203003, 0.147786, -0.029341, -0.107688, -0.239080, -0.064630, -0.156346, -0.260992, 0.021814, -0.147470, -0.278467, -0.365732, -0.109552, 0.369192, -0.405509, -0.080824, -0.185411, 0.050318, -0.232504, 0.085226, 0.224429, -0.163217, -0.025450, 0.047709, -0.299219, -0.076239, -0.029353, -0.066794, 0.249630, 0.162868, 0.420758, -0.111740, -0.001290, 0.514430, 0.010275, -0.030326, -0.514182, 0.393321, -0.238081, -0.164783, 0.063793, 0.038096, -0.057147, 0.131762, 0.235216, 0.271629, 0.385153, 0.154768, -0.033942, -0.067076, -0.093418, -0.177530, -0.155357, 0.172845, -0.186742, -0.194821, 0.001622, -0.073214, 0.066340, 0.020955, 0.405561, -0.096193, -0.239384, -0.173410, -0.076500, -0.410430, 0.040370, -0.000777, -0.160475, 0.155405, -0.172816, 0.406970, -0.165985, -0.031476, 0.299340, -0.035650, -0.222226, -0.234752, -0.059728, 0.045379, -0.161854, 0.020107, 0.140168, -0.123016, 0.017290, 0.007835, 0.054977, 0.270767, 0.222826, 0.033253, 0.035966, 0.018231, -0.051272, 0.066317, 0.120751, -0.001054, 0.163762, -0.241875, -0.103334, 0.246354, -0.010329, 0.216453, -0.288817, -0.244931, 0.212291, -0.033525, 0.003192, 0.172849, -0.067340, -0.129819, -0.026466, -0.184596, 0.086319, -0.261723, 0.039511, 0.248682, 0.131378, 0.044381, -0.262005, 0.115410, -0.042073, -0.215823, -0.253469, 0.054710, 0.024503, 0.255273, 0.202920, 0.146194, 0.036344, 0.218192, 0.041600, 0.147889, -0.121796, 0.089611, 0.231689, 0.241801, 0.044981, 0.027442, 0.133261, -0.066949, -0.257723, 0.221433, -0.093525, -0.188383, 0.093179, 0.120318, -0.228328, 0.140130, 0.121023, -0.407231, -0.403215, 0.259113, 0.073945, -0.083639, -0.081475, 0.108096, 0.062503, -0.071249, -0.094120, -0.020357, 0.078805, 0.206201, -0.203107, -0.196193, 0.088579, -0.011800, 0.050916, 0.320668, -0.030913, 0.295227, -0.194118, 0.202653, -0.080400, 0.078204, 0.049015, 0.376411, 0.123969, 0.024086, 0.284174, -0.136126, -0.061519, -0.311650, 0.116759, 0.166683, 0.190278, -0.022388, 0.060530, -0.051514, 0.306460, -0.073672, -0.306342, 0.043030, -0.012745, 0.168010, -0.171674, -0.197556, 0.059598, -0.022633, -0.000467, -0.126104, -0.173496, -0.193362, -0.060219, -0.757751, 0.130679, 0.084640, 0.107951, -0.044519, 0.260518, -0.023307, 0.138216, -0.295258, 0.269516, -0.089284, 0.054270, -0.073319, 0.218233, 0.193566, -0.049238, 0.093160, -0.012430, 0.140296, -0.127467, 0.035472, 0.091557, 0.026649, -0.122398, -0.156615, -0.192251, 0.098069, 0.075729, -0.224081, -0.419659, 0.087254, -0.024548, -0.157517, -0.234395, -0.154612, -0.288431, -0.143530, 0.018467, -0.134020, -0.148511, 0.206129, -0.803561, 0.328818, 0.276690, 0.089489, -0.045209, -0.201190, -0.176724, -0.077554, -0.586637, -0.119721, -0.245902, -0.199473, -0.096897, -0.132526, 0.383076, -0.221478, -0.126948, 0.202318, -0.011098, -0.279032, 0.250542, 0.451955, 0.219316, 0.129862, -0.002030, 0.022959, -0.276592, -0.307828, -0.175137, -0.379494, -0.007972, 0.172129, -0.343408, 0.070438, -0.058437, -0.179771, 0.137690, 0.045583, -0.244879, 0.146491, -0.148371, -0.010585, 0.190167, 0.409568, 0.520782, 0.089642, 0.212486, -0.171877, 0.072363, -0.161637, -0.139864, -0.382570, 0.006065, 0.461277, -0.275275, 0.388692, -0.198189, -0.192596, 0.017304, -0.084780}

//FC bias Rows=41, Columns=1
#define BIAS_FC {-0.008867, 0.130499, 0.154470, 0.238985, 0.067010, -0.176810, 0.060669, 0.013691, 0.113499, 0.074502, 0.008811, 0.174094, -0.000876, -0.067173, -0.152211, -0.103602, 0.134301, -0.226743, -0.202434, -0.146945, 0.011934, -0.136324, 0.235514, -0.017623, 0.031398, 0.068923, -0.169173, 0.095816, -0.069383, 0.234032, 0.188056, 0.230350, -0.052916, -0.183412, 0.172655, -0.089089, -0.102897, -0.110995, 0.075750, 0.141445, -0.361114}

//Softmax: Rows=41, Columns=10
#define WTs_S {-0.079501, -0.054596, 0.236767, 0.344998, -0.225908, -0.154502, 0.222194, 0.349176, 0.097292, -0.187088, 0.289373, -0.520952, -0.312354, -0.042722, 0.003119, 0.373799, -0.295618, 0.030963, -0.247262, 0.149997, -0.196479, -0.423654, 0.014505, 0.257124, 0.026310, 0.095643, -0.287454, 0.105584, -0.261525, 0.283878, -0.611017, 0.075552, 0.080588, 0.081011, 0.099848, 0.149356, -0.155982, -0.122669, 0.178531, 0.020517, -0.381891, 0.166405, 0.091840, -0.045094, 0.222841, 0.281905, 0.299177, -0.406709, 0.206559, -0.168428, -0.116272, -0.294464, -0.263163, 0.142386, -0.384765, -0.245020, -0.118856, -0.252927, 0.196757, -0.122349, 0.269552, -0.232919, 0.125512, -0.347789, 0.053733, -0.029710, 0.274988, 0.419834, -0.106458, -0.405319, -0.544176, 0.284316, -0.272898, -0.471224, 0.319148, 0.021442, -0.322040, 0.519296, -0.389864, -0.042671, -0.598077, 0.387068, 0.160798, 0.020126, -0.026113, -0.070397, -0.397002, 0.172213, 0.087789, -0.261511, 0.242097, -0.474319, 0.313442, -0.193124, 0.325256, 0.050766, 0.213421, 0.126532, -0.693678, 0.028869, 0.182950, 0.106201, 0.097699, -0.140312, -0.168070, -0.348559, 0.092104, -0.526709, -0.431127, -0.366819, -0.152959, 0.213181, 0.289466, 0.027691, -0.406139, -0.023455, -0.482075, 0.315348, -0.405175, -0.558054, 0.522369, -0.137072, 0.178822, 0.112530, -0.278755, -0.482834, 0.008819, -0.056892, 0.151749, 0.609149, -0.400943, 0.095405, 0.049883, 0.390286, 0.084340, -0.343607, -0.048798, 0.091569, -0.551174, -0.168590, 0.068025, 0.199772, 0.020877, -0.206740, 0.207875, -0.316859, 0.562828, 0.054971, -0.086168, -0.732208, 0.121149, 0.035360, -0.013384, 0.101060, -0.159060, 0.082152, -0.141544, -0.564306, 0.103412, -0.382498, -0.112071, 0.581280, -0.004558, 0.173012, -0.411740, 0.477498, 0.037637, -0.164327, -0.300727, 0.188080, -0.215779, 0.450929, -0.429163, -0.774944, 0.727544, 0.038292, 0.453283, -0.061319, -0.183100, -0.727679, -0.101506, 0.207711, 0.006740, -0.086683, -0.101020, -0.318189, 0.338205, -0.198472, 0.163759, 0.258503, 0.076136, 0.384939, 0.241341, -0.101856, 0.048832, -0.715937, 0.019566, 0.140858, 0.128339, -0.029508, 0.345546, 0.214340, -0.098100, -0.218919, -0.051326, -0.013255, -0.402571, 0.465051, 0.164427, 0.197375, -0.235637, -0.131794, -0.542722, -0.016593, 0.472456, 0.210143, 0.372350, 0.007874, -0.166236, -0.434784, 0.102797, -0.203684, -0.356033, 0.524683, -0.674561, 0.544818, -0.218566, 0.188802, 0.022246, -0.830216, 0.157221, -0.024369, -0.690722, -0.469603, 0.069369, 0.071218, -0.249810, 0.517125, -0.036673, -0.267250, 0.172884, 0.238513, 0.279986, -0.178562, 0.214654, 0.197697, 0.217116, -0.027212, 0.263301, 0.378047, 0.065408, -0.346566, -0.127604, -0.188777, -0.211427, 0.020818, 0.014313, -0.315041, -0.271196, 0.176460, 0.318502, -0.394092, 0.279797, 0.430363, -0.157450, -0.186118, 0.018278, -0.399772, 0.023134, -0.108302, 0.017452, 0.096047, -0.351082, 0.223386, 0.122299, 0.354807, -0.456176, 0.436778, 0.214855, 0.318869, -0.200813, 0.076553, 0.055980, 0.118358, 0.210030, -0.526449, -0.482898, 0.024832, -0.186251, 0.186546, -0.150718, 0.182143, -0.120116, 0.245728, -0.463539, 0.203310, -0.273836, -0.211591, -0.192765, -0.231330, 0.116093, -0.376367, -0.678926, -0.026348, 0.230031, 0.417959, 0.084612, 0.120028, 0.001208, 0.409355, -0.152588, 0.052458, 0.259683, 0.303882, -0.514625, -0.300757, -0.726400, 0.473068, -0.485080, -0.003718, 0.142989, 0.426738, 0.523580, -0.160034, 0.106397, -0.231136, 0.066342, -0.041607, 0.360541, -0.625153, 0.190897, 0.240617, 0.070738, -0.319591, 0.348187, -0.403110, 0.078612, 0.194351, -0.369958, 0.227577, 0.271243, 0.212960, -0.520366, -0.737779, -0.215538, 0.409643, 0.629430, -0.666877, 0.021015, 0.022097, 0.135944, -0.539821, -0.090114, -0.166444, -0.302326, -0.047382, 0.139810, -0.003528, 0.285529, -0.127912, -0.016078, -0.151036, 0.205851, 0.210168, 0.261383, -0.248834, -0.419275, 0.272389, 0.223713, 0.386493, -0.567538, -0.053042, -0.433925, -0.070039, -0.342949, 0.305117, -0.963379, -0.519626, -0.149269, 0.272376, -0.130895, -0.339818, 0.236016, -0.336556, 0.059186, -0.112258, -0.168068, 0.216986, 0.128388, -0.316828, -0.102340, -0.281417, 0.344699, -0.289521, -0.129102, -0.107543, -0.146506, -0.366765, -0.032031, -0.062374, -0.207775, -0.107689, -0.410208, -0.085403, 0.493716, 0.172810, 0.163030, -0.373543, 0.327919, -0.211519}

//Softmax bias Rows=10, Columns=1
#define BIAS_S {-0.366025, -0.039824, 0.276706, -0.042883, -0.272650, 0.343550, -0.071705, 0.113483, -0.142470, 0.059693}

