 #include "stm32f4xx.h"
#include <string.h>
#include <math.h>
#define NUM_OF_FILTERS 8 //feature maps
#define NUM_OF_NEURONS 94

const float WTs_C[NUM_OF_FILTERS][5][5]={{{0.310619,0.225598,0.259127,0.367486,0.397284},{0.122157,0.259978,0.430192,0.205385,-0.068858},{-0.442857,-0.109371,-0.022298,-0.180276,-0.385745},{-0.499099,-0.452204,-0.451407,-0.634413,-0.531333},{-0.411542,-0.384347,-0.591668,-0.002242,0.202898}},{{0.417160,-0.176260,-0.391595,-0.223754,0.105830},{0.506903,-0.559149,-0.541587,-0.178033,0.313699},{0.104571,-0.606472,-0.356046,0.153801,0.414884},{-0.232925,-0.600504,-0.245997,0.367399,0.196578},{-0.278566,-0.397959,-0.158547,0.196568,0.234782}},{{-0.085251,0.189940,0.272633,0.072019,-0.074877},{-0.106246,0.304513,0.047542,-0.203836,-0.347000},{-0.142403,0.232545,0.225868,-0.112562,-0.342137},{-0.033424,0.072815,0.231394,-0.173473,-0.215111},{0.070064,0.186101,0.069371,-0.011244,-0.157449}},{{-0.124340,0.244836,0.404564,0.414991,0.134673},{-0.454580,-0.312043,0.059983,0.401096,0.325389},{-0.602141,-0.269120,-0.260026,0.369277,0.254844},{-0.595120,-0.421962,-0.444667,-0.068995,0.144970},{-0.261824,-0.364237,-0.532921,-0.267661,0.032170}},{{0.236782,-0.129613,-0.213247,-0.529676,-0.458541},{0.269323,0.287622,0.128885,-0.186334,-0.159203},{-0.094992,0.242968,0.171632,0.201416,-0.066519},{-0.114950,0.019153,0.263827,0.099301,0.228789},{-0.228144,0.052497,0.230224,0.083856,-0.058734}},{{-0.154477,-0.101629,-0.205412,-0.152281,-0.212165},{0.152569,0.270046,0.296971,0.274406,0.146926},{0.133766,0.413116,0.386976,0.271314,0.399029},{0.026173,-0.190443,-0.245964,-0.206696,-0.051330},{-0.337757,-0.412030,-0.428043,-0.178494,-0.269512}},{{-0.273966,-0.315022,-0.154779,-0.036937,0.268434},{-0.173118,-0.164648,-0.128013,0.260267,0.184733},{-0.204286,-0.085864,0.296665,0.300558,0.017064},{0.097504,0.255140,0.346709,0.005285,-0.137813},{0.190058,0.187436,-0.088452,-0.189398,-0.200113}},{{0.195335,0.103386,0.029045,-0.009217,-0.046211},{0.222103,0.116713,0.114919,-0.115789,-0.123445},{0.163563,0.039597,0.089994,-0.109748,-0.053742},{0.249575,0.166989,-0.155802,-0.238696,-0.071843},{0.187277,0.121743,-0.157570,-0.312996,-0.576697}}};
const float BIAS_C[NUM_OF_FILTERS]={-0.009690, -0.012703, -0.357558, -0.035366, -0.297989, -0.040262, -0.336328, -0.360079};
const float WTs_FC[64*NUM_OF_FILTERS*NUM_OF_NEURONS]={0.176089, -0.006875, 0.132729, 0.217684, 0.060469, 0.144171, -0.207038, 0.090624, 0.009049, 0.059758, 0.115942, 0.095580, -0.020231, -0.090855, 0.025802, 0.091684, 0.056912, -0.034953, -0.086939, -0.058464, 0.019472, 0.113168, -0.093785, 0.024225, 0.209857, 0.113008, -0.173383, 0.098813, -0.117655, 0.151076, 0.074402, 0.084616, 0.039152, 0.013577, -0.045112, 0.072150, -0.030314, -0.005821, -0.049612, 0.137836, 0.248480, -0.054206, -0.094503, 0.037099, -0.107851, -0.103882, 0.332330, -0.026408, 0.044769, 0.066430, -0.190888, -0.147243, 0.083709, -0.064968, -0.221131, 0.033497, -0.120140, 0.099130, -0.081339, -0.049751, -0.122097, -0.148292, 0.053548, -0.244095, -0.158728, 0.288268, -0.037018, -0.149933, -0.073772, 0.070652, -0.088979, -0.003180, -0.117577, 0.170004, 0.054939, 0.039749, -0.039901, -0.000589, 0.009785, 0.016169, 0.072927, 0.009687, 0.001855, -0.074226, 0.013782, 0.083684, 0.080943, -0.044743, 0.112408, -0.063825, 0.091378, 0.052661, 0.040406, 0.078802, 0.221839, 0.246429, 0.104337, -0.008753, 0.135427, 0.244142, -0.209833, 0.099883, -0.031061, 0.128727, -0.121528, -0.037643, -0.112765, 0.040740, 0.061289, 0.043495, 0.000999, -0.141007, 0.006340, 0.332505, 0.155686, -0.095485, 0.043402, 0.030272, 0.036866, -0.076411, -0.245880, -0.097898, 0.024718, -0.052400, -0.047921, -0.011825, -0.116795, -0.041176, 0.006492, -0.048453, 0.056484, -0.078415, 0.067464, 0.032523, 0.325467, 0.027015, 0.025987, 0.045100, -0.172877, 0.053116, 0.145737, 0.037030, 0.078172, -0.051161, 0.044466, -0.042199, 0.192535, 0.070480, 0.140136, 0.426730, -0.094501, 0.019821, 0.039330, -0.174961, 0.193822, -0.011592, -0.023640, 0.042936, -0.154965, 0.111646, -0.008418, -0.155344, -0.078048, 0.030817, -0.077375, 0.036020, -0.122112, 0.083141, 0.111403, 0.160932, -0.050873, -0.028534, -0.087265, 0.048373, -0.072675, 0.125997, -0.033730, -0.047915, -0.021485, -0.134866, 0.027338, 0.026363, 0.007899, 0.017057, -0.060099, 0.047309, 0.147424, 0.032169, -0.038411, 0.084378, 0.073419, 0.055249, 0.056029, 0.094460, -0.024291, -0.032388, 0.045230, -0.009640, 0.011281, -0.087423, -0.051794, -0.063205, 0.101408, 0.086889, 0.041660, -0.021997, -0.066645, 0.089012, 0.123332, -0.004349, 0.006282, -0.056938, -0.023754, 0.047010, 0.049620, -0.019466, 0.104842, -0.087395, -0.068361, 0.053636, 0.100604, -0.039187, 0.104227, 0.015591, -0.054161, 0.047254, 0.085982, -0.090454, -0.028903, 0.062300, 0.015705, -0.048571, 0.048582, -0.058102, -0.030214, 0.009455, 0.034839, -0.116614, -0.023779, 0.088766, 0.079852, 0.075676, 0.027802, 0.053979, 0.068360, 0.000067, 0.126320, 0.079873, 0.110999, -0.052686, -0.049155, 0.030017, -0.132124, 0.064822, -0.016293, 0.048945, -0.027427, 0.015914, 0.044333, 0.037685, -0.083422, 0.134534, 0.008313, 0.070863, -0.054749, -0.024482, 0.058099, 0.077702, 0.018993, -0.018669, 0.044861, -0.087883, -0.013096, -0.039062, -0.067209, -0.024247, 0.059413, -0.067426, -0.069375, -0.099904, 0.009282, 0.056162, 0.044690, 0.224049, -0.127930, 0.015042, 0.225396, 0.257738, -0.036588, 0.096530, -0.038113, 0.139011, -0.067921, 0.064388, 0.028514, -0.062038, 0.056864, 0.087498, 0.044610, -0.067963, 0.100325, 0.146421, 0.092654, -0.042536, 0.009832, 0.121439, -0.067324, 0.006472, -0.084206, 0.028844, -0.048020, -0.103233, -0.091322, -0.026560, -0.129505, 0.020652, -0.056401, -0.163181, 0.141448, -0.200387, -0.086481, 0.110152, -0.059580, 0.025948, 0.198598, 0.147451, -0.144449, 0.154697, 0.071250, -0.121010, -0.080916, -0.137881, 0.159175, 0.018513, 0.134151, -0.044462, 0.124316, 0.132414, -0.074898, 0.059976, 0.021172, -0.159482, 0.242288, 0.012634, -0.032215, 0.099748, -0.074797, 0.015407, 0.095969, -0.102592, -0.049404, 0.094590, 0.074528, 0.067789, -0.065424, 0.080231, -0.029214, 0.010447, -0.040654, 0.096107, -0.007833, -0.112030, -0.070601, 0.055664, -0.034172, 0.051291, 0.092874, -0.121354, -0.105449, 0.076893, -0.111853, 0.026255, 0.079194, -0.047711, -0.049525, 0.120950, 0.043946, 0.188973, -0.033857, 0.052038, -0.019891, 0.055547, -0.156606, -0.015073, -0.079022, -0.124789, -0.006528, -0.051840, -0.091983, 0.016256, -0.003829, -0.081251, 0.093295, -0.043493, -0.065749, 0.215141, 0.210368, 0.133581, 0.015424, -0.057060, -0.022308, 0.058840, -0.008247, -0.051758, 0.125512, -0.159998, 0.011483, 0.031729, -0.113207, -0.064023, -0.056421, -0.219910, 0.012580, -0.162007, -0.108764, -0.054022, 0.058260, -0.145544, -0.043929, -0.030230, -0.025629, -0.035168, 0.059771, -0.052265, -0.086068, -0.107881, -0.123085, -0.129278, 0.209390, -0.002134, 0.241009, 0.257905, -0.040889, 0.057655, -0.150880, -0.194462, 0.228264, 0.080514, 0.074390, 0.032929, -0.274974, 0.184165, -0.055875, 0.060943, -0.163446, -0.050559, -0.017699, 0.086012, -0.073447, 0.217077, 0.172384, 0.265286, -0.078942, 0.100557, 0.059232, 0.098211, -0.033463, 0.201801, 0.036652, -0.252610, -0.070550, -0.061210, -0.122915, 0.057398, 0.050307, -0.104298, 0.033959, -0.060129, 0.049709, -0.019090, 0.051313, 0.170060, 0.027701, 0.137074, 0.133255, 0.047409, 0.099097, 0.041597, 0.089292, 0.133258, -0.050223, -0.089302, 0.177489, -0.187000, 0.143334, -0.092065, 0.032992, 0.097400, 0.109556, -0.172089, 0.002541, 0.098317, -0.084783, 0.198604, -0.043980, -0.028436, -0.031574, -0.141742, -0.080159, -0.199502, -0.091964, 0.094304, -0.067710, 0.152583, -0.033018, -0.151121, -0.026099, -0.213270, 0.064711, 0.181378, 0.022567, -0.241934, 0.181714, 0.248829, -0.018698, 0.022334, 0.147410, -0.027143, 0.008527, -0.046735, -0.026826, 0.163926, 0.070956, 0.232036, 0.205050, -0.030933, -0.084986, 0.143788, -0.264967, -0.086484, 0.050904, 0.058859, -0.009933, 0.138104, -0.084809, 0.087446, -0.049752, 0.095841, -0.058510, 0.044074, -0.029303, 0.200676, 0.275767, 0.101379, -0.054195, -0.051478, -0.196714, 0.185992, 0.076692, -0.218315, -0.005869, 0.048521, -0.121276, -0.165805, 0.103516, -0.218602, 0.111155, -0.054370, -0.037209, -0.054505, 0.168386, -0.084167, 0.043148, 0.188692, 0.023990, 0.008957, 0.068269, -0.116411, 0.082360, 0.116203, -0.009730, 0.058600, 0.019970, -0.039199, -0.127443, -0.019664, 0.008961, 0.114687, 0.068338, -0.027919, -0.062054, 0.051826, -0.084857, 0.055615, 0.003858, -0.087885, 0.085925, 0.041826, 0.078600, -0.093020, 0.018833, -0.046900, 0.017973, -0.176248, 0.056490, -0.089911, 0.093505, 0.008901, -0.163263, -0.178719, 0.058152, -0.074644, -0.014348, -0.009923, 0.043921, -0.038146, -0.028364, -0.044536, -0.043639, 0.137428, -0.037330, -0.091407, -0.023796, -0.006791, 0.033263, 0.050029, 0.047790, 0.007960, 0.013276, 0.176352, 0.047721, 0.141198, 0.064003, -0.088790, 0.168795, -0.007138, 0.071132, 0.047418, 0.007130, 0.062136, -0.019688, 0.127281, 0.019536, 0.072669, 0.109831, 0.014519, 0.000913, -0.048008, 0.011823, -0.047907, 0.034955, 0.043687, 0.030718, 0.107605, 0.062944, 0.052910, 0.070593, -0.000348, 0.089443, 0.038830, -0.025812, -0.045859, -0.067441, 0.002409, 0.015241, -0.046871, 0.015138, -0.017824, 0.042601, 0.128551, -0.096688, 0.059454, 0.061742, 0.021779, 0.046683, 0.042012, -0.103902, 0.083931, -0.041214, 0.028753, 0.012431, -0.125244, -0.050019, 0.013219, 0.042156, 0.018576, 0.092393, -0.010762, -0.068184, 0.019797, -0.095497, 0.012815, -0.048599, -0.068190, 0.090435, 0.010116, -0.054996, 0.018041, -0.078324, -0.111397, 0.062890, 0.109126, 0.053255, 0.047067, 0.062644, -0.053258, -0.005401, -0.097595, 0.071489, -0.051123, -0.045008, -0.006973, 0.121251, -0.035404, -0.035861, 0.030431, -0.058568, 0.049926, 0.020836, 0.054321, 0.076295, 0.061736, 0.093889, -0.038479, 0.009830, 0.083044, -0.038782, -0.032380, -0.048085, 0.080412, 0.084140, 0.053701, -0.029189, 0.017236, -0.100811, 0.067932, 0.001004, 0.109443, -0.014439, 0.011647, 0.054096, 0.026499, -0.035618, -0.003208, -0.109864, 0.082929, 0.039370, 0.100173, -0.024168, 0.039609, -0.052596, 0.004936, -0.034962, 0.049494, 0.053607, -0.000125, -0.028640, -0.057134, -0.076828, -0.080934, 0.104616, -0.056090, -0.055590, -0.082432, 0.229300, 0.001329, 0.036565, -0.090426, -0.200265, -0.012994, -0.020360, 0.145289, 0.111216, -0.135114, 0.043059, 0.102922, -0.059518, -0.066587, -0.007850, -0.017498, -0.079705, -0.139921, 0.094193, -0.101926, -0.007451, -0.052418, -0.010123, 0.016702, -0.100038, 0.092112, 0.067088, 0.047739, -0.016873, -0.103663, -0.061529, -0.008336, 0.178725, -0.105043, 0.035882, 0.009512, -0.113498, -0.065003, 0.050143, 0.067183, -0.034611, -0.068508, -0.116927, 0.003449, -0.029195, -0.250879, -0.018599, 0.076655, 0.023049, 0.048251, -0.048723, 0.019909, -0.033017, -0.258300, 0.092372, -0.085954, 0.052707, 0.039848, -0.158554, -0.038216, -0.025671, 0.039068, 0.095132, 0.169065, 0.058336, -0.107460, 0.038702, -0.018895, -0.133200, 0.040769, -0.011805, -0.045499, 0.025030, -0.012367, 0.121494, 0.108103, -0.058698, -0.107484, -0.065070, 0.056188, -0.020827, 0.131229, 0.077458, 0.097678, 0.096917, -0.019467, 0.019736, -0.091002, -0.047957, -0.066059, 0.013457, -0.027173, 0.066967, -0.039661, 0.124980, -0.288393, 0.120275, 0.014011, -0.206462, 0.073836, 0.063581, 0.107326, 0.004331, 0.015602, 0.010993, 0.166640, 0.137345, -0.046487, -0.073272, -0.131689, -0.151481, 0.185150, -0.025931, -0.074618, -0.084947, 0.084272, 0.021161, 0.048631, -0.211695, 0.070973, 0.077873, -0.062450, -0.091323, 0.035973, -0.220314, -0.011066, -0.096917, -0.061174, 0.143159, -0.011276, 0.019919, -0.109419, 0.041560, 0.079426, -0.053967, -0.140594, -0.215087, 0.150570, 0.167395, -0.210555, 0.023776, 0.001794, -0.072315, -0.210586, 0.061218, -0.066960, 0.081285, -0.026536, 0.139796, 0.039069, -0.019551, -0.088011, -0.093360, -0.014498, -0.075612, 0.219724, -0.020584, 0.147398, -0.040978, -0.162529, -0.014347, -0.039261, 0.162756, -0.039575, -0.126098, 0.008792, 0.143390, -0.041254, 0.037466, -0.032253, -0.050811, 0.005498, 0.053784, 0.210394, 0.013606, -0.011494, -0.023547, -0.061982, -0.161416, 0.032929, -0.085893, -0.056947, -0.027093, -0.083767, 0.082486, 0.008991, 0.066750, 0.362339, 0.017996, -0.149038, 0.140793, 0.289293, -0.102086, 0.047538, 0.074596, -0.009404, -0.168802, -0.005471, 0.148429, 0.137533, 0.068408, 0.094215, -0.061022, -0.141734, -0.062532, 0.348262, 0.293592, -0.101293, -0.053862, 0.122516, -0.111117, 0.019712, -0.073028, -0.046787, 0.134410, -0.289618, -0.010054, 0.074604, -0.073756, -0.032821, -0.113331, -0.303123, -0.102855, -0.201221, -0.072735, -0.156230, 0.234989, -0.061191, 0.147056, 0.076567, -0.087712, 0.032941, 0.154653, -0.168856, 0.035752, -0.088613, 0.015769, -0.045774, 0.250933, -0.012260, 0.158830, 0.199655, 0.111310, -0.008104, 0.000978, -0.317056, 0.286921, 0.118726, 0.016170, 0.290720, -0.336556, 0.101398, -0.102190, 0.048091, -0.160824, 0.199449, 0.057563, 0.002696, -0.148435, 0.050261, 0.189251, 0.024647, -0.127522, 0.000754, -0.120344, 0.131679, -0.087153, 0.171368, 0.005195, -0.089476, 0.012089, -0.089378, -0.124040, -0.085046, -0.063338, 0.068420, 0.144364, -0.029429, 0.004970, 0.049297, 0.063385, 0.101457, -0.037215, -0.145174, 0.155042, 0.211102, -0.049951, 0.151566, -0.044576, 0.132098, -0.031535, 0.030781, -0.046894, -0.096495, 0.181315, 0.091635, -0.119003, -0.128415, -0.070117, 0.119062, 0.173740, -0.134521, -0.093668, 0.115892, -0.012327, -0.065222, -0.154892, -0.062609, -0.003268, -0.141123, -0.072782, -0.005839, -0.140153, 0.075263, -0.046551, -0.149514, 0.136331, -0.047349, -0.027397, 0.085358, -0.104145, 0.059650, 0.369621, -0.050093, -0.185171, 0.266194, -0.106735, -0.057420, -0.068741, -0.061714, -0.062681, -0.004750, 0.144457, -0.050631, -0.153625, 0.023526, 0.136658, 0.221881, -0.292992, -0.142834, 0.050471, -0.086412, -0.198635, 0.149249, -0.167046, 0.142073, 0.081850, -0.065247, -0.060545, -0.070237, 0.112094, 0.029411, 0.069664, -0.083700, 0.075420, -0.068656, 0.119700, 0.118001, 0.040400, 0.194414, 0.008793, 0.022193, -0.050344, 0.030293, 0.074009, 0.052989, -0.276639, -0.052043, -0.100721, -0.009714, 0.036830, 0.041982, 0.002285, 0.004956, 0.110276, 0.014618, 0.031500, -0.114338, 0.005780, 0.016314, -0.080734, 0.094326, 0.033008, -0.005474, -0.050535, -0.112841, 0.061141, 0.026851, -0.011261, -0.060682, -0.105385, -0.062315, -0.155695, 0.225526, 0.147404, -0.191268, -0.040510, -0.100178, 0.092165, -0.054704, -0.062794, 0.046007, 0.017505, -0.034476, 0.089545, -0.006062, -0.166517, -0.094700, -0.067631, -0.048581, 0.106839, -0.181841, 0.006070, 0.028296, 0.114380, -0.002551, -0.018986, 0.085764, -0.067544, -0.015279, 0.124065, -0.087620, 0.017865, -0.009955, -0.064324, -0.106487, 0.133400, 0.018066, 0.143615, 0.197691, -0.074532, 0.218277, -0.038045, -0.177158, 0.042024, 0.036020, -0.020057, 0.059001, -0.179701, 0.115541, 0.001393, -0.125780, 0.045849, 0.122662, -0.043141, -0.130894, -0.099670, 0.043934, 0.071515, 0.121745, 0.000388, 0.024485, -0.006627, -0.078825, -0.077421, 0.134621, 0.051163, 0.056604, -0.063841, -0.053131, -0.052902, 0.076474, -0.165855, -0.047370, 0.049237, 0.068308, 0.079783, 0.156966, -0.041898, -0.128425, -0.096414, -0.065265, 0.328883, -0.122859, 0.049431, -0.007418, -0.024700, 0.033228, 0.216586, 0.014605, 0.075463, -0.406322, 0.056104, 0.092575, -0.104415, 0.112427, -0.141458, -0.135837, 0.160055, -0.123141, -0.024027, 0.185507, 0.070306, -0.225882, 0.056469, -0.176223, 0.129889, -0.049751, 0.068650, 0.101509, -0.094517, 0.231407, 0.205925, 0.159326, -0.007554, -0.269074, -0.019636, 0.205178, -0.224291, -0.011371, 0.231437, 0.211078, -0.194118, 0.174269, -0.027173, -0.095666, 0.064246, -0.142002, 0.022613, -0.115646, 0.037493, -0.025457, -0.251782, 0.107329, 0.035387, 0.257943, -0.480649, 0.077691, -0.091791, 0.103837, -0.259138, -0.085125, 0.190752, 0.008706, -0.087972, -0.044209, 0.027301, 0.002951, -0.195995, 0.029748, 0.349764, -0.156270, -0.088571, -0.127725, 0.183698, 0.158058, -0.245140, 0.031697, -0.085166, -0.121192, -0.227641, 0.113007, 0.189933, 0.267924, -0.227513, 0.165871, -0.134665, -0.079580, -0.032280, 0.086957, -0.171513, -0.049639, -0.002182, 0.168978, -0.166285, -0.192066, 0.154349, 0.011474, 0.041212, -0.092663, 0.042048, -0.026732, 0.015902, 0.084729, 0.105816, 0.077159, 0.048503, 0.082927, -0.115684, 0.043878, -0.083856, 0.256304, -0.022438, -0.139641, 0.006567, 0.151721, 0.084054, -0.165680, 0.011095, -0.030147, 0.052841, -0.111898, -0.015272, 0.168649, -0.230406, 0.006799, -0.101722, -0.125613, -0.028299, -0.194256, -0.064023, 0.033648, 0.001924, 0.046204, -0.085842, 0.086427, -0.193232, 0.108263, 0.082437, -0.203168, -0.014301, -0.124954, 0.117823, -0.201102, 0.169474, 0.027512, -0.009776, 0.262186, 0.016949, 0.156146, -0.142636, -0.258805, 0.078512, 0.258702, -0.077400, 0.117981, -0.125800, -0.062338, -0.101633, -0.131894, 0.109273, 0.097300, 0.122005, 0.040968, -0.136244, -0.027239, -0.024445, -0.013377, 0.041188, -0.074139, -0.133207, 0.067547, 0.016607, 0.227257, -0.146804, -0.115977, -0.017667, -0.123759, -0.068893, 0.018161, -0.151812, -0.111488, 0.028276, 0.010336, -0.093417, 0.124978, 0.130111, 0.158468, 0.028222, -0.029691, 0.007778, 0.093534, 0.035374, 0.086293, 0.008846, 0.056178, -0.140191, -0.178706, 0.080554, 0.051275, 0.023089, 0.035634, -0.114271, -0.079727, -0.087493, 0.181785, 0.199997, -0.020731, -0.078124, 0.096593, 0.038010, -0.106680, -0.002089, 0.086897, 0.127009, -0.139553, 0.051026, -0.070131, -0.059631, -0.110187, -0.209121, -0.200175, 0.013298, -0.110561, -0.072335, -0.198644, 0.063983, -0.146895, 0.092958, -0.062650, -0.144491, 0.023512, 0.109268, -0.036299, 0.031267, 0.029753, -0.076992, -0.029588, 0.116878, -0.021049, 0.064681, 0.348915, -0.028923, 0.078494, -0.016243, -0.174350, 0.186171, 0.020640, -0.094721, 0.169642, -0.306680, 0.014621, 0.043701, 0.002962, -0.135691, 0.041146, 0.005116, -0.058156, 0.024149, 0.109706, 0.096383, 0.104030, -0.035940, -0.034534, -0.186950, 0.095003, 0.057699, 0.100327, 0.046465, -0.229284, -0.067043, -0.108067, -0.108535, -0.003385, -0.057256, 0.074156, 0.201336, 0.047717, 0.023673, 0.047244, -0.138527, 0.060883, -0.065543, 0.050134, 0.032723, 0.197411, -0.199565, -0.183032, 0.056599, 0.039728, -0.082484, 0.058518, 0.128630, -0.133732, -0.008658, -0.085313, 0.104834, 0.030619, -0.052624, 0.113927, 0.091664, -0.141319, -0.001090, 0.012127, -0.232130, -0.052990, -0.116472, 0.228758, 0.088705, 0.051893, 0.021623, 0.295268, -0.057167, 0.085761, 0.209471, -0.086604, 0.058853, 0.028348, 0.028183, -0.106957, 0.120936, -0.076010, -0.178793, 0.070404, -0.005376, -0.155608, 0.113401, 0.142390, 0.061348, 0.290399, 0.240517, 0.014423, 0.076253, -0.029388, -0.266910, 0.046652, 0.037127, 0.072869, 0.229510, 0.179888, 0.033518, 0.192718, 0.253438, 0.068994, 0.087503, -0.051473, -0.055523, 0.244609, -0.054164, 0.148805, 0.002641, -0.022693, -0.062979, -0.222702, 0.060864, 0.146849, -0.044414, -0.036415, -0.104671, -0.077807, 0.043542, -0.189947, -0.037942, -0.008031, -0.038711, 0.037330, 0.179435, -0.104507, -0.074394, 0.047468, 0.089753, 0.029726, -0.238455, -0.135988, -0.033403, 0.032076, -0.022047, -0.096997, -0.001301, 0.096953, -0.145946, -0.059632, -0.081698, 0.041627, 0.098583, -0.031010, -0.041839, -0.021062, 0.228434, -0.100433, -0.071004, -0.139704, -0.138560, 0.060759, 0.103006, -0.007942, -0.062486, -0.088036, 0.077216, 0.045046, -0.017298, 0.167518, -0.005834, -0.111068, 0.051017, 0.045098, 0.142699, -0.103756, -0.043010, 0.145440, 0.184459, 0.106944, -0.054943, -0.207422, 0.164235, 0.025263, -0.076213, 0.049225, -0.114130, 0.273250, 0.129099, 0.015916, 0.006583, 0.181877, -0.033898, 0.000325, -0.043856, 0.013426, -0.063582, -0.004418, 0.137898, -0.088339, 0.053404, -0.011056, 0.232660, -0.070825, -0.086631, 0.196192, -0.127069, -0.175775, 0.010773, 0.038172, 0.041248, 0.048205, 0.039655, -0.013602, -0.032701, 0.054736, 0.117905, 0.106600, 0.080763, 0.111028, -0.011281, 0.041523, 0.028689, 0.068229, -0.012685, -0.101401, -0.088167, -0.024226, -0.015878, 0.009849, 0.179314, -0.001179, 0.062740, 0.014729, 0.041355, -0.285316, -0.000906, 0.145780, 0.093304, -0.064868, 0.200728, 0.365361, -0.210972, 0.038509, 0.012854, 0.134380, -0.199382, 0.045463, -0.109630, -0.128733, 0.096136, 0.020012, -0.200326, -0.110679, -0.146062, 0.310472, 0.202733, -0.241903, -0.026856, 0.022440, -0.119694, -0.106984, -0.118629, 0.018842, 0.091268, -0.166563, -0.017903, -0.011415, 0.016017, 0.064669, -0.037205, -0.242491, 0.120137, -0.152256, -0.079791, -0.041663, 0.151214, -0.113597, 0.019861, 0.037125, -0.188457, 0.196876, -0.037693, 0.084300, -0.027047, -0.121860, -0.007054, 0.070939, 0.242905, -0.087601, 0.114294, 0.192897, -0.009829, 0.219250, -0.049413, -0.131868, 0.305618, -0.027642, -0.067292, 0.314986, -0.208961, -0.044173, 0.070338, 0.054537, -0.152936, 0.028991, 0.058980, -0.037025, -0.093081, 0.044643, 0.205826, 0.123896, -0.069812, 0.094223, 0.074236, 0.016887, 0.000683, 0.169585, -0.016047, -0.047087, -0.030762, -0.193043, -0.188302, -0.062361, -0.144877, -0.112597, 0.117597, 0.049536, -0.034143, 0.128544, -0.036730, -0.024174, -0.150984, -0.067643, 0.006673, -0.088958, -0.111983, -0.039412, 0.069903, 0.190014, 0.033146, 0.120237, -0.058695, 0.008780, 0.150577, 0.020194, -0.040239, -0.093979, 0.037583, 0.026715, 0.119629, -0.009219, -0.065029, 0.073920, 0.055426, 0.094895, -0.018632, 0.176209, 0.123586, -0.172907, -0.064647, -0.049861, -0.047473, 0.217991, 0.044157, 0.025663, 0.163424, 0.073403, -0.099551, 0.031152, 0.069790, -0.081127, 0.388536, -0.032288, -0.045785, 0.080597, 0.090484, 0.171936, 0.044487, -0.015716, -0.019095, 0.002350, 0.050590, 0.059309, -0.071844, 0.069842, 0.116369, 0.196221, -0.128844, -0.009722, 0.024720, 0.027604, -0.076317, 0.112987, -0.005351, -0.166627, -0.064755, -0.063792, 0.120590, -0.011642, 0.093183, -0.167802, 0.144265, 0.058402, 0.269641, 0.002896, 0.200039, 0.003141, -0.159847, -0.048023, 0.011831, -0.104371, -0.019282, -0.005284, -0.059825, -0.023140, -0.072148, 0.195654, 0.030825, -0.050092, -0.021554, 0.036615, -0.105675, -0.047389, -0.059589, -0.063583, -0.007691, 0.007401, -0.028896, 0.085876, -0.082578, 0.062154, 0.013175, -0.156295, 0.109102, -0.160918, 0.209503, 0.066636, 0.166568, -0.101265, -0.104600, 0.047110, -0.076127, 0.070607, 0.075964, 0.041370, -0.002120, -0.006835, 0.113660, -0.001959, -0.093796, 0.030786, -0.095122, -0.058207, 0.090953, 0.080171, -0.002458, 0.022047, -0.065688, -0.160062, 0.063630, 0.056658, -0.091827, 0.080839, 0.038230, 0.059966, 0.087737, 0.057533, -0.103452, 0.142822, 0.089548, -0.287058, 0.083324, 0.104855, 0.062589, -0.151587, 0.028958, 0.060422, -0.058530, -0.082503, 0.078167, 0.090020, -0.004746, -0.255335, 0.058676, 0.005411, 0.043306, 0.186036, -0.043041, 0.007321, 0.100148, -0.151542, 0.104532, 0.112592, 0.042586, 0.111759, -0.044828, -0.014663, -0.059926, 0.100287, 0.020540, -0.016693, 0.045752, 0.096675, 0.062537, 0.104325, 0.050533, -0.044144, -0.035345, -0.021809, -0.117811, -0.085060, -0.032984, -0.030441, 0.202519, -0.041351, 0.043830, -0.154344, 0.083703, -0.049284, -0.123238, 0.098883, 0.211667, 0.038983, 0.065816, 0.025054, -0.018969, 0.127550, 0.023135, 0.136840, 0.226763, -0.077270, 0.054173, -0.092127, -0.029838, -0.040004, -0.315733, 0.024561, 0.047673, 0.000020, -0.040047, 0.048769, 0.069335, -0.267486, 0.126359, -0.102524, 0.158672, -0.180092, -0.010811, 0.131500, -0.333925, 0.282632, 0.065073, 0.148542, -0.020667, -0.250576, -0.024415, 0.146221, -0.274948, -0.023792, 0.149045, 0.172070, -0.101766, 0.141869, -0.097206, 0.214643, -0.026470, -0.207340, 0.109479, -0.233473, 0.127272, -0.094731, -0.339925, -0.143836, 0.030319, 0.148219, -0.052011, 0.074703, -0.175509, 0.134588, -0.403824, 0.166407, 0.081444, -0.060896, -0.077309, -0.013105, -0.020048, 0.010859, -0.064971, -0.095180, 0.172171, -0.116861, -0.086598, -0.335946, 0.132691, 0.092422, -0.109115, 0.043375, 0.004455, -0.203899, -0.167566, 0.045520, 0.127537, -0.082519, -0.193639, -0.046265, -0.244283, 0.043867, 0.166447, 0.015930, -0.042491, 0.146678, -0.020703, 0.096364, 0.024596, -0.295458, 0.139487, 0.014373, 0.010726, -0.058701, -0.077839, 0.009460, 0.089231, 0.073810, 0.316691, 0.056097, 0.096034, -0.064139, 0.013790, -0.093852, -0.208583, 0.233218, -0.021441, -0.079208, -0.032406, 0.090360, 0.142677, -0.212900, -0.009682, -0.042130, 0.056135, -0.221190, 0.083860, 0.126706, -0.211193, 0.003287, -0.170511, 0.076122, -0.001860, -0.198789, 0.036356, -0.012751, -0.027028, -0.134064, 0.029322, -0.069877, -0.082940, 0.164362, 0.043003, -0.140391, -0.088193, 0.011651, 0.047154, -0.148069, 0.189914, 0.094171, 0.075051, 0.114351, 0.126907, 0.006791, -0.019056, -0.020677, -0.074717, 0.260890, -0.054901, 0.236704, 0.045510, -0.116417, -0.019209, -0.088493, 0.090534, 0.050568, 0.047014, -0.071267, -0.089959, 0.002340, 0.062843, -0.102782, 0.052781, 0.119428, -0.119050, 0.062205, -0.051287, 0.180967, -0.050755, 0.023087, 0.156399, -0.062368, -0.166040, -0.023723, -0.131400, -0.090538, 0.246960, -0.069048, -0.016952, 0.029090, 0.152959, 0.317521, -0.000209, -0.186546, 0.094720, 0.292254, -0.088413, 0.133218, -0.039612, 0.136661, -0.093483, 0.041228, 0.001216, 0.155930, -0.009275, 0.042293, 0.003224, -0.164302, -0.085427, 0.287166, 0.186706, -0.210798, -0.018440, 0.060055, -0.070063, -0.115131, -0.175153, -0.046425, 0.134690, -0.219635, -0.044189, -0.066242, -0.037263, -0.057466, 0.014329, -0.269117, 0.026819, -0.097018, -0.076168, -0.035573, 0.128538, -0.239031, 0.033103, -0.084767, -0.235422, 0.185211, 0.096648, -0.009018, 0.085602, -0.116948, 0.011785, 0.112501, 0.097871, -0.051848, 0.175866, 0.234183, -0.131156, 0.056984, 0.023372, -0.237859, 0.216648, 0.099336, -0.022448, 0.359396, -0.192432, -0.182619, 0.046202, 0.020174, -0.206507, -0.138418, 0.155629, 0.114979, -0.018931, -0.012080, 0.153875, -0.004563, -0.129861, 0.167681, 0.024844, 0.150966, -0.087613, 0.300141, 0.095472, -0.220346, -0.022882, -0.156382, -0.151980, -0.134681, -0.109044, -0.016709, 0.206255, 0.042302, 0.035986, 0.108691, -0.146097, 0.087684, -0.030723, -0.099057, 0.144995, 0.282660, 0.046977, -0.286485, -0.079069, 0.119566, 0.113931, 0.057940, -0.038654, -0.079840, -0.131572, -0.025536, -0.239010, 0.022481, -0.172208, 0.204311, 0.142776, -0.232868, 0.002617, -0.082207, 0.002164, -0.055466, 0.072086, 0.184797, 0.143936, -0.007616, 0.002041, 0.001108, -0.155912, 0.091453, 0.120190, -0.110416, -0.073335, -0.235342, 0.031668, -0.067852, 0.012420, -0.027416, -0.167785, -0.073200, -0.111172, 0.023891, -0.035861, 0.119075, -0.091278, 0.050101, 0.207226, 0.219566, 0.011307, -0.235527, -0.266769, 0.138523, 0.196965, 0.064365, 0.077484, 0.194211, 0.107733, 0.162782, 0.154352, 0.217041, -0.041855, -0.068848, -0.100433, 0.170178, -0.001893, 0.324029, 0.069893, -0.132462, 0.218718, -0.245164, -0.034566, 0.157088, 0.037746, -0.224625, -0.030735, -0.066033, 0.018391, -0.033139, 0.075160, 0.244145, 0.005851, 0.134170, -0.094248, 0.124700, 0.111217, 0.069395, 0.075703, 0.027859, -0.326246, 0.121818, -0.092561, 0.087900, -0.063960, -0.012669, -0.052307, 0.270831, -0.290075, 0.093929, -0.073800, 0.117532, 0.159058, -0.047684, -0.098016, 0.121629, 0.021508, 0.063802, -0.170139, -0.037748, 0.033613, 0.278679, -0.093150, -0.193995, -0.056241, -0.120167, 0.083689, 0.226674, -0.155299, 0.195676, -0.048748, 0.041444, 0.025744, -0.085219, 0.109328, -0.044906, 0.099551, 0.089302, -0.111563, 0.021914, -0.072251, -0.243322, 0.129838, -0.089320, -0.391436, -0.085997, -0.096123, -0.042861, -0.073008, -0.003066, 0.082669, -0.009549, -0.090330, 0.172481, -0.090401, -0.003246, 0.111100, 0.105305, 0.063964, -0.038358, -0.109660, 0.106388, 0.141943, -0.033254, 0.082817, 0.152673, -0.301689, 0.040447, -0.047314, 0.214648, -0.062081, 0.147545, 0.082576, 0.084164, 0.007655, -0.132945, 0.267969, 0.260888, 0.014666, -0.217787, -0.052498, 0.062466, -0.087486, 0.071884, 0.094947, -0.103491, -0.112314, -0.036937, -0.019452, 0.010499, 0.171457, 0.072531, -0.004370, -0.083766, -0.158102, 0.071903, 0.053172, 0.115448, -0.042948, -0.300588, 0.017864, -0.016130, -0.007245, -0.138444, 0.013252, -0.010075, 0.092346, -0.041187, -0.045877, -0.085237, 0.031774, 0.071181, -0.135455, -0.011675, -0.190400, 0.213774, 0.236206, 0.020044, -0.019133, 0.127210, -0.064858, 0.052172, -0.031088, 0.195359, 0.173572, -0.020793, -0.014129, -0.002526, -0.185272, 0.067493, 0.028629, 0.009905, 0.079136, -0.242687, -0.056500, -0.034047, -0.095261, -0.139057, 0.143717, 0.220743, -0.084252, 0.172710, 0.078782, -0.027715, -0.029390, 0.042352, 0.115789, 0.074439, 0.115960, 0.063013, 0.087773, -0.114971, 0.139914, 0.044160, -0.035590, -0.143623, 0.131352, 0.229964, -0.113251, 0.183351, -0.167500, -0.087522, 0.130724, -0.027989, -0.104567, 0.187251, -0.028252, 0.086383, 0.209226, -0.026529, -0.131385, -0.269657, 0.010578, 0.075343, -0.217296, -0.105065, 0.042429, 0.045902, 0.037090, 0.044370, 0.024339, 0.025714, -0.053525, 0.067428, 0.036945, -0.120389, 0.039742, -0.027786, -0.172364, -0.121191, -0.015053, 0.109808, -0.086823, -0.094103, 0.039926, 0.005996, 0.097850, -0.010896, -0.058457, 0.067279, 0.054073, 0.012483, 0.073351, -0.063215, 0.095612, -0.069774, -0.058785, 0.067132, 0.058187, 0.157065, 0.181767, 0.072917, -0.030569, -0.064096, 0.002777, 0.066423, 0.144542, 0.092382, -0.010631, 0.078461, -0.003588, 0.133875, 0.063709, -0.017318, 0.023412, 0.065011, -0.031274, 0.052791, -0.087799, -0.250176, -0.069393, -0.149228, -0.097853, -0.003586, -0.087190, 0.083869, -0.076968, 0.185096, 0.017150, 0.096693, -0.041478, 0.069108, -0.014762, 0.161590, 0.005058, 0.068884, -0.253263, 0.022801, -0.085657, -0.120139, 0.122003, 0.147408, -0.203280, 0.095544, 0.043134, -0.178031, -0.065775, -0.020889, -0.060267, -0.155507, 0.058990, 0.080104, 0.030127, 0.083574, 0.125168, 0.117884, 0.022061, 0.029165, -0.154087, 0.122293, 0.091977, 0.081758, 0.010048, 0.019842, 0.008625, -0.080199, 0.086715, -0.003713, 0.025251, -0.091453, 0.130002, 0.000355, -0.052536, -0.079464, -0.093040, 0.040405, -0.031668, -0.160038, 0.016754, 0.090868, -0.085359, -0.041120, 0.089511, -0.051937, -0.075561, -0.009684, 0.057531, -0.113625, 0.145163, -0.025523, -0.082213, -0.027155, -0.074858, -0.013963, 0.080478, 0.142868, -0.097710, -0.038962, 0.136159, -0.058966, -0.078189, 0.158924, -0.065869, -0.013424, 0.000027, 0.044198, -0.037218, 0.147844, -0.036386, 0.134938, 0.099994, 0.011210, -0.038310, -0.014641, -0.077947, -0.117196, -0.041444, 0.164067, -0.117994, 0.080188, -0.142520, 0.003413, -0.072105, 0.156627, 0.055632, 0.068016, 0.010662, -0.005058, -0.142911, 0.018441, 0.056319, 0.102032, 0.063969, -0.020181, -0.014751, 0.069466, 0.005418, 0.029366, -0.076370, -0.055266, -0.069115, 0.061402, -0.003303, 0.093696, 0.002594, 0.031278, 0.103005, -0.001812, 0.074061, 0.040447, 0.012857, -0.041614, -0.084994, -0.139775, 0.042865, -0.033910, 0.033405, -0.042786, -0.019738, -0.057394, 0.019522, 0.070788, -0.025444, 0.031987, 0.171452, 0.074900, -0.139084, -0.236558, 0.035879, -0.079863, 0.067949, -0.095480, 0.271038, -0.132417, 0.224080, 0.019311, 0.035044, 0.145413, 0.018946, 0.130916, 0.267473, -0.120738, -0.028756, -0.000436, 0.027989, -0.041802, -0.347867, -0.016264, 0.044589, 0.070697, -0.068499, 0.188989, 0.024613, -0.086298, 0.124354, -0.129844, -0.012272, -0.267827, -0.024305, 0.104701, -0.375031, 0.081145, -0.102170, 0.015509, 0.055682, -0.051575, 0.082599, 0.091853, -0.333172, -0.128453, 0.111390, 0.090716, -0.221321, 0.085309, 0.011950, 0.272729, -0.094626, -0.114829, 0.158359, -0.227619, 0.190115, 0.120707, -0.070490, 0.027624, -0.068222, 0.116232, -0.127446, -0.227256, -0.135620, 0.237368, -0.222296, 0.243470, 0.125323, -0.217014, 0.076870, -0.009117, -0.027603, -0.067238, 0.032621, -0.026570, 0.225181, 0.118784, 0.015772, -0.232508, 0.009795, -0.014044, -0.015577, 0.082866, -0.045037, -0.034494, -0.286624, -0.124075, 0.044513, 0.080972, -0.225382, -0.127814, -0.377187, -0.011909, 0.153558, -0.004902, 0.017057, -0.276650, -0.048373, 0.131387, 0.014593, -0.327482, -0.040407, 0.024785, 0.090838, 0.018549, -0.012148, 0.019892, 0.033726, 0.044387, 0.236745, 0.076894, 0.106178, 0.043678, -0.039966, -0.099542, 0.031110, 0.114468, -0.145730, 0.085735, -0.059444, -0.068435, 0.088482, 0.028642, 0.210420, 0.022686, -0.041091, -0.173367, -0.059156, -0.100295, 0.187057, -0.047730, -0.084901, 0.099804, -0.039302, -0.143036, 0.075751, -0.067684, 0.007522, 0.089003, -0.290197, 0.111277, -0.054135, 0.168611, -0.096466, -0.153564, -0.068459, 0.118131, 0.051167, -0.151938, 0.020906, -0.131741, -0.082044, -0.167067, 0.091857, -0.057382, -0.079490, -0.258004, 0.111265, 0.078564, 0.005625, 0.205118, -0.003047, -0.287929, 0.082208, -0.185774, 0.186838, -0.011824, 0.083241, 0.039196, -0.050191, 0.006197, 0.021779, 0.057094, -0.030127, 0.100787, -0.074201, 0.112212, -0.055262, 0.106513, -0.148489, -0.029408, 0.052166, -0.000390, -0.051358, -0.029164, 0.050152, 0.016313, 0.022344, -0.035062, 0.006041, -0.232854, -0.050855, 0.149109, 0.025238, -0.288151, -0.158977, 0.098848, -0.192998, 0.208321, -0.096810, 0.065104, -0.019064, 0.007528, 0.013240, 0.166226, 0.131199, 0.052719, -0.027026, -0.010318, -0.148620, 0.277424, 0.096026, -0.228898, -0.086039, 0.169412, 0.008278, -0.042856, -0.139103, 0.078899, 0.082980, -0.305489, -0.055012, -0.049765, -0.151600, -0.009923, -0.025251, -0.030912, 0.192689, -0.163202, -0.056143, -0.188868, 0.195528, -0.075061, 0.234228, -0.203256, -0.143211, 0.122165, 0.132993, -0.139366, -0.027059, -0.149337, -0.091248, 0.072683, 0.222508, 0.070363, 0.164150, 0.034531, 0.014459, -0.057034, -0.032055, -0.031621, 0.247085, -0.055276, -0.010487, 0.324110, -0.181331, 0.060371, -0.040926, -0.193669, -0.048984, -0.063695, 0.221993, 0.003823, 0.026499, 0.119079, 0.202516, -0.167595, 0.064068, 0.042629, 0.040985, 0.084473, -0.091597, 0.123571, 0.003368, -0.127952, -0.221095, 0.022476, -0.034767, -0.005272, 0.095428, -0.035238, 0.016514, -0.038853, 0.095562, -0.079015, -0.016116, -0.023123, -0.165461, -0.128802, 0.157374, 0.025976, 0.099699, -0.243766, 0.081657, -0.009039, 0.061704, 0.093420, 0.000938, 0.055935, -0.129475, -0.070704, -0.202597, -0.009726, -0.014302, -0.033557, 0.034593, -0.084863, 0.073498, -0.004952, 0.097547, -0.051282, 0.132616, 0.032654, 0.142221, 0.064081, 0.043311, 0.015851, -0.106145, 0.181006, 0.201515, 0.006160, -0.071009, 0.052888, -0.024681, -0.047544, -0.030817, -0.001702, 0.018183, -0.066106, 0.045951, 0.107031, -0.111066, 0.336283, -0.055479, 0.039291, 0.271125, -0.023366, 0.057748, -0.203636, -0.167801, 0.001574, 0.089942, -0.062825, 0.035595, 0.087961, 0.008464, 0.229648, 0.067123, 0.011650, 0.094946, -0.223810, -0.086680, -0.289690, 0.100573, -0.046952, 0.238573, -0.067970, 0.172405, -0.104795, -0.122588, 0.063751, 0.201011, -0.115732, -0.189371, 0.131163, -0.100491, 0.114756, -0.083279, 0.082106, 0.051898, 0.298271, 0.015220, -0.061392, 0.094083, 0.082659, -0.054593, -0.018926, -0.051218, -0.163650, -0.033745, 0.228183, 0.016116, 0.061065, -0.095174, 0.319432, -0.060101, 0.139108, -0.085430, -0.103114, 0.202405, 0.186183, -0.114318, 0.063857, -0.015769, -0.006056, -0.057331, -0.021607, 0.094595, 0.200365, 0.035236, -0.250108, 0.022875, 0.011873, 0.001965, 0.222953, 0.004228, 0.056745, 0.153990, 0.078604, -0.012594, -0.019419, 0.203481, 0.136208, -0.001253, 0.024529, -0.117644, -0.112834, 0.000129, -0.216161, 0.153242, -0.154963, -0.421762, -0.176941, -0.049166, 0.073266, -0.022305, 0.047926, 0.018202, -0.142821, 0.043028, 0.122701, 0.065056, -0.136498, 0.100323, 0.200691, -0.225323, -0.385773, -0.135353, 0.046803, 0.193240, 0.136547, -0.102835, 0.087279, -0.109035, 0.059801, -0.112785, -0.094820, 0.046257, 0.159991, 0.219886, 0.208929, 0.001880, 0.050493, 0.082137, -0.084751, 0.081017, -0.319633, -0.050124, 0.183288, 0.087540, 0.018713, 0.020062, -0.059484, -0.148582, 0.036186, -0.044554, -0.036912, 0.072982, -0.089882, 0.090796, -0.048780, -0.052625, -0.150008, -0.019757, 0.212446, 0.096563, -0.236247, -0.097839, 0.185384, -0.180744, 0.136223, -0.087202, -0.191935, 0.097327, 0.007126, -0.135333, 0.029291, 0.097747, 0.071972, -0.013598, -0.161009, -0.063394, 0.096850, 0.066520, 0.022051, 0.049315, 0.034653, 0.078347, 0.082486, -0.060043, 0.077668, -0.072123, 0.054095, 0.082116, -0.035612, 0.070236, 0.197054, 0.044338, -0.024382, -0.049620, -0.175985, 0.021368, -0.186260, -0.006282, 0.080643, -0.431021, 0.087101, -0.102137, -0.052582, -0.232666, -0.101423, -0.017772, -0.043330, 0.024818, 0.144212, -0.100193, -0.116989, -0.021316, 0.077197, -0.056521, -0.136043, -0.099973, -0.144754, 0.163621, -0.024148, -0.112413, 0.221983, -0.224778, -0.041867, -0.028974, -0.030244, -0.029839, 0.058749, 0.054607, 0.227717, 0.107087, 0.231432, 0.172134, -0.034934, -0.090429, -0.130542, -0.067439, -0.001928, -0.109545, -0.048708, -0.145218, -0.052610, 0.018191, -0.173667, -0.018244, -0.047694, -0.002706, 0.013033, 0.018061, -0.065029, -0.105142, -0.201993, 0.021197, 0.011267, -0.050695, -0.026202, 0.104513, -0.283307, 0.212686, 0.023794, -0.074757, -0.157116, 0.205394, 0.007111, 0.317808, -0.009637, 0.104741, 0.065677, 0.093990, 0.085860, -0.019348, -0.095230, 0.044429, -0.051304, 0.090126, 0.332647, -0.018059, -0.060142, 0.044548, -0.210729, 0.257144, -0.077338, 0.004920, 0.167837, 0.024982, 0.100388, 0.077228, 0.163408, -0.028077, 0.028304, 0.023232, 0.150441, -0.103376, -0.173305, -0.058586, -0.165672, 0.123827, 0.063353, -0.059919, 0.201090, -0.091688, -0.178339, 0.111378, -0.245432, 0.141066, 0.151956, -0.103758, 0.287640, -0.174126, 0.054243, 0.125306, -0.059268, -0.038836, 0.129810, -0.065272, -0.106561, 0.198428, -0.074726, 0.008383, -0.059244, 0.098199, -0.182301, 0.169889, -0.001356, 0.242528, 0.225934, -0.175270, -0.040988, -0.198787, -0.099256, 0.138205, 0.119038, -0.084520, -0.030960, -0.027612, -0.082993, 0.083070, 0.086222, 0.020721, 0.132236, -0.099095, -0.021640, -0.058720, -0.017257, -0.028100, -0.132302, 0.093459, 0.137514, -0.084435, -0.102296, 0.043848, -0.045427, 0.040915, -0.002758, 0.014055, -0.114397, -0.007709, 0.044985, 0.071086, -0.069182, -0.072185, 0.048782, 0.071583, 0.041021, -0.040712, 0.077354, -0.048390, 0.088093, -0.100832, 0.087613, -0.040718, 0.018836, 0.087292, 0.069443, 0.120283, -0.030911, 0.049627, 0.092859, 0.121338, 0.053564, -0.016000, 0.035270, -0.008491, -0.136536, 0.027089, -0.136516, 0.072403, 0.002499, -0.368961, -0.108835, 0.031338, 0.100481, -0.263643, 0.171055, 0.081961, -0.044531, -0.012513, 0.125549, -0.087182, -0.055175, -0.001296, 0.098050, -0.043737, 0.071933, -0.086178, 0.038817, 0.020469, 0.040901, -0.052175, 0.051654, -0.027807, -0.010110, -0.011389, -0.087072, -0.018577, -0.110381, 0.054182, 0.129594, 0.157922, 0.115113, -0.062151, 0.037896, -0.117497, -0.191025, -0.047740, -0.024179, -0.035888, -0.086374, -0.027207, -0.051393, -0.035542, 0.002853, -0.056220, 0.051061, 0.058403, 0.010087, 0.074190, 0.059336, -0.096289, -0.043760, 0.077401, 0.016765, -0.021948, -0.048701, 0.018949, -0.096668, 0.082887, 0.011636, 0.042997, 0.086363, 0.052141, 0.172677, 0.074075, -0.005973, 0.100721, -0.085451, 0.108586, 0.027402, -0.242193, -0.027364, -0.189516, 0.062275, 0.065296, 0.093772, -0.075928, 0.012745, 0.123086, -0.185021, -0.019698, -0.280536, 0.050531, 0.031982, -0.156129, 0.137645, -0.032297, 0.105041, 0.059909, -0.063823, -0.076777, 0.099276, -0.235194, 0.008641, 0.064603, 0.021043, -0.124107, -0.024384, -0.185606, 0.241229, 0.048248, -0.017268, -0.132918, -0.313235, 0.049585, -0.034296, -0.179038, 0.130102, 0.121983, 0.107833, -0.026369, -0.352510, 0.003088, 0.042922, -0.013683, 0.058320, 0.122637, -0.280843, 0.023961, -0.084226, 0.026682, -0.065327, 0.094026, 0.136618, 0.362816, 0.096052, -0.051087, -0.078187, 0.034736, -0.255526, 0.168106, 0.019956, -0.063027, -0.141591, -0.130347, 0.040601, -0.101102, 0.103369, -0.107127, 0.022856, -0.314380, 0.031503, -0.184932, 0.020429, -0.032801, -0.115492, 0.143301, 0.119605, -0.061527, -0.133824, 0.073440, 0.042323, -0.072160, -0.089910, 0.056795, -0.069637, 0.122668, 0.109320, -0.014519, 0.001499, 0.038016, 0.024490, 0.055934, -0.096362, -0.083250, 0.042325, 0.029630, 0.109597, 0.002223, -0.111658, 0.070148, 0.044563, -0.012744, 0.118840, 0.000819, 0.091206, 0.084181, -0.002051, 0.179542, 0.133778, 0.053085, 0.097558, -0.122362, -0.038344, -0.030362, -0.139452, 0.105943, 0.124071, -0.284926, -0.107068, -0.044254, 0.036608, -0.265914, -0.124216, 0.028562, 0.090198, -0.018892, 0.029109, -0.023102, -0.132919, -0.006656, 0.161389, 0.042112, -0.087867, 0.044459, -0.016497, 0.141653, 0.020170, 0.022460, 0.013405, -0.063114, 0.052787, -0.126018, -0.063284, 0.081689, 0.149351, 0.169208, 0.012597, -0.018470, 0.117576, 0.140203, 0.025657, -0.009675, -0.179522, 0.010058, 0.060062, 0.095457, 0.145896, -0.133552, -0.154772, -0.113534, 0.036929, 0.068187, -0.067003, 0.115482, -0.065651, 0.094390, 0.022568, 0.029119, -0.144592, -0.023971, 0.176986, -0.158433, -0.236825, 0.010371, 0.051896, -0.220501, 0.158145, -0.008553, -0.042233, 0.185765, 0.059721, -0.003235, 0.106265, 0.072348, 0.010679, -0.109089, -0.154081, -0.114920, 0.249782, 0.045387, -0.058914, 0.014256, 0.025461, 0.056423, 0.052086, -0.038651, 0.106246, -0.052911, -0.009825, -0.018857, -0.106012, 0.094596, -0.028657, 0.144589, 0.052178, -0.013771, -0.121351, -0.004842, -0.184869, 0.076501, -0.041031, -0.235392, 0.097672, -0.106487, 0.150841, -0.162842, -0.079020, 0.024536, -0.036618, 0.015476, 0.271738, -0.077147, -0.027385, 0.072413, 0.152449, 0.028010, 0.076704, -0.119971, -0.078183, 0.235888, -0.053982, -0.050671, 0.285575, -0.197123, -0.029776, 0.097620, 0.042289, -0.007006, 0.051306, 0.033072, 0.114637, -0.029977, -0.079836, 0.069581, -0.270912, -0.048477, 0.056388, -0.218680, 0.105647, 0.017721, 0.076878, -0.021304, 0.058423, -0.039744, -0.092015, -0.160806, 0.092691, 0.131514, 0.051694, -0.014421, -0.097531, -0.114431, -0.175491, 0.005844, 0.129167, -0.002307, 0.110181, 0.040529, 0.035639, -0.290262, -0.057386, 0.028538, 0.179848, 0.311275, -0.049768, -0.322399, 0.055656, -0.144153, 0.003423, -0.292430, -0.275231, 0.078376, 0.226621, 0.014762, -0.218403, 0.073487, -0.017310, 0.351383, 0.045734, -0.278270, 0.115605, 0.057856, 0.071361, -0.057661, -0.180061, 0.203011, 0.095077, 0.116171, 0.093064, 0.117919, 0.118399, 0.012615, -0.068516, 0.153341, 0.150389, 0.125162, -0.028613, -0.092128, 0.235851, 0.005717, -0.036288, -0.080216, -0.044691, 0.054046, -0.123993, -0.041713, 0.045436, 0.217459, 0.122869, -0.056974, 0.091022, -0.098559, -0.016569, 0.228511, -0.227110, -0.045242, 0.030436, -0.116687, 0.247393, -0.088968, 0.057730, -0.020383, -0.016650, 0.112265, -0.084142, 0.022358, -0.105910, 0.375076, 0.019033, 0.397092, -0.113220, -0.239403, 0.085065, -0.053231, 0.245149, -0.034812, 0.158283, -0.095033, 0.292651, -0.058555, 0.098698, 0.209782, -0.092587, -0.027328, -0.029648, 0.212152, 0.102836, -0.117126, 0.223584, -0.163022, -0.064562, -0.206662, -0.025048, -0.254999, 0.015009, -0.026513, 0.021835, 0.116335, 0.060044, -0.177410, 0.115785, -0.047353, -0.081822, -0.087791, -0.194020, 0.001604, 0.280983, -0.034445, -0.182139, -0.090010, -0.118674, 0.014753, 0.301823, -0.063880, 0.266526, 0.031949, 0.132132, 0.053408, -0.068675, 0.254515, 0.082879, 0.097914, 0.200988, -0.052962, 0.123843, -0.066960, -0.273129, 0.167315, 0.009492, -0.204382, -0.238624, 0.037412, -0.096173, 0.072745, -0.078693, -0.023426, -0.004124, 0.111898, 0.135656, 0.112694, -0.146089, 0.228999, 0.206055, -0.159577, -0.230940, -0.029965, 0.043254, 0.290394, 0.080054, -0.008148, -0.100906, -0.313482, 0.155893, -0.009187, -0.044808, -0.087444, 0.256030, 0.051237, 0.154016, -0.056337, 0.088542, 0.337204, -0.053635, 0.337418, -0.227963, -0.066932, 0.083566, -0.079890, 0.152652, -0.024388, -0.014078, -0.018331, 0.034361, -0.013882, -0.012967, 0.300191, -0.037063, -0.088260, 0.019760, 0.001917, 0.018000, 0.135999, 0.183157, -0.001600, -0.034297, -0.129598, 0.142814, -0.095821, 0.194106, 0.063062, -0.093428, 0.047984, 0.072694, 0.007251, 0.071327, -0.025702, -0.075983, 0.119452, -0.096598, 0.058295, 0.000894, -0.040612, 0.045329, 0.078027, 0.231593, -0.200459, 0.092438, -0.029570, 0.022607, 0.081071, -0.046681, -0.065853, -0.166481, 0.237420, 0.176098, -0.149297, -0.116949, -0.126410, 0.063284, -0.070500, -0.083845, -0.106353, 0.033634, -0.016706, -0.027034, 0.097632, 0.003907, -0.170045, -0.009262, 0.003443, -0.141293, -0.158722, -0.137814, 0.130269, 0.083790, 0.029127, 0.123563, -0.060153, -0.165513, -0.115513, -0.088917, 0.093500, 0.043702, -0.022403, 0.118517, -0.059185, 0.106610, -0.166841, -0.034165, -0.010073, -0.077963, 0.167858, 0.215781, 0.069871, 0.104119, 0.076815, -0.104443, 0.099604, -0.130355, 0.041441, 0.014093, 0.070738, 0.105764, -0.101069, -0.130377, -0.086639, -0.027418, -0.069073, -0.126862, -0.058493, -0.046618, -0.010490, 0.074723, 0.076860, -0.246107, -0.020235, 0.171361, -0.146334, 0.047403, 0.128707, 0.119110, -0.052865, -0.010124, 0.050276, -0.181736, -0.194176, 0.061800, 0.077544, 0.000123, -0.071855, -0.084310, 0.034342, -0.115468, -0.103758, 0.192725, 0.145919, -0.112357, 0.038630, 0.141642, -0.070653, -0.140124, -0.067623, 0.116324, -0.014935, -0.085354, -0.111344, -0.001904, 0.087947, 0.165034, -0.053316, 0.054198, 0.053775, 0.120786, 0.035829, -0.209520, 0.088638, 0.085810, -0.207069, -0.045671, 0.201028, -0.102674, 0.113313, -0.032806, 0.080647, 0.088788, 0.111027, 0.118488, 0.155050, -0.109468, 0.047607, 0.067682, -0.046068, -0.185696, 0.086534, -0.177558, 0.120444, 0.041343, 0.294329, -0.173439, -0.121233, 0.184929, -0.023939, -0.041822, -0.130174, 0.131731, 0.088591, 0.060270, 0.027348, 0.046411, 0.093956, 0.234356, -0.011133, -0.079852, -0.064587, -0.021378, 0.022283, 0.032560, -0.200927, 0.079025, -0.088186, -0.016229, 0.086930, 0.004888, -0.039588, 0.014302, 0.037656, -0.048691, -0.068332, 0.101967, 0.037239, 0.034620, 0.042337, 0.042462, 0.091278, 0.046841, 0.210360, 0.129935, 0.017706, -0.103003, 0.055052, 0.001038, -0.044238, -0.069966, -0.215149, -0.031520, -0.101121, -0.000521, 0.098360, -0.005050, -0.093902, -0.032831, -0.099520, 0.035018, 0.005558, -0.008366, 0.160319, -0.097077, 0.183479, -0.127876, 0.082816, 0.087564, 0.155320, 0.244955, 0.013099, 0.015474, -0.013983, -0.038043, 0.044205, 0.122680, -0.017615, 0.001668, -0.271062, -0.104095, -0.052636, 0.031976, -0.080960, 0.167629, -0.025364, 0.005303, 0.037885, -0.026545, 0.045787, 0.104948, -0.017888, 0.140850, 0.055906, -0.083219, -0.087345, 0.062386, -0.042808, 0.104575, -0.018657, -0.109922, 0.011582, -0.079277, -0.160490, -0.070534, 0.080417, -0.015837, 0.095493, 0.111780, 0.189086, -0.008275, 0.026404, -0.119266, 0.081326, -0.099341, -0.119987, 0.096760, -0.084040, 0.023705, -0.105757, 0.031543, 0.131171, 0.165813, 0.047865, -0.058280, 0.001818, -0.022902, 0.087911, 0.067937, -0.152458, -0.229826, 0.193335, 0.100121, -0.222255, 0.045164, -0.100836, -0.051881, 0.095478, -0.052219, -0.036781, 0.042816, 0.170823, 0.162679, 0.128928, 0.048706, -0.018873, -0.071469, -0.010432, -0.068097, 0.171062, -0.029393, -0.173052, 0.134905, 0.085667, 0.202266, -0.043364, 0.003631, -0.050467, -0.164762, -0.172541, -0.040430, -0.070780, -0.028658, 0.024295, 0.120736, -0.210878, 0.044988, -0.003504, 0.069039, -0.025893, 0.111640, -0.065528, -0.017709, 0.016455, -0.298597, 0.053820, 0.197232, -0.195737, 0.246298, 0.074007, -0.080776, -0.169655, -0.285556, 0.092335, -0.155875, -0.063438, 0.026433, -0.045563, 0.061110, 0.016018, -0.069531, 0.005955, -0.014188, -0.006746, -0.037121, 0.137326, 0.110019, 0.021540, -0.051094, 0.173390, -0.155655, 0.230773, 0.009621, 0.221372, 0.214659, -0.134840, 0.075878, -0.162387, -0.213632, 0.011977, -0.021956, 0.008265, -0.043900, -0.196743, -0.048782, -0.114429, 0.145575, 0.008318, 0.067837, -0.196612, 0.018131, -0.102234, 0.035143, 0.006436, -0.067183, -0.083622, 0.283452, 0.053761, 0.011681, -0.006789, 0.034421, -0.020087, 0.147109, 0.021439, -0.072697, 0.045190, 0.110218, -0.129852, -0.062795, -0.083263, 0.061791, -0.059967, -0.130270, -0.125181, 0.187869, 0.044421, -0.107771, -0.082896, 0.000554, -0.099971, 0.042788, 0.054009, 0.063539, -0.023315, -0.146937, -0.073426, -0.066885, 0.155699, 0.115588, -0.060004, -0.017777, -0.154481, -0.013208, -0.041166, -0.084089, 0.077596, -0.043556, -0.181652, -0.157756, 0.042056, 0.035837, -0.118160, 0.083660, -0.070427, -0.151124, 0.033118, -0.009757, 0.087006, -0.031873, 0.052737, 0.102845, 0.125306, -0.185642, 0.030640, 0.128553, 0.156701, 0.060991, -0.082831, -0.025473, -0.131908, 0.016838, -0.103064, -0.073184, -0.057598, -0.015544, 0.035562, -0.002563, 0.067249, 0.130018, 0.075404, 0.027232, 0.092922, -0.152191, -0.086577, 0.133505, -0.044743, 0.107504, -0.018871, -0.002769, -0.183670, 0.067130, -0.011090, 0.060789, -0.011506, -0.040378, -0.074481, -0.006051, -0.094880, -0.178267, 0.010760, 0.252580, -0.045331, -0.097566, 0.050476, 0.070679, 0.060420, 0.022649, 0.020638, -0.219302, 0.132422, 0.092356, 0.099594, 0.013261, -0.114677, 0.047547, -0.084556, -0.086559, 0.182053, 0.127773, 0.103992, -0.016435, 0.047231, 0.179992, -0.009602, 0.036500, 0.078152, -0.053398, -0.049055, 0.054855, 0.065787, -0.031831, 0.193614, 0.096604, 0.029342, -0.049629, -0.122139, 0.063707, -0.006957, -0.026233, -0.021785, 0.011552, -0.266504, -0.040902, 0.018015, 0.036836, -0.298211, -0.067448, -0.087817, -0.156767, 0.025075, -0.025215, -0.014669, -0.198083, -0.068468, 0.121545, -0.083060, -0.026876, -0.117993, 0.116803, 0.257833, -0.025904, 0.063778, 0.168991, -0.160560, 0.016326, -0.142557, -0.023100, 0.067626, 0.068297, 0.290807, 0.028538, 0.016626, 0.106656, 0.022060, -0.008017, 0.012574, -0.210196, 0.034073, 0.107717, 0.031775, 0.101746, -0.065137, -0.133774, -0.171861, -0.093861, -0.083251, -0.071542, -0.051834, -0.070178, 0.029608, -0.037183, 0.086694, -0.071860, 0.060325, 0.242436, 0.052980, -0.130247, 0.007975, -0.022445, -0.309927, 0.163029, 0.027540, 0.133461, 0.210010, -0.068716, -0.125005, 0.145060, -0.054359, 0.011920, -0.150572, -0.225638, 0.187238, 0.242934, -0.062427, -0.153879, -0.037943, 0.257015, 0.397476, -0.007905, -0.168911, 0.111859, -0.015821, -0.148339, -0.005786, -0.351436, 0.343074, -0.192727, -0.040384, -0.072619, -0.076552, 0.111204, -0.082765, -0.112946, 0.200780, -0.132603, 0.028452, -0.048273, -0.132281, 0.268885, -0.042212, -0.191236, -0.015586, -0.027069, -0.266252, -0.155196, 0.112793, 0.307523, 0.160584, 0.089097, 0.094983, -0.085321, -0.062771, -0.139342, 0.355792, -0.123940, 0.000212, 0.270886, -0.374675, 0.311257, -0.068815, 0.182847, -0.001260, 0.052307, 0.184365, -0.052536, -0.196093, -0.070372, 0.436572, -0.003476, 0.131159, -0.081177, -0.055610, 0.254266, 0.084023, 0.315407, -0.052162, -0.088929, -0.228319, -0.038983, 0.004078, -0.238821, 0.166905, -0.043701, 0.025596, -0.085797, 0.210946, 0.068332, 0.024646, -0.061640, -0.066441, 0.022411, -0.181358, -0.120302, -0.424261, 0.006172, 0.005980, -0.089023, 0.253856, 0.086705, -0.192415, 0.147117, -0.054682, 0.020423, -0.050713, -0.275915, 0.310139, 0.147663, -0.004508, 0.027212, -0.063144, -0.053876, 0.202421, 0.094811, -0.274712, -0.061351, 0.003178, 0.249536, -0.005127, -0.160825, 0.194481, -0.096886, 0.120546, 0.060897, 0.031195, 0.276443, -0.018826, -0.182591, 0.140593, 0.148107, -0.130749, -0.054700, 0.102352, -0.101058, -0.007973, -0.173288, 0.044955, 0.129841, -0.112722, 0.044924, 0.029579, -0.067897, -0.034761, 0.161069, 0.052001, -0.129027, 0.054237, 0.055375, 0.170376, -0.198135, 0.065517, -0.259475, -0.220083, 0.336628, 0.037808, -0.096445, 0.057729, 0.110882, -0.064732, -0.066099, -0.098831, 0.093217, 0.262846, -0.042892, 0.336411, -0.229425, 0.052690, 0.156877, -0.079895, 0.045191, 0.138013, 0.012174, -0.060291, 0.077244, -0.010576, 0.051270, 0.178576, 0.019390, -0.105164, -0.025073, 0.213603, 0.038397, 0.015703, 0.031715, 0.018650, 0.172011, 0.038103, -0.164961, -0.007122, 0.291541, -0.098154, 0.078694, 0.085453, 0.082254, -0.166397, -0.081659, -0.020507, -0.016400, -0.024943, -0.068734, -0.060037, 0.154217, -0.018072, -0.022223, 0.018076, 0.040537, -0.018428, 0.110798, -0.007628, -0.055527, 0.196489, -0.126279, -0.078700, -0.109861, 0.151154, 0.116450, -0.020233, 0.085973, 0.001954, 0.067242, 0.029120, -0.068470, 0.120542, -0.170584, -0.203425, 0.037239, -0.065947, -0.028953, -0.099474, 0.029270, -0.081089, -0.104804, -0.117187, -0.022141, 0.202872, 0.205406, 0.049603, 0.222997, -0.059232, -0.084429, -0.192376, -0.132589, 0.079501, -0.032119, -0.072109, -0.077668, -0.208652, 0.131305, 0.059433, 0.036327, -0.048485, 0.081060, -0.050838, 0.211363, 0.041476, 0.026450, 0.177282, -0.077454, 0.168125, -0.151647, -0.108731, 0.151215, 0.054243, 0.122134, -0.087524, 0.032673, 0.054421, 0.101878, -0.136014, 0.268719, -0.011455, -0.081763, 0.040184, -0.097311, 0.024591, -0.115468, 0.007676, 0.007959, -0.007559, 0.003320, -0.051972, -0.045605, -0.097217, 0.053771, 0.065311, 0.016041, 0.097734, -0.046827, -0.182960, 0.188770, -0.109177, -0.008710, 0.055361, 0.012640, -0.025116, -0.022149, 0.068173, -0.046439, 0.029451, -0.077671, 0.001606, -0.015202, -0.180120, 0.074436, -0.004244, 0.031944, -0.111597, -0.090880, 0.112808, -0.068053, 0.195052, 0.089786, 0.076150, 0.201956, 0.036039, -0.135449, 0.128911, 0.079997, 0.017564, -0.059011, -0.083995, -0.067861, 0.140405, -0.004835, -0.049284, 0.081160, -0.110355, 0.102709, 0.062008, -0.038722, 0.053607, -0.060970, -0.018718, -0.129395, -0.065477, 0.037867, 0.120618, -0.108805, 0.017396, 0.008262, -0.089648, 0.024511, 0.048413, -0.171871, 0.075212, 0.024106, -0.049981, 0.019313, -0.016245, -0.086603, 0.130009, 0.087789, 0.007077, 0.081786, 0.042467, 0.046781, -0.099807, 0.114458, 0.057771, 0.132606, -0.018781, 0.059598, -0.032607, -0.061205, 0.082107, -0.013756, 0.052979, 0.022903, 0.062137, 0.073835, -0.119691, 0.081609, -0.100780, 0.086351, 0.155913, -0.126620, 0.086090, 0.066954, -0.030463, 0.070912, 0.121703, -0.067030, -0.009704, 0.011211, -0.140667, 0.016263, -0.150556, 0.037477, -0.085108, 0.076494, -0.087417, -0.091899, 0.043160, 0.101993, 0.069564, -0.008986, -0.068017, -0.038434, 0.167783, -0.160262, -0.048717, 0.161944, -0.016430, 0.068050, 0.070711, -0.017776, 0.008705, -0.134532, -0.051426, -0.022803, 0.115643, -0.135725, -0.284827, -0.049256, -0.016072, -0.001851, -0.210037, 0.081804, 0.026882, -0.177475, 0.187189, -0.114609, 0.053490, 0.085626, 0.097418, 0.007576, -0.012834, 0.107896, -0.020018, -0.135248, 0.028702, -0.001498, -0.147947, -0.329882, -0.129370, -0.029680, -0.070178, -0.001654, -0.135745, 0.097214, -0.108105, 0.094174, 0.239671, -0.000538, -0.016455, -0.048915, 0.113394, -0.233579, -0.188953, 0.036849, -0.086803, 0.003779, -0.042351, 0.088172, 0.004786, 0.121284, -0.178537, 0.132579, 0.051056, 0.053052, 0.106522, 0.018262, 0.018196, -0.180632, 0.146731, 0.148111, -0.072127, 0.174326, -0.111271, -0.134522, 0.072549, 0.074303, -0.048551, -0.026369, 0.120449, 0.143339, 0.187886, 0.162021, 0.078630, -0.097426, 0.121458, -0.272757, 0.161826, -0.024138, -0.021435, -0.114670, 0.048916, 0.256601, 0.061044, 0.063590, 0.066891, 0.015496, -0.009952, 0.105860, -0.053465, -0.157286, -0.025763, -0.091213, -0.100787, -0.088873, -0.103031, 0.085165, -0.048090, -0.024856, -0.100487, 0.010212, 0.195557, -0.114996, -0.069345, 0.167274, -0.130441, 0.141538, -0.106316, -0.002099, -0.053450, -0.330377, 0.123518, -0.006111, -0.012659, 0.083426, 0.109597, -0.104967, 0.325017, 0.228755, 0.022933, -0.047219, 0.006808, 0.027558, 0.033133, 0.055861, -0.089536, -0.036527, 0.254248, -0.174689, 0.282013, -0.225935, 0.003335, 0.147235, -0.117160, 0.172600, -0.202250, 0.066726, 0.034226, 0.058179, -0.027532, -0.049651, 0.025479, -0.414324, -0.166957, -0.012938, 0.095322, 0.119162, -0.104221, -0.056594, 0.029988, 0.048023, 0.050969, -0.044951, -0.024335, 0.068718, -0.098522, 0.011407, -0.048986, -0.124067, -0.043011, 0.058278, -0.126026, -0.123905, 0.029984, 0.006824, -0.006523, -0.048439, -0.137279, 0.029280, -0.113221, 0.060885, -0.089087, 0.079078, 0.049037, -0.011740, 0.067952, 0.063597, -0.089922, 0.118588, -0.057100, -0.017848, 0.042484, -0.165067, -0.079042, -0.067824, 0.048202, 0.019421, 0.038632, -0.014105, -0.053094, -0.018991, -0.083826, -0.114159, 0.021526, -0.083860, -0.066667, 0.071205, 0.050222, -0.184607, -0.035825, 0.035226, 0.042004, -0.103816, 0.118916, -0.095445, 0.073035, 0.015972, 0.058974, 0.104639, -0.042701, -0.213539, -0.129836, -0.055208, 0.042338, 0.161581, -0.053215, -0.320943, -0.202096, -0.029831, -0.013248, -0.036413, -0.119746, 0.033366, 0.015581, 0.219332, 0.036751, -0.063557, 0.128719, -0.129406, 0.027099, -0.073996, -0.016232, 0.086869, 0.021511, -0.008302, 0.072230, -0.088977, 0.151540, 0.135460, 0.027673, 0.133903, 0.142389, -0.024066, -0.063936, -0.101740, 0.018106, -0.303596, 0.051459, 0.143652, -0.104181, 0.181017, -0.036929, -0.156466, -0.003538, 0.194994, -0.008983, 0.058998, 0.019570, 0.012381, -0.128499, 0.003167, -0.094643, -0.035900, -0.096269, -0.170481, 0.013059, 0.106040, -0.162516, -0.011965, -0.049969, 0.074279, -0.039645, 0.031040, -0.006406, 0.031191, 0.149309, -0.089218, -0.030221, -0.022127, 0.165959, 0.172266, -0.021183, 0.144050, -0.105981, -0.005620, -0.091694, 0.030488, 0.041666, -0.002537, -0.159184, -0.103398, -0.013244, 0.037312, -0.159037, 0.072363, -0.013306, -0.044978, -0.128106, 0.000090, -0.013593, 0.014375, 0.041180, 0.189831, -0.180731, -0.079979, -0.206647, -0.021322, 0.186595, -0.089795, -0.173841, -0.124845, -0.059179, 0.152873, 0.001848, 0.060869, -0.065299, 0.008601, 0.092138, 0.124858, 0.080453, 0.016634, 0.101400, -0.196120, 0.125813, -0.197980, -0.110669, 0.085050, -0.057603, 0.050795, 0.012902, 0.014610, 0.012038, 0.098619, -0.054621, 0.033715, 0.085932, -0.049062, 0.090115, -0.061716, -0.118761, -0.218466, 0.207513, 0.233830, -0.197824, -0.231762, 0.133244, 0.271533, -0.055363, 0.083829, 0.045348, -0.015535, -0.173776, 0.018784, 0.262384, 0.017952, 0.107161, -0.000025, 0.017368, -0.219877, -0.075876, 0.176369, -0.054618, 0.037772, 0.035545, 0.029690, 0.144105, -0.204746, 0.013771, 0.134379, -0.120634, -0.094944, 0.031822, 0.068848, 0.058785, -0.069221, -0.164649, 0.011877, -0.057138, 0.178275, 0.082991, -0.001064, -0.019872, -0.025366, 0.159446, 0.025223, -0.124908, 0.292285, -0.184016, -0.044902, 0.064672, 0.082121, -0.072378, 0.017382, 0.143381, -0.167809, 0.185057, -0.032857, 0.019225, -0.164388, -0.225685, -0.311387, 0.045138, 0.073687, 0.047361, 0.167776, -0.161994, 0.141105, -0.001931, -0.072674, 0.155602, 0.289405, 0.221673, -0.250352, -0.134095, 0.067730, 0.151105, 0.182398, -0.010994, -0.058840, -0.085080, 0.158171, -0.005374, 0.232345, -0.300809, -0.130689, 0.255113, -0.053215, -0.078795, -0.317618, -0.182209, 0.047333, 0.219280, -0.073908, 0.144691, -0.293734, 0.189575, 0.080992, -0.125500, 0.069786, -0.049554, -0.000203, -0.224653, 0.136894, -0.021541, -0.081884, 0.273568, 0.090212, 0.011438, 0.174724, 0.058647, 0.043486, -0.032366, -0.235755, 0.190337, 0.120355, -0.062046, -0.058667, -0.061735, 0.165894, 0.313321, 0.189092, -0.102652, -0.137338, -0.064067, 0.002042, -0.064162, -0.130128, 0.083016, -0.303136, -0.181689, -0.153515, 0.007930, 0.317940, -0.036905, 0.016401, -0.001537, -0.075189, 0.183047, -0.093397, -0.241765, 0.260022, -0.122610, -0.262385, -0.083519, -0.066566, -0.183910, -0.126077, 0.106387, 0.125601, 0.141770, 0.177084, 0.161887, -0.097547, 0.078202, 0.048838, 0.264958, -0.052080, -0.141534, 0.264065, -0.287016, 0.246726, 0.023310, -0.200555, 0.060487, -0.090977, 0.265279, 0.096492, 0.018975, 0.246251, 0.122030, -0.147850, -0.168172, -0.114076, -0.059640, 0.354795, 0.084616, -0.027815, -0.128380, -0.417504, -0.190606, 0.176350, -0.147879, -0.048257, -0.027750, -0.045220, -0.067088, 0.059861, 0.368567, -0.373412, -0.120926, -0.014830, -0.216947, 0.070709, 0.077738, -0.166991, 0.115493, -0.113457, -0.114497, -0.032700, 0.103073, -0.025533, -0.025437, -0.015258, -0.063911, 0.067871, -0.131089, 0.168258, 0.036857, 0.204005, 0.158097, -0.153926, -0.052058, 0.032660, 0.088328, -0.050107, 0.015384, -0.017352, 0.253562, -0.057451, -0.014853, 0.099519, -0.046755, -0.011036, 0.176993, -0.289516, -0.020604, -0.141501, -0.009123, 0.178158, 0.177815, 0.011384, -0.037888, -0.061476, -0.093322, 0.107713, -0.138655, -0.029599, -0.021233, -0.144135, 0.171012, 0.100724, 0.148106, 0.114094, -0.063579, 0.068178, 0.200521, -0.058740, -0.012218, -0.095990, 0.061823, 0.165306, -0.079923, -0.188775, -0.194456, 0.002578, -0.047348, -0.098907, 0.030313, -0.029488, -0.016839, 0.060035, 0.105954, -0.072566, 0.015801, -0.006911, 0.057338, -0.183810, -0.045551, 0.149533, -0.039481, 0.080209, 0.039222, 0.103872, -0.039342, -0.023905, -0.000871, -0.114474, 0.108441, -0.062895, -0.020119, -0.049830, 0.022748, -0.188024, 0.149282, -0.052519, -0.036508, 0.060193, 0.056019, -0.086313, -0.021488, -0.044166, 0.006776, 0.015331, 0.027176, 0.019765, -0.083056, 0.062667, 0.057657, 0.001203, -0.050485, -0.012387, -0.005126, -0.066527, -0.007874, -0.002450, 0.073254, 0.031366, 0.031316, -0.072433, -0.049859, -0.061608, -0.046199, -0.107630, -0.047495, -0.045006, -0.008195, -0.010285, -0.010955, -0.051115, 0.007397, -0.062851, -0.090322, -0.049908, 0.035611, 0.148659, 0.137740, 0.072381, -0.044146, 0.053612, -0.018998, -0.000056, -0.104215, -0.000846, 0.075799, 0.100786, -0.073682, -0.001064, -0.049921, -0.051830, 0.037615, 0.003573, -0.044632, -0.057215, 0.109104, -0.021854, -0.002216, -0.070724, 0.043539, 0.142475, -0.043567, 0.052802, -0.033425, -0.061250, 0.127876, 0.069787, 0.081063, -0.077951, -0.038649, -0.061663, 0.003579, -0.020861, -0.018409, 0.108522, -0.088945, -0.032143, 0.012932, -0.066218, 0.101717, 0.027918, -0.026282, -0.019801, 0.016945, -0.052664, -0.084643, 0.046135, 0.130112, 0.078757, -0.139695, 0.156836, -0.249783, -0.035998, -0.041383, 0.004706, 0.080800, -0.114559, -0.047764, -0.139207, 0.045927, 0.033470, 0.206518, 0.011375, -0.033344, 0.072984, -0.067552, -0.023387, -0.040723, 0.173276, 0.095977, -0.144476, 0.063283, -0.001586, 0.045900, -0.039707, 0.127434, 0.095027, 0.231220, 0.064125, -0.038133, 0.102488, -0.039229, -0.086108, -0.016776, -0.089814, 0.025518, -0.026189, -0.096269, 0.108538, 0.031311, -0.054262, -0.107774, -0.097293, -0.001058, -0.083163, -0.203086, -0.076734, -0.041036, -0.004336, 0.105911, 0.097785, 0.287623, 0.066480, -0.001632, 0.005856, 0.105066, -0.046493, 0.137672, -0.139013, 0.156018, 0.100870, -0.052860, -0.241599, -0.069407, 0.016255, 0.036931, -0.069510, -0.122794, -0.002502, 0.157686, -0.066124, -0.172578, 0.017834, 0.010668, -0.181056, 0.129517, -0.149016, 0.030529, 0.181616, 0.094234, 0.096444, -0.007136, -0.070580, 0.089261, 0.032198, -0.028838, -0.074363, 0.056643, 0.066021, 0.120190, -0.081195, -0.087352, -0.097055, 0.076612, 0.146143, -0.034520, 0.032725, -0.053757, 0.004029, -0.137059, 0.020102, 0.089593, -0.071830, 0.196871, -0.114409, 0.132856, 0.199927, 0.106707, 0.095304, 0.051057, -0.309260, 0.107565, 0.070043, 0.207818, 0.063262, 0.081398, -0.122716, 0.171689, -0.054255, 0.003347, 0.079979, -0.075640, -0.008457, -0.009167, -0.078874, 0.009763, -0.496084, -0.049325, -0.186359, -0.085544, 0.123488, 0.028540, -0.164030, 0.194779, 0.047248, 0.075324, -0.010834, -0.052210, 0.004069, -0.035379, -0.123679, 0.013507, 0.072775, 0.048473, -0.087828, 0.132627, -0.051524, 0.119054, -0.073665, 0.048307, -0.164870, 0.128902, 0.094728, 0.040373, -0.166208, -0.125683, 0.094694, 0.122596, 0.051122, -0.102006, -0.162613, 0.103481, -0.023422, 0.194255, -0.250944, -0.257693, 0.064675, 0.114798, 0.281376, -0.104612, 0.036106, -0.040516, 0.123819, -0.048521, 0.152945, 0.066577, -0.235678, -0.099469, -0.068874, -0.182093, -0.191415, 0.048939, -0.055618, 0.071393, -0.016027, 0.193944, -0.094170, -0.188533, 0.021752, -0.044149, -0.080288, 0.064322, -0.085116, 0.069380, -0.158645, 0.002349, -0.062112, -0.009770, -0.018786, 0.002907, 0.059053, -0.075193, 0.082625, -0.111138, 0.031878, 0.027271, 0.131665, 0.116720, -0.195982, 0.061857, 0.048882, 0.030110, -0.028505, 0.033078, 0.082533, 0.200033, -0.164558, 0.054401, 0.101931, -0.061042, -0.038714, 0.131015, -0.192320, -0.097088, 0.063083, -0.089177, 0.032999, 0.201551, 0.131014, -0.129633, 0.018731, 0.021304, -0.061518, -0.051339, -0.103047, 0.090149, -0.146632, 0.168846, 0.089898, 0.162207, 0.060561, -0.258717, 0.050667, 0.083776, -0.078687, 0.062429, 0.086283, 0.139462, 0.225224, 0.088726, -0.373756, -0.160811, -0.094322, 0.053231, 0.049378, -0.144932, 0.023668, -0.066541, 0.033248, 0.062951, -0.064547, -0.046320, -0.120575, 0.126180, -0.198812, -0.097357, 0.160493, 0.001593, -0.068277, 0.003706, 0.187725, -0.001568, 0.057677, -0.078311, 0.035614, 0.115181, 0.049881, 0.018285, -0.059832, -0.091260, -0.199267, -0.197821, 0.051676, -0.206871, 0.037766, 0.235028, -0.022196, 0.212161, 0.021395, -0.052888, 0.024118, 0.093107, -0.036361, 0.015479, 0.006476, -0.017301, -0.023612, -0.069336, 0.190580, -0.019389, 0.171890, 0.081239, -0.245137, -0.007317, 0.127848, 0.017734, -0.121040, 0.023757, -0.006205, 0.316019, -0.100918, -0.040441, 0.149401, -0.227166, 0.039442, 0.165011, -0.102211, -0.034685, -0.041385, 0.032490, 0.099243, -0.002047, 0.162914, -0.039552, -0.098889, -0.163557, 0.102626, -0.287293, 0.114961, 0.082579, -0.168678, 0.207307, 0.018307, 0.233589, 0.082510, 0.004280, 0.116607, 0.177792, 0.127960, -0.097248, -0.075687, 0.059614, 0.264025, -0.103184, -0.354001, -0.072216, -0.075051, -0.108325, -0.046808, -0.148786, 0.040819, -0.010466, -0.016187, 0.039866, -0.085119, 0.102292, -0.027811, 0.172989, -0.323892, -0.018866, 0.127571, -0.058812, 0.133150, -0.032614, 0.135632, 0.205360, 0.063597, -0.138429, 0.047442, 0.023816, 0.012873, 0.029750, -0.052791, -0.146774, -0.201292, -0.030958, 0.177933, -0.117205, 0.073364, 0.137363, 0.081621, -0.036526, -0.089959, -0.067648, -0.104909, -0.027666, 0.177101, -0.174146, -0.241852, 0.021701, 0.016620, 0.044525, -0.018723, 0.134727, 0.064199, 0.172150, 0.138395, 0.006349, 0.013354, 0.022370, 0.046903, 0.036852, -0.061178, -0.087021, 0.102203, -0.061378, -0.079534, -0.054510, 0.062644, -0.071388, -0.058647, 0.008396, -0.079747, 0.032119, 0.143965, -0.159753, 0.062466, -0.105508, 0.303044, 0.085975, -0.102268, 0.006934, -0.003217, 0.053889, -0.198503, 0.166034, 0.023752, 0.061876, -0.070494, 0.061827, -0.058881, -0.097178, 0.005403, -0.158546, -0.083737, 0.071734, 0.073161, 0.027625, -0.004703, 0.084940, 0.175416, 0.033319, -0.029411, -0.037076, 0.105575, 0.022927, 0.071951, -0.197160, 0.034086, -0.127511, 0.151339, 0.034935, 0.039162, -0.000651, -0.261331, 0.037495, 0.052209, -0.133396, 0.198533, 0.258035, 0.017885, 0.020974, -0.012406, 0.070754, 0.055660, -0.071845, -0.041783, 0.007598, 0.025538, 0.035537, -0.062445, 0.053884, -0.176494, -0.037996, 0.084088, -0.161534, 0.025060, 0.003939, 0.180283, -0.130574, 0.123337, -0.020971, 0.091806, 0.056189, -0.023213, -0.031203, -0.132979, -0.154270, 0.042656, 0.098668, -0.042395, -0.022276, -0.061456, 0.090124, -0.019824, -0.223352, 0.030043, 0.012747, 0.059185, -0.103257, -0.145222, -0.122772, 0.023282, 0.052621, 0.055461, 0.170401, 0.026229, -0.077967, 0.001310, 0.076840, 0.178209, 0.050803, 0.033267, -0.028305, -0.025161, 0.051280, -0.230945, -0.112143, -0.029749, -0.096069, -0.147451, -0.053393, -0.100993, -0.025032, 0.079909, 0.040498, -0.061491, -0.072682, -0.011660, -0.065047, -0.006025, -0.026598, -0.058486, -0.101756, 0.047766, -0.047036, -0.184029, -0.068140, 0.139728, 0.021969, -0.009772, -0.155288, -0.002942, 0.000379, 0.223314, -0.078065, 0.046332, 0.011069, -0.133594, 0.007115, 0.112015, 0.128002, 0.043764, -0.012957, -0.002481, 0.128095, -0.110589, 0.093592, -0.051330, -0.150167, 0.057201, 0.102374, 0.079567, -0.027511, 0.142342, -0.139133, -0.092391, 0.228512, 0.239632, 0.047389, -0.016465, -0.091084, 0.221887, -0.090133, 0.123324, -0.099162, 0.004738, 0.008991, -0.077903, 0.125986, -0.167108, -0.012276, 0.006819, -0.011720, -0.032092, -0.041016, -0.037007, -0.021877, -0.239926, -0.117117, -0.100243, 0.024510, -0.143803, 0.032075, 0.007133, 0.007508, -0.073282, 0.031661, 0.045873, -0.034669, 0.037471, -0.033143, -0.032460, -0.042807, 0.025354, 0.055341, -0.076439, 0.094069, 0.099766, -0.133366, -0.089662, -0.083000, -0.053972, 0.186236, -0.000581, 0.157999, -0.096220, -0.075750, 0.098733, 0.071784, 0.153397, 0.018554, 0.087611, 0.173227, -0.138571, -0.019007, 0.030318, 0.022519, 0.166749, -0.052560, -0.035791, -0.077818, -0.053495, 0.083078, 0.034942, -0.004235, 0.116991, 0.047226, 0.169503, -0.073417, 0.101075, 0.149716, -0.118994, 0.023279, -0.039598, -0.088054, -0.053094, 0.082460, -0.021567, -0.208194, -0.005552, -0.205109, -0.076659, 0.026229, -0.062482, 0.110014, -0.018291, 0.197612, 0.177949, 0.040759, 0.083566, -0.033955, 0.197832, -0.223258, 0.003125, -0.055333, 0.032517, -0.032694, 0.148301, -0.142165, -0.052960, 0.022833, -0.005018, 0.064892, -0.056717, -0.025004, 0.092848, 0.099946, 0.085492, 0.081152, -0.093889, -0.096918, -0.051175, -0.253049, -0.048760, -0.148050, 0.086117, -0.088837, 0.057274, -0.008426, 0.080474, -0.119350, -0.007924, -0.060103, -0.011137, 0.037357, 0.015118, 0.244455, 0.058423, 0.083980, 0.123252, -0.137668, -0.024909, 0.202512, 0.091178, -0.114230, 0.002426, -0.085923, -0.168146, 0.058735, -0.055105, -0.019451, 0.302049, -0.073274, 0.064788, 0.033767, -0.021820, 0.071409, -0.041422, 0.146395, -0.108722, -0.244192, 0.110379, -0.031490, -0.341157, -0.149461, 0.036710, -0.113849, 0.115319, -0.245928, 0.078425, 0.012971, 0.304947, -0.079636, 0.092439, 0.190061, -0.013059, 0.038473, 0.116572, -0.032041, -0.123105, -0.001732, 0.031464, 0.131749, 0.034222, -0.002173, 0.049831, -0.079084, -0.029951, 0.141543, 0.133323, 0.068192, 0.104394, 0.012100, 0.039908, 0.039675, 0.214166, 0.017021, 0.119636, -0.040507, 0.173938, -0.102047, 0.031861, -0.012873, 0.098617, -0.091623, 0.069809, -0.066707, -0.194225, -0.108228, 0.047482, -0.051227, -0.069049, 0.007567, -0.033207, -0.156354, -0.066595, -0.147928, 0.049984, 0.021154, 0.035816, -0.076605, -0.094010, -0.114847, -0.094316, 0.088195, 0.265065, 0.012669, -0.032282, 0.024397, -0.028358, 0.187753, 0.095207, -0.107890, -0.070400, 0.069598, 0.022732, -0.100384, -0.107400, -0.004403, -0.196490, -0.011311, 0.002908, 0.001731, -0.133563, -0.128240, 0.084801, -0.036510, 0.051316, 0.138904, 0.079063, -0.217415, -0.015288, 0.220356, 0.021787, -0.035468, 0.113191, -0.108819, -0.095009, -0.064062, -0.029891, -0.013837, 0.015328, -0.064590, 0.072813, -0.129912, 0.184406, -0.091833, 0.054729, 0.061587, -0.030341, -0.124327, 0.102266, 0.100768, 0.040169, 0.108909, -0.058083, -0.032517, 0.027528, -0.114181, 0.019986, -0.057345, 0.075827, 0.112228, -0.004596, 0.115961, 0.136651, 0.092075, -0.056389, 0.091922, 0.028616, -0.081106, 0.150039, 0.064604, -0.043351, -0.047338, 0.075842, 0.007481, -0.101224, -0.019161, -0.086288, 0.108238, 0.044661, -0.012882, 0.123575, 0.099934, 0.041460, -0.097901, 0.104171, -0.171808, 0.005357, -0.213130, -0.080155, 0.024427, -0.032060, -0.039747, -0.056381, -0.127992, -0.004797, -0.043342, 0.021114, 0.100515, -0.161454, 0.028848, 0.093944, 0.243218, -0.015981, 0.021731, 0.178260, 0.067739, -0.125738, 0.178264, 0.067930, -0.077321, 0.027526, 0.143901, -0.143862, 0.103725, -0.110160, -0.087845, 0.331547, -0.108354, 0.153879, 0.038964, -0.005235, -0.158530, -0.097108, 0.175416, -0.052523, -0.058104, 0.226442, 0.000561, -0.280948, -0.096527, -0.172081, -0.069850, 0.080580, -0.130919, 0.090357, -0.070903, 0.219423, -0.071203, -0.029764, 0.153074, -0.252541, -0.079717, 0.118619, -0.069237, -0.105312, 0.102748, -0.096036, 0.169663, 0.002915, -0.121353, -0.077047, -0.088312, 0.045989, -0.089352, 0.089511, 0.064016, 0.097744, -0.030479, 0.007149, 0.021323, -0.027512, -0.037609, 0.002834, 0.000403, -0.016770, 0.055814, 0.048691, 0.023787, 0.055160, -0.041009, 0.039870, 0.077878, -0.150714, 0.011061, 0.046827, -0.043730, -0.106472, 0.085288, 0.012282, 0.024510, -0.002027, -0.144865, -0.154133, 0.108280, -0.092285, -0.009222, -0.050931, -0.184123, 0.067116, 0.005584, -0.098984, 0.036675, -0.071827, -0.080848, 0.008414, 0.253670, -0.007370, -0.019862, -0.000109, -0.039687, -0.071790, 0.008776, -0.008372, 0.033566, 0.011310, -0.038026, -0.046242, 0.159500, 0.024930, 0.032252, 0.240900, 0.032608, 0.015666, -0.103872, -0.098639, 0.120732, 0.078559, 0.127272, 0.159009, -0.139924, 0.195815, -0.064163, -0.153311, -0.027937, 0.088717, -0.053679, -0.004107, -0.121066, -0.045216, -0.085122, 0.198161, -0.015404, -0.090562, 0.057784, -0.013190, -0.058716, 0.181777, 0.002615, -0.051825, 0.096999, 0.068403, 0.018852, -0.145608, -0.036481, -0.104380, -0.052981, -0.094257, 0.048890, 0.001891, 0.047906, 0.013479, -0.043454, -0.028207, 0.072281, 0.050939, -0.038044, 0.095010, 0.044552, -0.005973, 0.027815, 0.026519, 0.062880, -0.057544, 0.094637, -0.029989, 0.105336, 0.082866, 0.050756, -0.042817, 0.040812, -0.038337, 0.068291, 0.022553, -0.048148, 0.028965, -0.072679, -0.135875, 0.079301, -0.094328, -0.071562, -0.030277, 0.041689, 0.045231, 0.109050, 0.014567, -0.007145, -0.133542, -0.034666, 0.064136, 0.023095, 0.110048, -0.011198, -0.000674, 0.004112, -0.099978, 0.018805, -0.043853, -0.016596, -0.048108, 0.074031, -0.094661, 0.174504, 0.002214, -0.024939, 0.040455, 0.082076, 0.068724, 0.060711, -0.014147, -0.033747, 0.060908, -0.021345, -0.067010, 0.074013, 0.062890, -0.069712, -0.093636, -0.082476, 0.032344, -0.094129, -0.050918, 0.057851, 0.044648, -0.061187, -0.029394, 0.018668, 0.097204, 0.046144, -0.113968, -0.043602, -0.085434, 0.005713, -0.000419, -0.114106, -0.066486, -0.052814, 0.080576, -0.130630, -0.017255, 0.020271, -0.087929, 0.061257, -0.101465, -0.107522, 0.096691, -0.146647, 0.000230, 0.383170, -0.028801, 0.146460, -0.049245, -0.062698, -0.195012, -0.096260, -0.162887, -0.066009, -0.292428, -0.070989, -0.053627, 0.037079, 0.166426, -0.190011, 0.035540, 0.167556, -0.009699, -0.004298, -0.102165, -0.185402, -0.207707, 0.056300, -0.156666, 0.028279, -0.074536, -0.094122, 0.161753, -0.215311, 0.158411, 0.008865, 0.014685, 0.127706, -0.247444, -0.001147, 0.132383, -0.378362, 0.159725, 0.188503, 0.386124, 0.207515, -0.051264, -0.203101, 0.051550, 0.046895, -0.088120, 0.488787, -0.172321, 0.040191, -0.054618, -0.098900, 0.132650, -0.102084, 0.151914, 0.200609, -0.181697, -0.019097, 0.146554, 0.057360, 0.086021, 0.087342, 0.235986, -0.030457, -0.020309, -0.364287, 0.003624, -0.044294, 0.132676, -0.139833, -0.114672, -0.429964, 0.017458, 0.152730, 0.148369, -0.038315, -0.115330, 0.030003, 0.058235, 0.057150, 0.286622, 0.189485, -0.174316, -0.000174, 0.063311, -0.203166, -0.024945, -0.052075, 0.086347, -0.128525, 0.036164, 0.040707, -0.184140, 0.192633, -0.107143, 0.065777, 0.002600, -0.134300, 0.055833, 0.012349, 0.036590, -0.001104, 0.024316, 0.072154, 0.233337, 0.067554, -0.014549, 0.131586, -0.173334, -0.148653, -0.066401, -0.019221, 0.041381, -0.023938, 0.050400, 0.043939, 0.049328, -0.011540, 0.084717, -0.215003, 0.045272, -0.089933, -0.162898, 0.068888, -0.151732, 0.054238, 0.097907, -0.064990, 0.079521, 0.015582, -0.072279, -0.007159, 0.169987, -0.043765, -0.004281, 0.061415, 0.178277, 0.021189, -0.283128, -0.024594, 0.128048, 0.012191, -0.176312, 0.017179, 0.014821, 0.097062, -0.116978, 0.020759, -0.033632, 0.186797, 0.007490, -0.168258, -0.074013, 0.030460, 0.144854, -0.009877, -0.062239, -0.098493, -0.307106, -0.015809, 0.109589, 0.014552, -0.040940, -0.086673, 0.045240, 0.256520, -0.010373, -0.089985, 0.125433, 0.026328, 0.032921, 0.013269, 0.031052, 0.129684, 0.045265, -0.099866, -0.100685, -0.043082, 0.046324, -0.076636, 0.017835, 0.050400, -0.076021, 0.265061, 0.079537, 0.108240, 0.221033, 0.225225, -0.111729, -0.081740, 0.173342, -0.319555, 0.020153, -0.065668, 0.050071, -0.074861, 0.191104, -0.172191, 0.145008, 0.116792, 0.010981, 0.013336, -0.132147, -0.127668, 0.305550, -0.071186, -0.193724, -0.063890, -0.156416, -0.007702, 0.120396, -0.171783, 0.023425, 0.064241, -0.038255, -0.054735, 0.026378, -0.207253, -0.062231, -0.106368, 0.041220, -0.086036, 0.012748, -0.050886, -0.211942, 0.445027, -0.060399, -0.017275, -0.142200, -0.015307, -0.141725, 0.136258, -0.031509, -0.017012, -0.114456, 0.059383, -0.123866, 0.042294, 0.021115, 0.082499, 0.342299, -0.087001, -0.111175, -0.001445, 0.072779, -0.002404, 0.034829, 0.046531, 0.130821, -0.236398, -0.015097, 0.037283, -0.023812, -0.169592, 0.023793, -0.060244, 0.004461, -0.131289, 0.019759, 0.130667, 0.252002, -0.016380, -0.063600, -0.016530, 0.063697, -0.083883, 0.113056, 0.226350, -0.158952, -0.056895, -0.156773, -0.001521, -0.039270, -0.038844, -0.114284, -0.047829, 0.024807, 0.044785, 0.173512, 0.114980, 0.041511, 0.244240, -0.047599, -0.022364, 0.086356, -0.333741, 0.150767, 0.002985, 0.205375, 0.000430, 0.041303, -0.201524, 0.131267, 0.018932, 0.008248, 0.168003, -0.073134, -0.176175, 0.108041, -0.105666, -0.131910, -0.047277, -0.120519, 0.019542, 0.117875, -0.234884, -0.044654, -0.162482, -0.241846, 0.065294, -0.071698, -0.185325, -0.018962, 0.119900, -0.072877, 0.107512, 0.081443, -0.060319, -0.029240, 0.200295, 0.107159, 0.096255, -0.134224, -0.088246, -0.038099, 0.070487, -0.111761, 0.060911, 0.154806, -0.035603, 0.037461, 0.149420, -0.129970, 0.063300, 0.056109, -0.087672, 0.106641, -0.033061, -0.024599, 0.054941, -0.222552, -0.042424, 0.099689, -0.071581, 0.080940, 0.049388, 0.002690, -0.004241, -0.084580, 0.138185, -0.092716, -0.146941, 0.122539, 0.154870, 0.044674, 0.053796, 0.063282, 0.157644, -0.047007, 0.012215, 0.087637, 0.193464, -0.062676, -0.076486, 0.029229, -0.077241, 0.094336, 0.103449, 0.005312, -0.117079, 0.072202, 0.269845, 0.152025, -0.067367, 0.138819, -0.024877, -0.026550, -0.102894, -0.020809, -0.201216, 0.102958, 0.004069, 0.147078, -0.150885, 0.252744, -0.140707, -0.009328, 0.111682, -0.044535, 0.019018, -0.093050, 0.039968, -0.003983, 0.051531, -0.011236, 0.014152, 0.029546, -0.101654, 0.054248, -0.141044, -0.046710, -0.137392, 0.126733, 0.062520, -0.115516, -0.070539, -0.076175, 0.095082, 0.038733, -0.065997, 0.171711, -0.084717, -0.030562, -0.055706, 0.189886, -0.028802, -0.104733, 0.053343, 0.002264, -0.096103, -0.012314, 0.061244, -0.021639, -0.074800, -0.049681, -0.029254, -0.092430, 0.022572, -0.020555, -0.053927, 0.135824, 0.075561, 0.082576, 0.013329, -0.065721, 0.020496, 0.075041, -0.002089, 0.040963, 0.108714, -0.279354, -0.097745, 0.146187, 0.065126, 0.008537, -0.225495, 0.016998, 0.246837, 0.053030, 0.006379, -0.034571, 0.154998, -0.088850, 0.019450, 0.006420, 0.087072, -0.024743, 0.123277, 0.054823, 0.118696, 0.064927, 0.046508, -0.088910, -0.223011, 0.019004, 0.020734, -0.008278, -0.098285, -0.076516, 0.117294, 0.054050, 0.262488, -0.094714, -0.003126, -0.018501, -0.099595, -0.290289, -0.099612, -0.096096, 0.033636, -0.141612, -0.023081, -0.080220, -0.026412, 0.160535, -0.099423, 0.128519, 0.172197, -0.124536, 0.040409, 0.085826, -0.157117, -0.177760, -0.155997, -0.022416, 0.019464, -0.016512, -0.107309, -0.039138, -0.112667, 0.033562, 0.136473, -0.141280, 0.016792, -0.236812, -0.054138, 0.116408, 0.070832, 0.102699, 0.178935, 0.004414, -0.044901, -0.046572, -0.087230, -0.115482, -0.065080, -0.078049, 0.237361, 0.016467, 0.144175, -0.099992, -0.117989, 0.183281, -0.054759, 0.176090, 0.057742, -0.154680, -0.210638, -0.028796, -0.057867, -0.061616, 0.115142, 0.193475, -0.037348, -0.066782, -0.188606, 0.070055, -0.129517, 0.086404, -0.029656, -0.058357, -0.183995, -0.070677, 0.044128, 0.050119, -0.014148, -0.229940, 0.021363, 0.036534, -0.065674, 0.058346, 0.068980, -0.060389, -0.041145, 0.081673, -0.009913, -0.019415, -0.060432, -0.015369, 0.075538, -0.012676, -0.006529, -0.078304, -0.046495, -0.305614, 0.092650, 0.040730, -0.049042, -0.088568, 0.063564, 0.013414, -0.010138, 0.119860, 0.133514, 0.174484, -0.030797, -0.066321, -0.026247, -0.001150, 0.008876, 0.003329, 0.083273, 0.084145, -0.049637, 0.083008, -0.031831, -0.050221, -0.103603, 0.010130, 0.061445, 0.022242, -0.044281, -0.006650, -0.073762, 0.029825, -0.164514, 0.096240, 0.079970, 0.060359, 0.047553, -0.023793, -0.104259, 0.029530, -0.035138, -0.046557, 0.021194, 0.106358, -0.136452, -0.169205, -0.063408, -0.128745, 0.018832, -0.102689, 0.035092, -0.140069, 0.000626, -0.097124, 0.140700, 0.139133, -0.005159, -0.096240, -0.085227, 0.078608, 0.079197, 0.079908, 0.178936, -0.012344, 0.066995, -0.184096, 0.111486, 0.158393, 0.163724, -0.009143, -0.186310, -0.007735, 0.033331, 0.002486, -0.091154, 0.011938, -0.028952, 0.045893, 0.082317, 0.032594, 0.053253, -0.100802, 0.105961, -0.080460, 0.007174, -0.151584, -0.016725, 0.069259, 0.009024, -0.099408, 0.145699, -0.041052, -0.076869, 0.114607, 0.190327, 0.089299, 0.001729, 0.186450, -0.074268, -0.008546, -0.001547, 0.034017, -0.101375, 0.100724, 0.025444, 0.112539, -0.068201, -0.061539, -0.118585, -0.093897, -0.012520, 0.130555, 0.030848, -0.066002, 0.032763, 0.113709, 0.061558, -0.004252, -0.065921, 0.008513, 0.087902, -0.007909, -0.067253, 0.048774, -0.049509, -0.028523, -0.048667, 0.020810, -0.011062, -0.062548, 0.037856, -0.165210, 0.280733, -0.016592, -0.065383, -0.149060, -0.171798, 0.021786, 0.036753, -0.193857, -0.046375, -0.017141, -0.033316, -0.133822, 0.138041, -0.046438, 0.077144, 0.187873, -0.002629, 0.088061, 0.076971, -0.150580, -0.021874, 0.147921, 0.122146, 0.238253, -0.095762, 0.197527, -0.122259, -0.089482, -0.134994, 0.187637, 0.059765, -0.023296, -0.051357, -0.178052, 0.059978, 0.027872, -0.058516, -0.008549, 0.032289, 0.115180, -0.080017, 0.173373, 0.150027, -0.087789, -0.037334, 0.082983, -0.101563, -0.089596, -0.000615, -0.017958, 0.001535, -0.072606, 0.038838, -0.035857, -0.193423, 0.012319, 0.063110, -0.082881, 0.226420, -0.270362, 0.191360, 0.032666, 0.077517, -0.323613, -0.159926, 0.015421, 0.075106, 0.045804, -0.053829, 0.063256, 0.097342, 0.292709, -0.647945, 0.003409, 0.104117, 0.109426, 0.014451, 0.067269, -0.065522, -0.150203, 0.035377, -0.246634, 0.040609, -0.133573, -0.094543, 0.170506, -0.385906, 0.176034, -0.064075, -0.089037, 0.082999, -0.277722, -0.100436, 0.279200, -0.313714, 0.122983, 0.093322, 0.205694, 0.191112, 0.024965, -0.120784, 0.045512, 0.075129, -0.258421, 0.233890, -0.257144, 0.170962, -0.061589, -0.150042, 0.242276, 0.097106, 0.238346, 0.245423, -0.400370, -0.163901, 0.171602, -0.074997, 0.097363, 0.189738, -0.217162, 0.120186, -0.011702, -0.299154, -0.320831, -0.176998, 0.050448, 0.098015, 0.066640, -0.236118, -0.456723, 0.034227, 0.168599, 0.083945, -0.081420, 0.065217, 0.102922, 0.121393, 0.065749, 0.150739, -0.150567, -0.162730, 0.146944, -0.346206, -0.002593, 0.110623, 0.080703, 0.087307, 0.167781, -0.059244, -0.132928, 0.162017, -0.159215, -0.106388, 0.011232, -0.185807, 0.020168, 0.027537, 0.183704, -0.133526, -0.025959, 0.013166, 0.096289, -0.043191, -0.058003, 0.027819, -0.029682, 0.038943, 0.061671, -0.060653, -0.043557, -0.010401, 0.057436, 0.005750, 0.048960, 0.092051, 0.151512, 0.083851, -0.011971, -0.067653, -0.128642, 0.018219, -0.057032, 0.093314, -0.067749, 0.055618, 0.144059, 0.078746, -0.003687, 0.108941, 0.121365, -0.149903, -0.089964, 0.009546, -0.004339, 0.032920, -0.017141, 0.027767, 0.116312, -0.027736, 0.052484, -0.013008, -0.089982, -0.066832, 0.068575, 0.106206, 0.165223, 0.189282, 0.086251, 0.081957, -0.053321, 0.097275, -0.002326, 0.063864, -0.285509, -0.089098, 0.073791, -0.045193, -0.001273, -0.035219, -0.085311, -0.142481, -0.136665, 0.080514, 0.150000, 0.093028, 0.046541, 0.134390, 0.056214, 0.041642, -0.074558, 0.211432, -0.002811, -0.042915, 0.070396, -0.114112, -0.001226, -0.024722, -0.102191, -0.001485, -0.000580, 0.011211, -0.041340, -0.050723, -0.036856, 0.145746, -0.228006, 0.052739, 0.122302, -0.305269, 0.189844, 0.086680, 0.277433, 0.228114, -0.059248, -0.113250, 0.332418, 0.151282, -0.050623, -0.100327, -0.062510, -0.118289, 0.198238, -0.001912, -0.353164, -0.079208, 0.020474, 0.167677, 0.224098, -0.002466, 0.088648, 0.205500, -0.094615, -0.072169, -0.131886, -0.183329, -0.162444, 0.076502, 0.143380, -0.044578, 0.097185, -0.078064, -0.121099, 0.416621, -0.051615, -0.033642, -0.279203, -0.233846, 0.105138, 0.027108, -0.279913, -0.031630, 0.029674, -0.162973, -0.013252, 0.054487, 0.148641, 0.087740, 0.024546, 0.116680, 0.017923, -0.000676, 0.096580, 0.079620, -0.203525, -0.152587, 0.174786, -0.296071, 0.021997, -0.108673, -0.212524, -0.033268, 0.095891, 0.148431, -0.085047, -0.015978, -0.211957, 0.377082, -0.192895, 0.097984, -0.084292, -0.005770, 0.118554, -0.067830, 0.143466, 0.234032, 0.090855, -0.270910, 0.090851, -0.038253, -0.189763, 0.040497, 0.036451, -0.120776, 0.075295, 0.232342, 0.008006, -0.157690, -0.014674, 0.254214, 0.157703, -0.129042, -0.092282, -0.256386, 0.226336, 0.031621, 0.078956, 0.095027, 0.162610, -0.146665, 0.092323, 0.176983, 0.043976, 0.128005, 0.196299, -0.073243, 0.084959, 0.246388, -0.092408, -0.068523, 0.070297, -0.035389, 0.254037, -0.221464, -0.137744, 0.097345, -0.154461, -0.013992, -0.048693, 0.049759, 0.222468, 0.217774, -0.135889, 0.205480, 0.055450, -0.082383, -0.118159, 0.294147, 0.055762, -0.008392, -0.179892, -0.111046, -0.207406, 0.101406, -0.057569, -0.014792, 0.006667, 0.008735, 0.234807, 0.022148, 0.026556, -0.054065, 0.479421, 0.099236, 0.077734, -0.019714, 0.233373, 0.228229, -0.042692, 0.061338, 0.066680, -0.114988, -0.232454, 0.073979, 0.078695, -0.262641, -0.150763, -0.040352, 0.075363, 0.224295, 0.015781, 0.049086, 0.100681, 0.098488, 0.039918, 0.210845, -0.061488, -0.105363, -0.336138, 0.156234, 0.021069, -0.267988, 0.014105, -0.014539, 0.107294, -0.008882, 0.025775, -0.243239, -0.035161, -0.058477, 0.007265, -0.180284, 0.086668, 0.163300, 0.010125, 0.022616, 0.041560, -0.004354, -0.062576, -0.026862, -0.011456, -0.110479, 0.129942, -0.064321, -0.058733, -0.034799, 0.069742, 0.086010, -0.064506, 0.003281, 0.040108, 0.057525, -0.062926, -0.057385, 0.008861, -0.109538, -0.047330, -0.063549, 0.000061, -0.001802, -0.088411, -0.075452, 0.022377, -0.054702, -0.016904, 0.012635, -0.155493, -0.057822, 0.092568, -0.002862, -0.092856, 0.031486, 0.045982, 0.099240, 0.141307, -0.064068, -0.156150, -0.002052, 0.058236, -0.034054, 0.006934, 0.075266, 0.043751, -0.039402, 0.005801, -0.023398, -0.079381, 0.065453, 0.162535, 0.120958, -0.016651, 0.063732, 0.024586, -0.064981, -0.055618, -0.121205, -0.105295, 0.067634, -0.220777, -0.148448, 0.099008, -0.101341, 0.092053, -0.164244, 0.061634, 0.089733, 0.069802, 0.029606, 0.099040, 0.094923, -0.074873, -0.001348, -0.152799, 0.130796, -0.000382, -0.082616, -0.002021, 0.041031, 0.027300, 0.006650, 0.081577, -0.021879, -0.003811, 0.062573, -0.094746, -0.141031, -0.213254, 0.074923, 0.096041, 0.142125, -0.226570, 0.129840, 0.027669, -0.046398, -0.423219, -0.112984, -0.040027, -0.002896, -0.031863, 0.078627, -0.088701, 0.150152, 0.196604, -0.255658, -0.176419, 0.165574, 0.085921, -0.041643, -0.012964, -0.151148, -0.005175, 0.007888, -0.045401, -0.100621, 0.031490, -0.084064, 0.084071, -0.255891, 0.126874, -0.055887, -0.149150, 0.172615, 0.037043, 0.057069, 0.200824, -0.363318, 0.064888, -0.204303, -0.012066, -0.050698, -0.003170, -0.036522, 0.145927, 0.026014, -0.103909, 0.094212, -0.115300, -0.066208, -0.140091, 0.072534, -0.124196, 0.060260, 0.099394, -0.021314, -0.508361, -0.147573, 0.161479, -0.024449, 0.061067, 0.008233, 0.047717, 0.016100, 0.126140, -0.021518, -0.095922, -0.122740, 0.171681, 0.096700, 0.156760, -0.246553, -0.153487, -0.054153, 0.118874, -0.021359, 0.010507, -0.074530, -0.147761, -0.009008, 0.004426, 0.007973, -0.101006, 0.067074, -0.039209, -0.253343, 0.051794, -0.072533, 0.040138, -0.006464, -0.037907, -0.118845, -0.113168, -0.054961, -0.316918, 0.065074, -0.081333, 0.022315, -0.080040, 0.057043, -0.208120, -0.116846, 0.000604, 0.232511, 0.155108, 0.076135, 0.015909, 0.149873, 0.092544, -0.154845, -0.094459, 0.092464, 0.122644, -0.028966, -0.014669, 0.043595, -0.051243, 0.124245, 0.067264, -0.169403, 0.161129, -0.096310, -0.002954, -0.040612, -0.053796, -0.053744, 0.030445, -0.109864, 0.028122, -0.087464, 0.047369, -0.168065, -0.028970, -0.130957, 0.175298, -0.001334, 0.202893, 0.014792, -0.108449, -0.098934, 0.068585, 0.091183, -0.138329, -0.016974, -0.059083, 0.079294, -0.028356, 0.031477, -0.024676, 0.001152, -0.209181, -0.059333, 0.029455, -0.027022, 0.188562, 0.018342, -0.100081, -0.049811, -0.266855, 0.189338, 0.041887, -0.004717, 0.100404, -0.130651, -0.078401, -0.052541, -0.066589, -0.111547, -0.012556, -0.032013, 0.070949, 0.001779, -0.040600, -0.044501, -0.051582, 0.091518, -0.136326, 0.082981, -0.007739, -0.000656, 0.025194, 0.127824, -0.021563, 0.014961, -0.036149, -0.026165, -0.138806, 0.103632, -0.112663, -0.099325, 0.032563, -0.051896, 0.202496, 0.004402, -0.145895, -0.047504, -0.093840, 0.115114, 0.301945, -0.081549, -0.054075, -0.074998, 0.028412, -0.223571, -0.036684, -0.003731, -0.150060, 0.061126, -0.012112, 0.153379, 0.170522, -0.033785, 0.052629, -0.050592, 0.117224, -0.081742, -0.133588, -0.021370, -0.192400, -0.103870, -0.057497, 0.036979, 0.092468, -0.091380, -0.040467, 0.142807, -0.019808, -0.243106, -0.106445, -0.015760, 0.179678, 0.100302, -0.227763, 0.007868, 0.097651, -0.068057, -0.251540, 0.005883, 0.005529, 0.059906, -0.089774, 0.003567, -0.029136, 0.068511, -0.201407, 0.025128, -0.005233, 0.060180, 0.063372, -0.106135, 0.001177, 0.020946, -0.184204, 0.130241, 0.047759, 0.057745, -0.116082, -0.080845, -0.009107, 0.187351, -0.121855, 0.066470, -0.042263, -0.058859, 0.132511, -0.083666, 0.073113, 0.237193, -0.002476, 0.000028, 0.174131, -0.155778, -0.073966, 0.046077, 0.029879, -0.060529, -0.011995, 0.104136, -0.013304, -0.006463, -0.110294, 0.009492, 0.021558, 0.020262, -0.198123, 0.212502, 0.075332, -0.008183, -0.142340, -0.152826, 0.080689, 0.071948, 0.068960, -0.090396, -0.057483, 0.173597, -0.057747, -0.359692, -0.269448, -0.107845, 0.132938, 0.048948, 0.050169, -0.032540, -0.056119, 0.034810, -0.168458, -0.017760, 0.017176, 0.075511, 0.118504, -0.304924, -0.035306, -0.177189, -0.158107, -0.053339, -0.089293, -0.003806, 0.206855, -0.313484, 0.095709, -0.101078, 0.059231, 0.174921, 0.074057, -0.148032, 0.274855, 0.052699, -0.101803, -0.040031, -0.369859, 0.117637, -0.019801, -0.106244, -0.106457, 0.074486, 0.047622, -0.039442, -0.549767, -0.077027, -0.062436, 0.060794, -0.045663, 0.172670, -0.234376, -0.035930, 0.023028, 0.029334, -0.126728, 0.021831, 0.023323, -0.000706, 0.146328, -0.203138, -0.375523, -0.084173, 0.184451, 0.029116, 0.001722, -0.049324, -0.076600, -0.068918, 0.059016, 0.280370, -0.118357, -0.166369, 0.091354, -0.215535, -0.025466, 0.095287, 0.033112, 0.209363, 0.120459, -0.066301, -0.089170, 0.040313, -0.145039, -0.023573, 0.073836, -0.109796, 0.075998, -0.021357, 0.007588, 0.052847, -0.077463, 0.102217, 0.173463, -0.173053, -0.080890, -0.248195, -0.023839, 0.104623, 0.117684, 0.028720, -0.122454, 0.062864, -0.055562, 0.041595, 0.214391, 0.048945, 0.195873, 0.187688, 0.056116, 0.005010, -0.122532, 0.037849, -0.063329, -0.008180, 0.127425, -0.164603, -0.076657, -0.034228, -0.008523, 0.071357, -0.184275, -0.338639, -0.059452, -0.054113, 0.064775, -0.159272, -0.064613, 0.074010, 0.117231, -0.014602, 0.176273, -0.075242, 0.117823, 0.038891, 0.196167, 0.004441, -0.073107, -0.007237, 0.138954, -0.110766, 0.017388, -0.101798, 0.126482, -0.086270, 0.017050, 0.069834, -0.071216, 0.041042, 0.085180, -0.008027, -0.098017, 0.071893, -0.129013, 0.177807, 0.117367, -0.036894, -0.095138, -0.036765, 0.262391, 0.039308, 0.172520, 0.139980, 0.025714, -0.202229, 0.143197, 0.006995, 0.060056, 0.185992, -0.067283, -0.003123, 0.042604, -0.069722, -0.101518, -0.054992, -0.028946, 0.080059, -0.427127, -0.194287, 0.064178, -0.358940, -0.115678, 0.029514, 0.083519, 0.150632, -0.001019, -0.154764, 0.054040, 0.030489, 0.002201, -0.180769, 0.086302, -0.071822, 0.092361, 0.151435, -0.272200, -0.132308, 0.068124, 0.253829, 0.133750, 0.031525, 0.040511, 0.103321, 0.029735, -0.085929, -0.226429, -0.052578, -0.209171, 0.047077, 0.118695, -0.080704, 0.071690, 0.034674, -0.068038, 0.189768, 0.048893, -0.062605, -0.014949, -0.025150, 0.113740, 0.077009, -0.250619, -0.060267, 0.119537, 0.088502, -0.012038, -0.005860, 0.091568, -0.055428, 0.027749, 0.192340, 0.162065, 0.133418, 0.138324, 0.057925, -0.075976, 0.034165, 0.154565, -0.048125, -0.308269, 0.044949, -0.200828, 0.047952, -0.077114, 0.054345, -0.143709, -0.111692, -0.054597, 0.221028, 0.197297, -0.051520, -0.015769, 0.043852, 0.109021, -0.049480, -0.134425, 0.073622, 0.072539, -0.181997, 0.173204, -0.011804, -0.091435, 0.101836, -0.000573, -0.102923, -0.023625, -0.042919, -0.178202, -0.188538, -0.050221, 0.082761, 0.241519, 0.178450, -0.071728, -0.076015, 0.115425, -0.079860, -0.161018, 0.047823, -0.008039, 0.075941, -0.093658, 0.020380, 0.079330, 0.124220, 0.108958, -0.141763, 0.132539, 0.279674, -0.014703, -0.046658, 0.161997, -0.139692, 0.163450, -0.138522, -0.092659, 0.179859, -0.150911, -0.015695, 0.030756, -0.178535, -0.007203, 0.194691, -0.067575, 0.088857, -0.084607, -0.097088, -0.007289, 0.046871, 0.114122, -0.132308, -0.138040, -0.071232, -0.158078, 0.029438, 0.348799, -0.049637, -0.031422, 0.188215, 0.126509, 0.006434, 0.183530, -0.141484, 0.505827, -0.071789, 0.025859, -0.076303, 0.022105, 0.104780, 0.138945, 0.106535, 0.010968, -0.091173, 0.013944, 0.030237, 0.204725, -0.073689, -0.136105, -0.225997, 0.239205, 0.141403, -0.091229, -0.086688, 0.157289, -0.057732, 0.089133, 0.103436, -0.151580, -0.005237, -0.400955, 0.127411, 0.051428, -0.185411, 0.073443, 0.174377, 0.012936, -0.123556, -0.028568, -0.161508, -0.111336, -0.085766, 0.031906, -0.130992, -0.072876, -0.078106, -0.115744, -0.052319, -0.046003, 0.003418, -0.061945, 0.065573, 0.053259, -0.185780, 0.073949, 0.105517, -0.055557, -0.025313, -0.062657, -0.032125, 0.083169, -0.014297, -0.019476, 0.111490, 0.133115, -0.058456, 0.090841, -0.150276, 0.093672, 0.080512, -0.051267, 0.054254, -0.069943, -0.090757, -0.007208, 0.005803, 0.095152, -0.089662, 0.068901, 0.006805, -0.037356, 0.063141, 0.018806, -0.114699, 0.043573, -0.006117, 0.185864, -0.023762, 0.030543, 0.046512, -0.061603, -0.105014, 0.081844, 0.065099, 0.080942, -0.112512, 0.064434, -0.073266, -0.151200, 0.212794, 0.006914, 0.006770, -0.120455, -0.051283, 0.030294, -0.021992, -0.209025, 0.134883, -0.145477, -0.077460, -0.000430, 0.096575, 0.099024, -0.210481, -0.039194, 0.011784, 0.041170, -0.081951, 0.077087, -0.026006, 0.121813, -0.029274, -0.031321, -0.048949, -0.095995, 0.000439, 0.055030, 0.004490, 0.015367, 0.053764, 0.030136, 0.038081, 0.000900, -0.104718, 0.056701, -0.069235, 0.011918, 0.144212, -0.082516, 0.037707, 0.128447, 0.051149, -0.200635, 0.126206, 0.050333, 0.083894, -0.231939, -0.161352, -0.032949, 0.240279, -0.111334, -0.216511, 0.019987, 0.170885, -0.149960, -0.223100, -0.157399, -0.229820, 0.301297, 0.007047, 0.097403, -0.070178, 0.007987, 0.040601, -0.066637, -0.151642, 0.077217, 0.079702, 0.041186, -0.106168, 0.085578, -0.253116, -0.122833, -0.031829, 0.027835, -0.063226, 0.112240, -0.360262, 0.146715, -0.053732, 0.177384, 0.042985, 0.157902, -0.083514, 0.318256, 0.080615, 0.020139, -0.061767, -0.385410, 0.120896, -0.015070, -0.038113, 0.012128, 0.044619, 0.187970, -0.006798, -0.611800, -0.172986, -0.039824, -0.015348, 0.091100, 0.105312, -0.193799, -0.025959, 0.081844, 0.138200, 0.001978, 0.022859, -0.066997, -0.006134, 0.131160, -0.133609, -0.305845, -0.294182, -0.000034, 0.034853, -0.201567, 0.056395, -0.333898, -0.140982, -0.059395, 0.177274, -0.068786, -0.020990, 0.077853, -0.329160, 0.056448, 0.063343, 0.076492, 0.040941, -0.012534, -0.072501, -0.014426, -0.000324, -0.251625, -0.144924, -0.144161, 0.091597, -0.061795, 0.010945, -0.188411, -0.177169, -0.049818, 0.140175, 0.100162, -0.055869, -0.010535, 0.133886, 0.025394, -0.085840, -0.130044, -0.169441, 0.127730, -0.012845, -0.055906, 0.004023, -0.003647, 0.130938, 0.113305, -0.046737, -0.036183, -0.075998, 0.017946, 0.096881, -0.078544, -0.128906, -0.094314, -0.267577, 0.044687, 0.050291, -0.045491, -0.191157, -0.015339, -0.073758, 0.115353, 0.013767, 0.017923, 0.084754, 0.012347, 0.041345, 0.017601, -0.101846, -0.190984, -0.090941, -0.062538, 0.019380, -0.116415, 0.028474, 0.038362, 0.012916, -0.253446, -0.107503, 0.019404, -0.139508, -0.007646, 0.103906, -0.171557, -0.011226, -0.152648, 0.045664, 0.066903, 0.102753, -0.058572, 0.020825, -0.052700, 0.031000, -0.089130, -0.128195, -0.105174, -0.074831, 0.012820, -0.075608, 0.133668, 0.028544, 0.029148, -0.027095, -0.079652, -0.066685, 0.050419, 0.009303, -0.066855, 0.045865, -0.071534, -0.077765, -0.126677, -0.179853, -0.041198, 0.102006, -0.276731, -0.147887, -0.073637, -0.093006, 0.000061, 0.071615, -0.003260, 0.195244, -0.060756, -0.003062, 0.147099, 0.095844, 0.034985, -0.125118, -0.016773, -0.011180, 0.152549, -0.004163, -0.180142, 0.007670, 0.098733, 0.136595, 0.105074, -0.021508, 0.005398, 0.089333, 0.047618, -0.034924, -0.169230, 0.079798, -0.192494, 0.022383, -0.024638, -0.053641, 0.168922, -0.004786, -0.134161, 0.131121, 0.129322, -0.123576, -0.190574, -0.161849, 0.238014, 0.083370, -0.095254, 0.084464, 0.025995, -0.130536, 0.105760, 0.008360, 0.131707, 0.064811, 0.048784, 0.067885, 0.074205, -0.095051, 0.022577, 0.130436, -0.065719, -0.024775, 0.131383, -0.140899, -0.320393, -0.024106, -0.239914, 0.007682, -0.097335, 0.191446, -0.034296, -0.041690, 0.010979, 0.200861, 0.076607, -0.100550, -0.017957, 0.028927, 0.096697, 0.015516, -0.048741, 0.136738, -0.061081, -0.233276, 0.210681, -0.126266, -0.058223, 0.145532, -0.022393, 0.053749, 0.064762, 0.043025, -0.365050, 0.002568, -0.074041, 0.147703, 0.126655, 0.038475, 0.010957, 0.159146, 0.089832, -0.014670, -0.005154, -0.096766, 0.158554, -0.002381, -0.025422, -0.029069, 0.018973, 0.074511, -0.108756, -0.130445, -0.134756, -0.294580, 0.275306, -0.086013, 0.057424, 0.097230, -0.149727, 0.084780, -0.004283, -0.238632, -0.098971, -0.099525, -0.111503, 0.107379, 0.118555, -0.224153, -0.064044, -0.085690, 0.053199, -0.026480, 0.126542, -0.175968, 0.219474, -0.217256, -0.145382, 0.168167, 0.177451, -0.053720, 0.205376, 0.032853, -0.030586, -0.143187, -0.085451, 0.032719, -0.041096, -0.019878, -0.127844, 0.130120, 0.003414, -0.054052, -0.291434, 0.055031, -0.175415, -0.006257, -0.000717, -0.096098, -0.236964, -0.079195, 0.230674, -0.051217, -0.113146, 0.017439, 0.019300, 0.016383, 0.205728, -0.113948, -0.117306, 0.005549, -0.138431, 0.190777, 0.026495, 0.008504, 0.155050, -0.097697, -0.010306, 0.209341, 0.064926, -0.132319, 0.296846, -0.093448, -0.051098, -0.060356, 0.028431, 0.236389, -0.089095, -0.288120, 0.143058, 0.234324, -0.057673, -0.097450, 0.157635, -0.271836, -0.094883, -0.083433, 0.100809, 0.223179, 0.083130, -0.220062, 0.172402, 0.038525, -0.037738, -0.198975, 0.016944, -0.038927, 0.268454, 0.234052, -0.381810, 0.054820, -0.030394, 0.024835, 0.091170, -0.099541, 0.102533, 0.086359, 0.009777, -0.089654, -0.043225, -0.231897, -0.022786, 0.250765, 0.139216, -0.105318, -0.140201, -0.109642, -0.197121, 0.334646, 0.026055, -0.403860, -0.214261, 0.072219, -0.073286, -0.022001, -0.014801, 0.067049, -0.071499, 0.283642, 0.113091, -0.156870, -0.141785, -0.122509, 0.238798, -0.139016, -0.157104, 0.155294, 0.311035, 0.176628, 0.124353, 0.148486, 0.115557, -0.055902, 0.032895, 0.106578, -0.145292, -0.046244, -0.029592, 0.044849, 0.212819, 0.140741, -0.184099, 0.102446, -0.087565, 0.298313, -0.120230, -0.170667, 0.310993, -0.040197, 0.032883, 0.200934, 0.176609, -0.175070, 0.131977, 0.057045, -0.000121, 0.247717, -0.075376, -0.074401, 0.044231, 0.058469, 0.109256, 0.042892, -0.072790, 0.004589, -0.308636, 0.026958, -0.079762, -0.160667, 0.092935, -0.065396, -0.023045, 0.251291, -0.074362, 0.075065, 0.081425, -0.109492, -0.084075, -0.075901, 0.111370, 0.104423, 0.194915, 0.055976, 0.011706, -0.032724, 0.035748, 0.096793, 0.061074, -0.135507, 0.046389, -0.031842, 0.011049, 0.086542, 0.029503, -0.024748, 0.171656, 0.109233, 0.092495, -0.059206, -0.050720, 0.003979, -0.031880, 0.169525, 0.034356, -0.241564, 0.138766, -0.142026, 0.081780, -0.092239, -0.220749, 0.001144, -0.160291, 0.040715, 0.234283, -0.088965, 0.131532, 0.022518, 0.120670, -0.064216, 0.106245, 0.057599, 0.029282, 0.117465, -0.020573, -0.018604, -0.049019, -0.102171, 0.113499, -0.032506, 0.045253, -0.059988, -0.002253, 0.054618, 0.074055, 0.109526, -0.032317, 0.121614, -0.007431, -0.050212, 0.011296, 0.019356, 0.085021, 0.008452, 0.042006, 0.068645, -0.069871, -0.088354, 0.075228, 0.024241, 0.082459, 0.134399, 0.066170, 0.011735, 0.068539, 0.037080, -0.104367, -0.074444, -0.065494, 0.210226, 0.094704, 0.084490, -0.221737, 0.258639, 0.041690, 0.038902, -0.270395, 0.148238, 0.041058, 0.010629, -0.179547, -0.040803, -0.001836, -0.041585, 0.167434, -0.071278, 0.055958, 0.126892, -0.008047, 0.000110, 0.051189, 0.022438, 0.041813, -0.020940, -0.126670, 0.106958, 0.019151, -0.025165, -0.021259, -0.215393, 0.081596, 0.127039, -0.073465, 0.002722, -0.074558, 0.000979, -0.017664, -0.014727, 0.183917, -0.217922, -0.035985, 0.039593, 0.030643, 0.071462, 0.336484, 0.000461, -0.039588, 0.242177, -0.123250, -0.155840, 0.158065, -0.217003, 0.204524, -0.146167, 0.091645, -0.058236, 0.047175, 0.102691, -0.073230, -0.054993, -0.191151, 0.121970, -0.206907, -0.015597, 0.043374, -0.069382, -0.064192, -0.080097, 0.201003, 0.262367, -0.090531, -0.074080, -0.074260, 0.035796, -0.115845, 0.045368, 0.026689, -0.057817, -0.406077, 0.002045, 0.160113, -0.065770, 0.151342, 0.102980, 0.183402, -0.191502, -0.033933, -0.071208, 0.002656, -0.110789, 0.013653, -0.010138, -0.066354, -0.024878, -0.096354, 0.193462, -0.032821, 0.244800, -0.103280, -0.058480, -0.087288, -0.029254, -0.179050, 0.063175, -0.161370, -0.136290, -0.008048, 0.005843, 0.115857, 0.082778, -0.005278, 0.045217, 0.053165, 0.045509, 0.060402, -0.059183, -0.092988, 0.116606, -0.027848, -0.016093, 0.088104, -0.101378, 0.165579, -0.026606, 0.110131, -0.072664, 0.009244, -0.021730, -0.057238, -0.045630, 0.011013, -0.096362, -0.009273, 0.022340, 0.234240, -0.123753, -0.061789, 0.115965, 0.093588, 0.061294, 0.039961, 0.130794, -0.021498, 0.016806, 0.006761, -0.172160, -0.150170, 0.047757, 0.057375, -0.126214, -0.127706, -0.131719, 0.066007, -0.026964, -0.099455, 0.224110, 0.115229, -0.060946, 0.001951, 0.032035, 0.087238, -0.152255, -0.021800, 0.147052, -0.131695, -0.312368, 0.114307, 0.059663, 0.129350, -0.057933, -0.118750, -0.039674, -0.088648, -0.183392, 0.137121, 0.162583, -0.041188, 0.174186, 0.085964, 0.027452, -0.023256, 0.230941, -0.009680, -0.209455, -0.036956, 0.204417, 0.090246, 0.037875, -0.003768, -0.114441, -0.003140, 0.214040, 0.157948, -0.117715, -0.016978, -0.177111, 0.002036, 0.168281, -0.043717, -0.047447, 0.050657, 0.005002, -0.076199, -0.032714, -0.218408, -0.483703, 0.230033, 0.008740, 0.071194, -0.037508, -0.099044, 0.226756, 0.081512, -0.090158, -0.135143, 0.078761, -0.005656, 0.095319, 0.030034, -0.390128, -0.185731, -0.001773, 0.093154, -0.060327, 0.151300, -0.264173, 0.052266, -0.019727, 0.037166, 0.050485, 0.181045, -0.083547, 0.364011, -0.078266, 0.014161, 0.031965, -0.362384, 0.044388, 0.051155, -0.039104, -0.106326, 0.177991, 0.154242, 0.008400, -0.554183, -0.298807, 0.040336, -0.063602, -0.091920, 0.193865, -0.313406, -0.057333, -0.064607, 0.168197, -0.045011, 0.041269, -0.018209, -0.059636, 0.174777, -0.190238, -0.039435, -0.245225, -0.079030, 0.175956, -0.176756, 0.009974, -0.005222, -0.216808, -0.101653, 0.165199, -0.145333, -0.097755, 0.136207, -0.113535, -0.077861, 0.215593, -0.079594, 0.166446, -0.039920, 0.128037, 0.007996, -0.091453, -0.158388, -0.085345, -0.132574, 0.095198, 0.035905, 0.023607, -0.254303, -0.006146, 0.104785, 0.164402, -0.111107, -0.176311, -0.092625, 0.001769, -0.024486, 0.051737, -0.063290, -0.039401, 0.033810, 0.054581, -0.037650, 0.075699, 0.023477, 0.151763, 0.050916, 0.034308, -0.006245, 0.005834, -0.036578, 0.231677, 0.087944, -0.100874, -0.100742, -0.219680, -0.061351, -0.048594, 0.007775, -0.161297, 0.003660, -0.172400, 0.145162, -0.051882, -0.047831, -0.026596, 0.008048, -0.109277, -0.046943, -0.004204, 0.132479, 0.060389, 0.021607, 0.061385, -0.080580, 0.046098, 0.003078, -0.049563, -0.175158, -0.058431, 0.107084, -0.192438, -0.122904, 0.044266, -0.026709, -0.042538, -0.208254, 0.026529, -0.028239, 0.096040, 0.005895, 0.012905, -0.026303, -0.125280, -0.053244, 0.017620, -0.118701, -0.050364, 0.080897, 0.070152, 0.103281, -0.076374, -0.083664, 0.026275, 0.133222, 0.099467, 0.140528, -0.011929, -0.008983, 0.194630, 0.074984, -0.001840, 0.071607, -0.025379, 0.074318, 0.109802, -0.164700, 0.040467, 0.082037, -0.178443, 0.134488, -0.104356, 0.006563, 0.033406, -0.192080, -0.079470, -0.027660, -0.066877, -0.091459, -0.097836, 0.042727, -0.077843, 0.134892, 0.125699, -0.077070, 0.059120, -0.054722, -0.028045, 0.148943, -0.140041, 0.112733, 0.062563, 0.022039, -0.087695, 0.121731, 0.181198, 0.122549, 0.131149, -0.021841, -0.049589, -0.199967, -0.078913, -0.053068, 0.133207, -0.079587, -0.258765, 0.148881, -0.117843, 0.120016, 0.013759, -0.225660, -0.036007, 0.043954, -0.002557, 0.199622, -0.038696, 0.155420, 0.191022, 0.149319, 0.045561, 0.050915, -0.043381, -0.116479, 0.148459, 0.089346, -0.080164, 0.036438, -0.067943, -0.081108, 0.002284, 0.080041, -0.081341, -0.003826, -0.061041, 0.164027, -0.052066, 0.003663, 0.146163, 0.156600, 0.021345, -0.019288, -0.026032, -0.001381, -0.106191, 0.023552, 0.032719, 0.004159, -0.047915, -0.006238, 0.057658, 0.066859, 0.068577, -0.112368, -0.002375, 0.056727, 0.025486, 0.018704, 0.055828, -0.056979, 0.115267, 0.072443, -0.087720, -0.105535, 0.183850, 0.335092, -0.025457, 0.063112, -0.048340, 0.144509, -0.094157, 0.027915, -0.118844, 0.068554, -0.110140, -0.213604, 0.019351, -0.012611, -0.269984, 0.090786, -0.102749, 0.104703, 0.058304, 0.111332, 0.014136, -0.084527, -0.005560, -0.197375, 0.019384, -0.284596, 0.385204, -0.139712, -0.195070, 0.067072, -0.111766, -0.080006, 0.063062, 0.045514, -0.061245, 0.195318, -0.105501, -0.241134, 0.084720, 0.175478, -0.069021, 0.205354, 0.012198, -0.217834, -0.068411, 0.022693, -0.027746, 0.200133, 0.316310, -0.081593, 0.181374, -0.073378, -0.065546, -0.054078, -0.082140, -0.072287, 0.009942, -0.157989, -0.165316, 0.030133, -0.055385, 0.006614, -0.017678, -0.274278, 0.085425, -0.072002, 0.180709, 0.071322, 0.061129, 0.011108, -0.050445, -0.296384, 0.084474, 0.229297, 0.024725, 0.184883, -0.003760, -0.036457, -0.009978, 0.080195, -0.240365, -0.032579, 0.042562, -0.051753, -0.113593, -0.056301, 0.118799, -0.053157, -0.426466, 0.179852, 0.143030, -0.110119, -0.144062, 0.077488, -0.368561, 0.183022, 0.008024, -0.202882, 0.335162, 0.110022, -0.262392, 0.448389, -0.023713, -0.065880, -0.161586, 0.160809, -0.166036, 0.256895, 0.286292, -0.208255, 0.088369, -0.184310, 0.177897, 0.174819, -0.148491, 0.192908, 0.068420, 0.233376, -0.028147, -0.123949, -0.191240, -0.116159, 0.207337, -0.067659, -0.092885, 0.030763, 0.069774, -0.292129, 0.317128, -0.136314, -0.498049, -0.269445, 0.058571, -0.151731, 0.140655, -0.135449, -0.014109, 0.009321, 0.172840, 0.123458, -0.106712, 0.024245, 0.161142, 0.230963, -0.250845, -0.277356, 0.252353, 0.099186, 0.164798, -0.029161, 0.316448, 0.125313, -0.319069, 0.075159, -0.123192, 0.056228, -0.267013, -0.103118, -0.112137, 0.240293, -0.024714, -0.142509, 0.286606, -0.089707, 0.342588, -0.268380, 0.004063, 0.344632, -0.071328, 0.277236, 0.310902, 0.041724, -0.382257, -0.121681, 0.135592, -0.159948, 0.357180, -0.092334, 0.059521, 0.050880, 0.061854, 0.165087, -0.007082, 0.151753, -0.034020, 0.065867, 0.104248, -0.020875, -0.024966, 0.122029, -0.064054, -0.302541, -0.029732, 0.000158, 0.038253, -0.072902, -0.030577, 0.031242, 0.181081, -0.014757, 0.093776, 0.081410, -0.047693, 0.063240, 0.045446, -0.010766, 0.010500, -0.095671, 0.104230, -0.050296, 0.043931, 0.111054, -0.001467, 0.139315, -0.114819, 0.173339, 0.072147, 0.013952, -0.151701, -0.063336, -0.073881, 0.062256, 0.011044, 0.089306, -0.145845, -0.003129, 0.127574, 0.022571, -0.167271, 0.133276, 0.053620, -0.003349, 0.111162, -0.029356, 0.148534, -0.069295, -0.103431, 0.172582, -0.177848, -0.035799, 0.030436, 0.010215, -0.108843, 0.098060, 0.011394, -0.061809, 0.074549, 0.012467, -0.093576, -0.041827, -0.093477, -0.217845, 0.009168, 0.084165, -0.028329, 0.087295, -0.156126, -0.003464, 0.091669, 0.010775, 0.041416, 0.085390, -0.020874, -0.014115, 0.046910, -0.096077, 0.061096, 0.148619, 0.148323, -0.019417, 0.010663, 0.066344, 0.109032, 0.012540, 0.112232, -0.060708, -0.079131, -0.061159, -0.061840, 0.134972, 0.141930, 0.183605, 0.246550, 0.009018, 0.009094, 0.096324, 0.071911, -0.168325, -0.147490, -0.139307, -0.114949, -0.017869, -0.063706, 0.186750, -0.064813, 0.184117, -0.081640, -0.042523, 0.057476, 0.049401, -0.088683, -0.275678, 0.012121, -0.053028, 0.139105, 0.027974, -0.066857, 0.068421, 0.040739, 0.038372, 0.126701, 0.104766, 0.056791, -0.029385, -0.037812, 0.090217, -0.197084, 0.096818, -0.108936, 0.094537, -0.006806, -0.125584, -0.135424, 0.131524, 0.032722, -0.069916, 0.099112, -0.035862, -0.057948, 0.148934, -0.287302, 0.134539, 0.000754, 0.025624, 0.082897, -0.257137, -0.108265, -0.000830, 0.171013, -0.159550, 0.062044, -0.319349, -0.122875, -0.117223, -0.128738, 0.097680, -0.010638, 0.111280, 0.098632, -0.052614, -0.149905, -0.005238, 0.082774, 0.098550, -0.028225, 0.110486, -0.009271, -0.052648, -0.030684, 0.187678, 0.115873, 0.039548, -0.126551, -0.012705, -0.031509, 0.075317, -0.035271, -0.078807, -0.180566, -0.064892, 0.129881, 0.083909, 0.042976, 0.100684, 0.091195, 0.028078, 0.246220, -0.007294, 0.071204, -0.009429, -0.045090, -0.145419, 0.076645, -0.241256, -0.021820, -0.091419, 0.114452, -0.015234, 0.112691, -0.131915, -0.047997, 0.023939, -0.061162, -0.117910, 0.026053, -0.041554, 0.093321, -0.010408, -0.010714, 0.076285, -0.006739, 0.251935, -0.070380, 0.096909, -0.121183, -0.085632, -0.175307, -0.003614, -0.037059, 0.142862, -0.180511, -0.016287, -0.141279, -0.030079, -0.040285, 0.070961, -0.016980, 0.031225, 0.058550, 0.022767, -0.016348, -0.004236, 0.098901, 0.025354, -0.071457, -0.091148, -0.017703, 0.058905, 0.009696, -0.157302, -0.066124, 0.061903, -0.040197, -0.239077, 0.032161, 0.056366, -0.113544, 0.031931, 0.000246, 0.025857, -0.131906, 0.079321, 0.124257, -0.153244, -0.164149, -0.011613, 0.060023, 0.000337, -0.127986, -0.193248, -0.025522, -0.134358, -0.150087, 0.172417, 0.001251, 0.107726, 0.084700, -0.027700, 0.009487, 0.047205, 0.269382, -0.043472, -0.110317, 0.062402, 0.167787, -0.018303, 0.108649, -0.157962, -0.033653, -0.060252, 0.251667, 0.208087, 0.021092, 0.064046, -0.052203, -0.002855, 0.180093, -0.123432, -0.150883, -0.003473, -0.001939, -0.159127, 0.098518, -0.311108, -0.456446, 0.172746, 0.002204, 0.130104, -0.050310, 0.029504, 0.039731, -0.090678, 0.002214, -0.046366, 0.055756, -0.063917, 0.160029, -0.089952, -0.278260, 0.020839, -0.074750, 0.007165, -0.021521, 0.120382, -0.199627, 0.125917, -0.133637, -0.157541, -0.001721, 0.262235, -0.171361, 0.184261, -0.051657, -0.000774, -0.100815, -0.208848, -0.103156, 0.064687, 0.146823, 0.008911, -0.048076, 0.098166, -0.126686, -0.380613, -0.368332, -0.029956, -0.161946, -0.150578, 0.132531, -0.053827, -0.152851, 0.038184, 0.182168, -0.284856, 0.079082, -0.060444, 0.118718, 0.236327, -0.146715, 0.034886, -0.068115, -0.075408, 0.135366, 0.196942, 0.044554, 0.141359, -0.078435, -0.066116, 0.120749, 0.012485, -0.191592, 0.140431, -0.040386, 0.023270, 0.093469, -0.105932, 0.214262, -0.006573, 0.126537, 0.087293, -0.007680, 0.141932, -0.039590, -0.149495, -0.124168, 0.127559, -0.016399, -0.087210, 0.019386, 0.153174, -0.079032, -0.031169, -0.069996, 0.011284, 0.032866, -0.113452, 0.095786, -0.152818, -0.058421, 0.019166, -0.065994, -0.016010, 0.021586, 0.084925, 0.078618, -0.064951, 0.033593, 0.013916, 0.050067, -0.084717, 0.090274, 0.043425, -0.127811, 0.075788, -0.084467, 0.079577, -0.063915, 0.026515, -0.034343, 0.099070, -0.310387, -0.153395, 0.061381, 0.016328, -0.081656, 0.104101, 0.045020, -0.042876, 0.022125, 0.176560, 0.042496, 0.046190, 0.120717, -0.017005, -0.182883, 0.010767, -0.085931, -0.127968, -0.035530, 0.013094, 0.086476, -0.270871, -0.036570, 0.165968, 0.099188, -0.041597, 0.143109, -0.093818, -0.039714, 0.026311, -0.070178, 0.011124, 0.069858, -0.024628, 0.237150, 0.041116, 0.092165, -0.020232, 0.077052, 0.135935, -0.040313, -0.062277, 0.030772, -0.008290, 0.002087, 0.214754, 0.143174, -0.048225, -0.086522, -0.006798, 0.011034, 0.085111, -0.080307, 0.177879, 0.000631, -0.015118, 0.008269, -0.017416, -0.123180, 0.051832, -0.014998, -0.171841, 0.077402, 0.048326, 0.018730, 0.089475, -0.189384, -0.040660, -0.041698, 0.028833, 0.007119, 0.143219, -0.027711, -0.060265, -0.094622, 0.105385, -0.008665, -0.032295, -0.023102, 0.105774, -0.063307, -0.022310, -0.093098, 0.020882, -0.013785, 0.029889, 0.148596, 0.052557, -0.127226, -0.123158, 0.073754, -0.049425, -0.016670, 0.043649, -0.404394, 0.025574, 0.035946, -0.090342, -0.143458, 0.135417, 0.057531, -0.092396, 0.040650, 0.103264, 0.007810, -0.066617, -0.145855, 0.167456, 0.020663, -0.009696, 0.084121, 0.041101, 0.053735, 0.124504, 0.027500, -0.081125, 0.043220, 0.110221, -0.115586, -0.037135, 0.065372, -0.071720, -0.008709, 0.184645, 0.112130, -0.008675, -0.069456, 0.024515, 0.104189, -0.079206, -0.125519, -0.071665, 0.085944, -0.000186, 0.001962, -0.101242, -0.082001, 0.099219, 0.191974, 0.188579, 0.008499, -0.096339, 0.064116, 0.041368, 0.034500, -0.024347, 0.123492, 0.186636, 0.066644, 0.094172, -0.119613, -0.087659, -0.198208, 0.055975, -0.007151, -0.037703, 0.087389, 0.209684, 0.012162, 0.218323, -0.008637, -0.021438, 0.104225, -0.269671, 0.165110, -0.102576, -0.045499, 0.039166, 0.043330, -0.077647, 0.030676, 0.175572, 0.096818, 0.119686, -0.218024, -0.038509, -0.095090, -0.086341, 0.261693, -0.160226, -0.135349, -0.022123, -0.172471, 0.101386, 0.095692, -0.191473, 0.110181, 0.098386, -0.127949, -0.306095, 0.052684, 0.078410, -0.010514, 0.072678, 0.056938, 0.009429, -0.067226, -0.026673, 0.082737, 0.090789, 0.171043, 0.161877, 0.190802, -0.255762, 0.061183, -0.008680, -0.074493, -0.169877, 0.179608, 0.076957, 0.011463, 0.109160, -0.017487, 0.124721, 0.127432, -0.010011, 0.270526, -0.075356, -0.056992, 0.240675, 0.138319, 0.443133, -0.025640, -0.111073, 0.036008, 0.065629, 0.072073, 0.009402, 0.150990, -0.323243, -0.121285, 0.121165, 0.009962, 0.066420, 0.058029, 0.022058, -0.080931, 0.080862, 0.096520, -0.019924, -0.335303, -0.025099, 0.128676, 0.093804, -0.246406, -0.018609, -0.281389, 0.057066, 0.007726, -0.231535, 0.169633, 0.227577, -0.273450, 0.274375, -0.117242, 0.019164, 0.006249, -0.018556, 0.131967, 0.043171, 0.158250, -0.238675, 0.011803, -0.092612, -0.116078, 0.261576, -0.108971, -0.016918, 0.097177, 0.136033, -0.004919, -0.146679, -0.092595, 0.018412, 0.188851, 0.010148, -0.108874, 0.205727, -0.102937, -0.240619, 0.284601, 0.106611, -0.326176, -0.147968, 0.054536, -0.308620, -0.122325, 0.136542, -0.035392, -0.126798, 0.140411, -0.069230, -0.036496, 0.132984, -0.194420, 0.226154, -0.138172, -0.340849, 0.252985, 0.187033, 0.185125, -0.003619, 0.293943, 0.009355, -0.228483, 0.125774, -0.031995, -0.055640, -0.327920, -0.268752, -0.018414, 0.114104, -0.025084, 0.009444, 0.218350, -0.073291, 0.294262, -0.184919, 0.200568, 0.280886, 0.014385, -0.155180, 0.343903, -0.008208, -0.287976, 0.142354, 0.212281, 0.189958, 0.097622, 0.005071, -0.241906, -0.045475, 0.098218, -0.024915, 0.020959, -0.028153, -0.169890, 0.190897, 0.044526, -0.141847, 0.174603, 0.084145, 0.043723, -0.125239, 0.101893, 0.044667, 0.050002, -0.011100, -0.109090, 0.055812, -0.002711, 0.219045, -0.040574, 0.075849, -0.086852, -0.122298, -0.024261, -0.020351, -0.070514, -0.030119, -0.080014, -0.028580, 0.015851, -0.033107, -0.049642, 0.074265, -0.012615, 0.087818, -0.109401, -0.073868, -0.012003, -0.081787, 0.062274, 0.076817, -0.045248, -0.055588, -0.069330, -0.036251, 0.077819, -0.125578, -0.093291, 0.128738, -0.000595, -0.125473, 0.123179, -0.261849, 0.180897, 0.018768, -0.068439, -0.069922, -0.136091, 0.097562, -0.094581, -0.033474, -0.068329, -0.003619, 0.078069, -0.276555, -0.006964, 0.056157, -0.013956, -0.043539, -0.180032, 0.015400, -0.151687, 0.200899, 0.052282, -0.047409, -0.020263, -0.117374, 0.103070, 0.017969, 0.034222, 0.004894, -0.051019, 0.034228, 0.120464, 0.054079, 0.062803, 0.107601, -0.023122, 0.081766, 0.077840, -0.052727, 0.029845, 0.068775, -0.101634, -0.123202, 0.067889, 0.059570, -0.021325, 0.150804, 0.219382, -0.119083, 0.227643, -0.031684, -0.073313, 0.070903, -0.136177, -0.021228, 0.008484, -0.210523, -0.153748, 0.042018, 0.014137, 0.120269, -0.153050, 0.047043, -0.027426, -0.023284, -0.094770, -0.023457, 0.005151, -0.264599, 0.133255, 0.159614, -0.102742, 0.051808, -0.036881, 0.139843, -0.094918, -0.035415, 0.031144, 0.076605, -0.101894, -0.148962, -0.061359, 0.116259, 0.114168, 0.126013, -0.001005, 0.008218, -0.032160, 0.012738, -0.094330, 0.252116, 0.077081, 0.111950, 0.136744, 0.096193, 0.115182, -0.176342, -0.162925, -0.033626, -0.029098, 0.240131, 0.049019, -0.075516, -0.227976, 0.158507, 0.126910, -0.307162, 0.200778, -0.077382, 0.013455, -0.085983, 0.022550, -0.221551, -0.090798, -0.194071, -0.001774, -0.084204, -0.002679, 0.192601, 0.121899, 0.009079, -0.018431, -0.059262, 0.061640, -0.057037, -0.107205, 0.138593, 0.258379, 0.016703, 0.151873, -0.042604, -0.119106, -0.103572, 0.123004, 0.003580, -0.189777, -0.139024, -0.010317, -0.040850, -0.023849, 0.020824, 0.074691, 0.091048, 0.157220, -0.104341, -0.051505, -0.095975, -0.066135, 0.054802, -0.030507, -0.182027, -0.180324, 0.024469, 0.009644, 0.152494, -0.074044, -0.128042, -0.088782, 0.062624, -0.035140, -0.062984, -0.180918, -0.115484, 0.093500, 0.108150, 0.104917, -0.012186, -0.055975, 0.152837, 0.023301, 0.120616, -0.048017, -0.039989, -0.091248, -0.044832, 0.012199, 0.169551, -0.094414, -0.103296, -0.171713, -0.003924, 0.040625, -0.057061, 0.029594, 0.182802, 0.070216, -0.009261, 0.180904, -0.159865, 0.103371, 0.101931, -0.121530, -0.037755, -0.144657, 0.089747, 0.028227, -0.100388, -0.102470, 0.009825, 0.016723, -0.361370, 0.036946, 0.095798, 0.030725, -0.040778, -0.048790, 0.025224, -0.199633, -0.032696, 0.172085, -0.079747, -0.181554, 0.028679, 0.084145, -0.004793, -0.122129, -0.024557, -0.018731, -0.012408, -0.079507, 0.167030, 0.118550, -0.042960, 0.094964, -0.044484, 0.037648, -0.061519, 0.111459, -0.099608, -0.165927, -0.050750, 0.143016, -0.047049, 0.034632, 0.159530, 0.033014, 0.028697, -0.073516, 0.097959, -0.034812, -0.014199, -0.029213, 0.050322, 0.054029, 0.014092, -0.147983, -0.019183, -0.011254, -0.130710, 0.141383, -0.119221, -0.076628, -0.040229, 0.053689, -0.018624, 0.226716, 0.004272, -0.114044, 0.074093, -0.043397, -0.026518, -0.033111, -0.133974, 0.054903, -0.038994, -0.123145, -0.077523, -0.067136, 0.087639, -0.033934, -0.090829, 0.107361, -0.083671, -0.161801, -0.266919, 0.077639, 0.059019, -0.049575, 0.069795, 0.061718, -0.008754, 0.029454, -0.012973, 0.076716, 0.057250, 0.030453, 0.037604, 0.041157, 0.109702, 0.033876, 0.028779, -0.062506, 0.013998, 0.014845, 0.003717, 0.027752, 0.004005, 0.003119, 0.179104, 0.136857, -0.095334, 0.160206, 0.135327, 0.085076, 0.077291, 0.170377, 0.212370, 0.018952, -0.231868, -0.042901, 0.061608, -0.014780, 0.024031, -0.140531, -0.110448, 0.096040, 0.112942, -0.097934, 0.135079, 0.232514, 0.021222, -0.122069, -0.059455, 0.048845, 0.189465, -0.062849, -0.066612, -0.179843, 0.202683, -0.078254, -0.168537, -0.223962, 0.062343, -0.107760, -0.115915, 0.141973, 0.092305, -0.047097, 0.107990, -0.080443, -0.025712, 0.147763, -0.095642, 0.048308, 0.002355, -0.053942, 0.030275, -0.058526, -0.122717, 0.017586, 0.184024, -0.087123, -0.068976, 0.024122, -0.047157, 0.030650, -0.079580, -0.047271, 0.123008, -0.127487, -0.020803, 0.007643, 0.158566, -0.097343, 0.016194, -0.040262, -0.078556, -0.183550, -0.079601, 0.173407, -0.104453, 0.020142, 0.021255, 0.002135, 0.014276, 0.012032, -0.056647, 0.070526, 0.107962, -0.071351, -0.077015, -0.181344, -0.000794, 0.080287, 0.012422, 0.141018, -0.031248, 0.093060, -0.143683, 0.001461, 0.175378, 0.063239, 0.118041, 0.047927, 0.023649, -0.119830, 0.020255, -0.055240, 0.200180, 0.023159, 0.079470, 0.039321, -0.153090, 0.107333, 0.016708, -0.021963, -0.218336, 0.030444, -0.036196, -0.040119, 0.010143, 0.187956, 0.218288, 0.028045, 0.086097, 0.015111, 0.043602, 0.155219, 0.081692, 0.021244, 0.051215, -0.136691, 0.051217, -0.061067, -0.036167, 0.084892, 0.093406, -0.065165, -0.104022, 0.101645, 0.013163, -0.074347, -0.086420, -0.141297, 0.006809, 0.026197, 0.190023, 0.028694, -0.081296, -0.213676, -0.077924, -0.041721, 0.034659, -0.056336, 0.074653, 0.142675, 0.040568, 0.140779, -0.096221, 0.015324, -0.014626, 0.103865, 0.094124, -0.039213, -0.060984, -0.191915, 0.121914, -0.104887, -0.009413, -0.193103, 0.037510, -0.139954, -0.023654, 0.039866, -0.119722, -0.056390, 0.244060, -0.060783, 0.083017, 0.044853, -0.016043, 0.096492, -0.057387, -0.099137, 0.097149, -0.179954, 0.088704, -0.085240, -0.047482, -0.038341, 0.072048, 0.059401, -0.297175, 0.071004, 0.063636, -0.109841, 0.043953, -0.088971, -0.061320, -0.036690, 0.161418, 0.092837, -0.057919, 0.014926, 0.081115, 0.058891, -0.102386, -0.085010, 0.106025, -0.089463, 0.032651, 0.030667, 0.054625, 0.145567, 0.037445, 0.112051, 0.200037, 0.059772, 0.082106, -0.011491, -0.053686, -0.111341, 0.015742, -0.097444, 0.026832, -0.058936, -0.121590, -0.071101, -0.087532, -0.125446, -0.104067, -0.112194, -0.099276, 0.193453, 0.160626, 0.158002, 0.226373, -0.106559, -0.062457, 0.108947, -0.056591, 0.048863, 0.046107, -0.122216, -0.001954, 0.027216, -0.010578, 0.059790, 0.181595, 0.089986, -0.040763, -0.152324, 0.123925, 0.010770, 0.045098, -0.162761, -0.234783, -0.099529, -0.172510, -0.044220, 0.150217, -0.050422, -0.321198, 0.293938, 0.080303, -0.163878, -0.183876, 0.054975, -0.130167, -0.093171, -0.152134, -0.002345, 0.146009, -0.021297, -0.073596, 0.012304, 0.016142, -0.064466, 0.164979, 0.160871, -0.156853, 0.165147, 0.035167, 0.013039, -0.023128, 0.169868, -0.117813, -0.016457, -0.104668, -0.054270, 0.000280, 0.176345, 0.154350, 0.257502, -0.037147, -0.169832, 0.015142, 0.123804, 0.151385, 0.034577, -0.190100, 0.140320, 0.162258, -0.081458, -0.047278, 0.226173, -0.192236, -0.095573, 0.038506, -0.095988, -0.165601, -0.039392, -0.104884, -0.156815, 0.051453, 0.205195, -0.062935, -0.252319, 0.082616, -0.060987, 0.082962, -0.023071, -0.132115, 0.011823, 0.112824, -0.064461, -0.178312, -0.023923, 0.237294, 0.021463, 0.014278, -0.136544, 0.055226, 0.107656, 0.087467, -0.205097, 0.024963, -0.171464, -0.300945, -0.085325, 0.119830, -0.027131, 0.092206, 0.084910, -0.000348, 0.143043, 0.062222, -0.064537, -0.077113, -0.176493, 0.032086, 0.005323, -0.209667, 0.027454, 0.219989, -0.025783, -0.229394, 0.046573, 0.173501, -0.046966, 0.005707, 0.125722, -0.367886, -0.009503, 0.001878, -0.097400, -0.166810, 0.152309, -0.095799, -0.100662, -0.007671, -0.177599, 0.363329, -0.053292, -0.044231, 0.113728, 0.212383, 0.100365, 0.064286, 0.279237, -0.163216, -0.039672, -0.047714, -0.028610, -0.012673, 0.006219, 0.304737, -0.037902, 0.201636, -0.074063, 0.035819, 0.177573, -0.037100, -0.020371, -0.223544, 0.053320, 0.197866, 0.085399, -0.124280, 0.266836, 0.097045, -0.059287, 0.042292, -0.002055, 0.061298, 0.058752, 0.002219, -0.293481, -0.001864, -0.157034, -0.078481, -0.018251, -0.074111, -0.015561, 0.141408, 0.049258, -0.044401, 0.115674, -0.071442, -0.027150, -0.019719, -0.030591, 0.069778, 0.021030, -0.063443, -0.097275, -0.010998, -0.191079, 0.133350, 0.014188, 0.101771, 0.022603, -0.055273, 0.050331, -0.001182, -0.010920, -0.076072, -0.126479, 0.004093, -0.019536, -0.025757, -0.016223, 0.088628, 0.054437, 0.031781, 0.072481, -0.162149, -0.103034, 0.052873, 0.039111, 0.089507, 0.010837, -0.007938, -0.150069, -0.044304, 0.061144, -0.109519, -0.133524, 0.089888, 0.019032, 0.041943, 0.246860, -0.161573, 0.138751, 0.057029, -0.202650, -0.243020, 0.122718, 0.040811, 0.059087, 0.148540, 0.020305, -0.018495, 0.160605, -0.353050, -0.069497, 0.048398, -0.038936, -0.000456, -0.064014, -0.076238, -0.121446, -0.048218, 0.047712, -0.152872, 0.048953, -0.059505, -0.077098, -0.153647, -0.037425, -0.007167, 0.033873, -0.073093, 0.092315, 0.059755, -0.029473, -0.085764, -0.067359, 0.074698, 0.064470, 0.053899, -0.045017, -0.012443, -0.068916, 0.021892, -0.066382, -0.008676, 0.069998, 0.060481, -0.268467, -0.110700, -0.046467, 0.036672, 0.082563, -0.066099, 0.005740, 0.132693, 0.007058, 0.095262, -0.086531, -0.042853, 0.131271, -0.002918, 0.210307, -0.118571, 0.135108, 0.051682, -0.019142, 0.058478, -0.182134, 0.275542, -0.064110, -0.151776, -0.043077, -0.000393, -0.128746, -0.006894, -0.014964, -0.198801, -0.188063, -0.229730, 0.013527, 0.158515, -0.082030, -0.119837, -0.135282, 0.151627, -0.056954, 0.069236, -0.132578, -0.124568, 0.029968, 0.005339, 0.039970, -0.231353, -0.108017, 0.043909, -0.106168, 0.017709, -0.117037, -0.056429, 0.172070, 0.038421, 0.118912, 0.078405, -0.021142, -0.096669, 0.065514, 0.043949, 0.195544, -0.049240, -0.018336, -0.032849, 0.270442, -0.050328, 0.147101, -0.023020, 0.116599, 0.261016, -0.070430, 0.135381, -0.186244, 0.076874, 0.322655, 0.055924, -0.010726, -0.059085, 0.102808, -0.234046, 0.021049, 0.086391, -0.029742, -0.162902, -0.151382, 0.037715, -0.281189, 0.073183, 0.058199, 0.012041, -0.025660, -0.100528, -0.181069, 0.070948, 0.159138, -0.113379, 0.046154, -0.209877, -0.012564, 0.080475, 0.030415, 0.029883, 0.087754, -0.181098, -0.181960, -0.018818, -0.011466, 0.156772, -0.020707, -0.009948, -0.087370, -0.032461, 0.075329, -0.006550, -0.028428, -0.107266, -0.013367, 0.100419, 0.084276, 0.088918, 0.013429, 0.249533, 0.020656, 0.018137, 0.103885, -0.069577, -0.032988, -0.177088, -0.102535, 0.078597, -0.105500, -0.114561, -0.152012, -0.011074, -0.080153, -0.018716, -0.046171, 0.073490, -0.052078, -0.038854, 0.218655, -0.101889, 0.089301, 0.012940, -0.234615, -0.217484, 0.014017, -0.134431, 0.016317, 0.089318, -0.143629, 0.162944, 0.060529, -0.383599, -0.021555, 0.002962, -0.075993, -0.121044, -0.169464, -0.019785, -0.203676, -0.072960, 0.128925, -0.182053, -0.078095, 0.091647, 0.081435, -0.079974, -0.208808, -0.187370, -0.006784, 0.049482, -0.035409, 0.114449, -0.055336, -0.110874, -0.013345, 0.069704, 0.198818, -0.015957, 0.112965, 0.043110, -0.078160, -0.030791, -0.022369, -0.057265, -0.146270, -0.017891, 0.008066, -0.042395, -0.303580, -0.099333, -0.085799, -0.026415, 0.234218, 0.087756, -0.064952, 0.187500, -0.058201, -0.092420, -0.016815, -0.058794, 0.141819, 0.096282, 0.058492, -0.043212, -0.038812, -0.129951, 0.203090, 0.135202, -0.161399, 0.008207, -0.057008, 0.233348, 0.003972, -0.076539, 0.113399, -0.352247, 0.066733, -0.171212, -0.078238, -0.006274, -0.065172, -0.067729, 0.102118, 0.070370, 0.039338, -0.172262, 0.057689, -0.008519, -0.113932, -0.197439, 0.039503, -0.002864, -0.012629, -0.032154, -0.056615, -0.020680, 0.098676, -0.090311, 0.079782, -0.242075, 0.129091, 0.158574, -0.056523, -0.072463, 0.060754, -0.222923, -0.035662, 0.145055, 0.057773, -0.049653, -0.035323, 0.044877, -0.054824, 0.086769, -0.230703, 0.048171, 0.100581, 0.086956, 0.085041, -0.271265, -0.013253, -0.005862, 0.082676, 0.128413, 0.040613, 0.023470, 0.003738, 0.004143, -0.058673, -0.172334, 0.066284, 0.032521, -0.004398, -0.061104, 0.126959, 0.004442, -0.013589, -0.078583, 0.011750, -0.041746, -0.035754, 0.081017, -0.152897, -0.141548, -0.093197, -0.141553, -0.030079, 0.087533, 0.009819, 0.114477, -0.213767, 0.009218, -0.078612, 0.145240, 0.007058, 0.083536, -0.104793, -0.016772, 0.060940, 0.022681, -0.008712, -0.075793, -0.054099, 0.008213, -0.054389, -0.045490, 0.026939, -0.025879, -0.013124, -0.057245, 0.038996, -0.051148, -0.036419, -0.000207, 0.044030, -0.034775, -0.030250, 0.133361, -0.122137, -0.079272, -0.057564, -0.139569, -0.127402, -0.082838, -0.038907, 0.013365, 0.008437, -0.187662, -0.085747, 0.104725, -0.216007, -0.103305, -0.052040, 0.076616, 0.017343, 0.179848, 0.027689, 0.059094, -0.012827, -0.194834, -0.029277, -0.004535, -0.063000, -0.129662, -0.114272, 0.004849, 0.053407, -0.104028, -0.029991, -0.127864, 0.066101, -0.018953, -0.058250, -0.132305, 0.117209, 0.149645, 0.047504, 0.057213, 0.109350, 0.057401, -0.041105, -0.155727, -0.068862, -0.044070, 0.009530, 0.031605, 0.026087, 0.012105, 0.055632, -0.015261, -0.173686, -0.019496, -0.154619, 0.061373, 0.110208, 0.047639, 0.221495, -0.009239, 0.032763, -0.040971, -0.052198, 0.040720, 0.070562, -0.180330, -0.096282, -0.043087, -0.096283, 0.120997, -0.117365, 0.051069, -0.097783, -0.110233, 0.071763, 0.093319, -0.062255, -0.094974, -0.108106, 0.041324, 0.192827, -0.205159, -0.018478, 0.232015, -0.009229, 0.055588, -0.023303, -0.091731, -0.109218, -0.091780, 0.062361, 0.132871, -0.150299, -0.008960, -0.022689, -0.052658, 0.050351, -0.080279, -0.239401, 0.086101, 0.006493, -0.083715, 0.178108, -0.166469, 0.100277, 0.126499, -0.086946, -0.175415, -0.027478, 0.141213, -0.085197, -0.055775, 0.000316, 0.037549, -0.065261, -0.317974, -0.015574, -0.009668, 0.054914, 0.017465, -0.052495, -0.025184, -0.008985, -0.019628, 0.228321, -0.187854, -0.115273, -0.166020, 0.090843, 0.027807, -0.142265, 0.051319, 0.028481, 0.070623, 0.002885, 0.130555, 0.125752, -0.085629, -0.100914, 0.039978, 0.047513, 0.054313, 0.072839, 0.026575, -0.080399, -0.113091, -0.084745, 0.175960, -0.063327, -0.032592, 0.127612, -0.034855, 0.084833, 0.064774, -0.088289, -0.033881, -0.217011, 0.067210, 0.091607, 0.065162, -0.091106, 0.038386, 0.104981, -0.015818, 0.046446, 0.011348, 0.011233, 0.061978, 0.036104, 0.041116, 0.037023, -0.053920, -0.197297, -0.013466, -0.038629, 0.012483, -0.099282, 0.034802, 0.027946, -0.018867, 0.086996, 0.136228, 0.118795, -0.073027, 0.054584, 0.013782, -0.047205, 0.085464, -0.004739, 0.032576, 0.068254, 0.035298, -0.056408, 0.020334, 0.065205, -0.056707, 0.049673, -0.245557, 0.088478, -0.051233, -0.022937, 0.001154, -0.166940, 0.020711, 0.097704, -0.010741, -0.284104, 0.136863, 0.031408, -0.147466, -0.012150, 0.097691, -0.006103, -0.173266, -0.084187, 0.007154, 0.000086, -0.008076, -0.149581, 0.089026, -0.169364, 0.287689, -0.221209, 0.076282, 0.035824, -0.139463, 0.011327, 0.191986, -0.075143, -0.027721, 0.134241, -0.106242, 0.036239, 0.003415, -0.048589, -0.117505, 0.123948, -0.039406, 0.042073, 0.091212, -0.068127, -0.092648, -0.060989, -0.154461, -0.264213, -0.008907, -0.033167, -0.154581, 0.060583, 0.083041, -0.181176, 0.024874, 0.056454, 0.116176, 0.025836, -0.093489, 0.021495, -0.169673, -0.235643, -0.073990, -0.113807, -0.004852, -0.024225, -0.012852, 0.059912, 0.148733, 0.060643, 0.127790, -0.063611, 0.149739, 0.019328, 0.032853, -0.083617, -0.068859, -0.034904, 0.134532, 0.034518, 0.167770, -0.073732, 0.072925, -0.072783, 0.089757, 0.196407, 0.109501, 0.023062, 0.184408, -0.097867, -0.392270, -0.123142, -0.149818, -0.094422, -0.122938, -0.090775, -0.017963, 0.022890, -0.280801, 0.054479, -0.169760, -0.022781, -0.073242, -0.131584, 0.068603, 0.145025, -0.065371, -0.003143, -0.091222, 0.032152, -0.234326, 0.083968, 0.122049, 0.039342, 0.041254, -0.115350, 0.046670, -0.057639, 0.127130, -0.160918, 0.071060, 0.020142, -0.078497, -0.062957, -0.096274, 0.021421, 0.035147, 0.022746, -0.089834, -0.020786, -0.023414, -0.031439, -0.095462, 0.047230, -0.058216, 0.018983, 0.082139, 0.066246, -0.034261, -0.017642, 0.010525, -0.192121, -0.107453, 0.109203, 0.060315, -0.081287, 0.106949, 0.039528, 0.033170, 0.023003, 0.114966, 0.067804, 0.046890, 0.009250, 0.034872, -0.084151, -0.034120, 0.025168, 0.149938, -0.006253, 0.181895, 0.093623, -0.034070, 0.092537, -0.140610, 0.053941, -0.128610, 0.088341, 0.020720, -0.114770, 0.094811, -0.150283, 0.013933, -0.061780, 0.023710, 0.028870, -0.020576, 0.038736, -0.028393, -0.036146, -0.056125, -0.077769, 0.132802, -0.007996, -0.217147, -0.063419, -0.091293, -0.213367, -0.066037, 0.107528, 0.085894, -0.022818, 0.087207, 0.181660, 0.016006, -0.270848, -0.210075, 0.003094, 0.084364, 0.033001, 0.217917, -0.095676, 0.192053, 0.079627, -0.005376, 0.109783, -0.075933, -0.044394, 0.074904, 0.210954, 0.109258, -0.032571, 0.093224, -0.019100, -0.038702, 0.012285, 0.048087, 0.043365, 0.142718, -0.108985, -0.060429, -0.077585, 0.104087, 0.038970, 0.016431, -0.089452, 0.006110, -0.003814, 0.090719, -0.047727, 0.054943, 0.059293, -0.035362, -0.046920, -0.045711, 0.046169, 0.033753, -0.084352, 0.106481, -0.104529, 0.172245, -0.123062, 0.114004, -0.062359, -0.015681, -0.027925, 0.091152, -0.011588, -0.011527, -0.054692, 0.038514, 0.113168, -0.104883, -0.025664, 0.056062, -0.071174, 0.015891, -0.149617, 0.011609, -0.057035, 0.086843, 0.032223, 0.004956, -0.131717, -0.005251, 0.128356, 0.205715, 0.010847, -0.049222, -0.066640, -0.052016, 0.158631, -0.012984, 0.125481, 0.083825, 0.128421, 0.087985, 0.063807, -0.054607, -0.119532, -0.075535, -0.116434, -0.007235, -0.057814, 0.091322, 0.151087, 0.041152, -0.062495, 0.051457, 0.082166, 0.043789, -0.064297, -0.125991, 0.075333, -0.010332, -0.033814, 0.037422, -0.045967, -0.154890, 0.062862, 0.087134, -0.137882, -0.006372, -0.213078, -0.027514, 0.090324, 0.054316, -0.155248, 0.145630, 0.097674, -0.161420, -0.110045, 0.137341, 0.053642, 0.101234, 0.047635, -0.050895, -0.048668, 0.059533, 0.020069, 0.032897, 0.044540, 0.057844, 0.058203, 0.050924, 0.044270, 0.210391, -0.028726, -0.079815, -0.250465, 0.203763, -0.052787, -0.077763, 0.067022, 0.166084, 0.036773, 0.160143, -0.142832, 0.050965, 0.187154, -0.103238, 0.114177, -0.174838, -0.103931, -0.004816, -0.121670, 0.125381, 0.000970, -0.112108, 0.045577, -0.057440, -0.049930, -0.019005, -0.174609, 0.111622, 0.045147, -0.054807, -0.173190, -0.095373, 0.181138, 0.264859, 0.050541, -0.049747, -0.098851, -0.079734, 0.048101, 0.169182, -0.056053, -0.101277, 0.270268, -0.132096, -0.003813, -0.196439, -0.017110, 0.006840, 0.061599, 0.092433, -0.064618, -0.100408, -0.169046, -0.087760, -0.156088, -0.176788, 0.080509, 0.157827, 0.043584, -0.136540, 0.227052, 0.117064, 0.031557, 0.200364, -0.044038, -0.140831, -0.058526, -0.150152, -0.139700, -0.018654, -0.133351, 0.182420, -0.051670, 0.050111, -0.000910, 0.161910, 0.165323, -0.050995, -0.072195, 0.002454, 0.127717, 0.054105, 0.057215, -0.231049, 0.113057, -0.045976, -0.010789, -0.063658, 0.030736, 0.072412, 0.213566, 0.039817, -0.154687, 0.072869, -0.198850, -0.109582, 0.264144, 0.148994, 0.081345, -0.075263, -0.097773, 0.140460, -0.315874, 0.080272, -0.097892, -0.203179, -0.023766, 0.023777, -0.094115, 0.016281, -0.141049, 0.105485, 0.036609, -0.166401, 0.041008, 0.092338, -0.032231, -0.236539, -0.228143, 0.019735, -0.081053, -0.026560, -0.075468, 0.113250, -0.199942, 0.150576, 0.184335, 0.153096, 0.034726, -0.229280, -0.080148, -0.022736, 0.069385, 0.212990, -0.089465, 0.096902, 0.036241, 0.041195, -0.218952, 0.171170, -0.059351, -0.078933, 0.337370, 0.046180, 0.027511, -0.024824, -0.117942, 0.084940, 0.015177, 0.172253, 0.182927, 0.247621, -0.076639, -0.025281, 0.058464, -0.031634, 0.126508, -0.016343, 0.073496, -0.135644, 0.050686, 0.030651, -0.007028, 0.029973, 0.036882, -0.100736, -0.073657, 0.157800, -0.040507, 0.065908, -0.002063, -0.070292, 0.048598, -0.130869, 0.034557, 0.095522, 0.026769, -0.018013, -0.014644, -0.044336, -0.158234, 0.038946, 0.009055, -0.093014, -0.041456, 0.060698, -0.035667, -0.036408, -0.008230, -0.145420, 0.001284, 0.044359, 0.187239, 0.017115, 0.084336, 0.132911, -0.184793, -0.028974, 0.142672, 0.109332, -0.056506, 0.002440, -0.014603, 0.117012, -0.092215, 0.106970, 0.194062, 0.105753, -0.025129, 0.118732, -0.033397, -0.060342, -0.105680, -0.085592, -0.103901, -0.049972, -0.015826, 0.007307, -0.217592, -0.083411, -0.041810, 0.003139, -0.007870, -0.099581, -0.000544, 0.068708, 0.129336, 0.138700, -0.054159, -0.012658, -0.002077, -0.037279, -0.108240, -0.089376, -0.015357, -0.063640, -0.000887, -0.084522, 0.065387, 0.117173, -0.087918, -0.056780, 0.104215, -0.052820, 0.111166, -0.000542, -0.100471, 0.000773, -0.045911, -0.049480, 0.048969, 0.117647, -0.059007, -0.076683, 0.064156, 0.037273, -0.080715, -0.024927, -0.023906, 0.110718, -0.253989, 0.161360, -0.083020, 0.001735, 0.003812, -0.201376, -0.121712, 0.098490, 0.010247, 0.080751, 0.159173, -0.193281, 0.053382, -0.103306, 0.019990, -0.061168, -0.031122, -0.053702, 0.052868, -0.029059, 0.026429, 0.099091, 0.025101, -0.126060, 0.097783, -0.026068, 0.060360, 0.113840, 0.014605, -0.042928, -0.088464, -0.022936, -0.046662, 0.010134, -0.068004, -0.023099, 0.105244, 0.020857, -0.000905, 0.076273, 0.051427, 0.006587, 0.041531, -0.000713, 0.015373, -0.142599, -0.108144, -0.009727, 0.080369, -0.080515, -0.034814, 0.048485, -0.029366, 0.087037, 0.028825, 0.078836, -0.072252, -0.078817, 0.014385, 0.103396, 0.135027, -0.002754, -0.018855, -0.030767, -0.004578, -0.055270, 0.008568, 0.118828, -0.091427, -0.101720, 0.052836, 0.089763, 0.061442, 0.084062, 0.001445, 0.010888, -0.059438, 0.058256, 0.120197, 0.189814, -0.075621, -0.030856, 0.019472, 0.015442, 0.145716, -0.098208, -0.064333, -0.068379, -0.082417, 0.000361, -0.110454, 0.060481, -0.060379, -0.000998, -0.022121, 0.092630, -0.042571, 0.157658, 0.025655, 0.003168, 0.026243, -0.002140, 0.154350, 0.062610, 0.018439, -0.124368, -0.020566, 0.103420, 0.070352, -0.029640, -0.057802, -0.002641, -0.061966, 0.013655, -0.128982, 0.098669, -0.005758, -0.039269, 0.243132, -0.274373, 0.093759, 0.067667, -0.107297, -0.101674, -0.142637, 0.068980, 0.052546, -0.281449, -0.006914, -0.083646, -0.012383, 0.123424, -0.073247, -0.015856, 0.139087, 0.094479, 0.041437, 0.017031, -0.361670, -0.117863, -0.270889, -0.183696, 0.060619, -0.163970, -0.041859, 0.232191, -0.047995, 0.209696, 0.209356, -0.132908, 0.118986, -0.171361, -0.065774, 0.147437, -0.240259, 0.098209, 0.011120, 0.184320, 0.001421, -0.192866, -0.012634, 0.145086, 0.001083, -0.229101, 0.204652, -0.073783, 0.277346, 0.085721, -0.161856, 0.306878, -0.135346, 0.107046, -0.009401, -0.058142, -0.076018, 0.151319, 0.032003, 0.065166, 0.010631, 0.182910, -0.017365, -0.062894, -0.215384, 0.058585, -0.231142, 0.178047, 0.014057, 0.148685, -0.205540, 0.092392, -0.032814, 0.178941, 0.021462, -0.472791, -0.007417, 0.013894, -0.068545, 0.042343, 0.071980, -0.217764, 0.025614, -0.024416, 0.033380, 0.062777, 0.006125, -0.071369, -0.056319, 0.088794, -0.005479, 0.080539, -0.080001, -0.072677, -0.121495, 0.109746, -0.057403, -0.043599, -0.002229, -0.020615, -0.088682, -0.019371, 0.186564, 0.159796, -0.117972, 0.030136, -0.094168, -0.010147, -0.153940, -0.051848, -0.066845, 0.142226, -0.085450, -0.140461, 0.065171, 0.025000, 0.165136, 0.096524, -0.182091, 0.135332, 0.014575, -0.008857, 0.099416, -0.073510, -0.180307, -0.021700, -0.001469, 0.143910, -0.024939, 0.019645, 0.056893, -0.012386, 0.155232, 0.077965, 0.009722, 0.181055, 0.099534, -0.207480, -0.005259, 0.077014, -0.052740, -0.195539, 0.153944, 0.046237, 0.205733, -0.097207, -0.049777, -0.026075, 0.084326, -0.210217, -0.082896, 0.014108, 0.051042, 0.037532, -0.011003, 0.004611, -0.016336, -0.197835, 0.096457, 0.013686, 0.074040, -0.147349, -0.246919, 0.064719, 0.160927, -0.169451, 0.071398, 0.050739, 0.006457, 0.090117, 0.044443, 0.079842, 0.119220, 0.067049, 0.119859, -0.098436, 0.070208, -0.075140, 0.066741, -0.057747, 0.189640, 0.058077, 0.067210, -0.112297, 0.041048, 0.025357, 0.087443, -0.192629, 0.011285, 0.015983, -0.064859, -0.022087, -0.094014, -0.048811, -0.193196, 0.121064, 0.042853, 0.191021, 0.019830, 0.055246, -0.079831, -0.025916, -0.040451, -0.084458, -0.140496, -0.013833, -0.086697, -0.094274, -0.007678, 0.063873, 0.155881, 0.061049, 0.055723, 0.102236, 0.070953, -0.162182, 0.010445, 0.044665, -0.255476, 0.101822, 0.019809, 0.013299, 0.031869, -0.083740, 0.066085, 0.164919, 0.072336, -0.120407, 0.083496, 0.123872, -0.026192, -0.289985, -0.039651, 0.002401, -0.241077, -0.099621, 0.010213, 0.002757, 0.089207, -0.045019, 0.203609, 0.117196, -0.091670, -0.050207, 0.083290, -0.038046, 0.163770, 0.193313, 0.103191, 0.024460, -0.094020, -0.263806, 0.083590, 0.231283, 0.095004, -0.033940, -0.100348, -0.107237, 0.146341, 0.001645, 0.019899, -0.021262, 0.004462, 0.032406, -0.012519, 0.104663, 0.124397, 0.087216, 0.017913, 0.019307, -0.022132, 0.057194, 0.168479, -0.079090, -0.083936, -0.004897, -0.030294, -0.072876, 0.047337, -0.002409, 0.138862, -0.117664, 0.139638, 0.056147, -0.058477, 0.051194, 0.009730, 0.163399, 0.012462, 0.031902, -0.080799, -0.020294, -0.073829, -0.080862, 0.172254, -0.167937, -0.070703, 0.026608, -0.066473, -0.063263, -0.026038, -0.067438, -0.087704, 0.040110, -0.110236, 0.060034, -0.172111, 0.077692, 0.025321, -0.029254, -0.094692, -0.204807, 0.147938, 0.070224, -0.043229, 0.153322, -0.110013, -0.115930, 0.061958, 0.131912, -0.098901, -0.158831, 0.054692, 0.007540, 0.031699, -0.098519, 0.006147, -0.018600, 0.003860, 0.089514, 0.027770, -0.029989, 0.019103, -0.072696, -0.015649, 0.122645, 0.175635, 0.140703, -0.085699, -0.177011, 0.013193, 0.112226, -0.107560, -0.077644, -0.095127, -0.248899, -0.009177, 0.058223, 0.108524, -0.096780, -0.273666, 0.050570, 0.077528, -0.019013, 0.038073, 0.168727, 0.071165, -0.067633, -0.101503, -0.114740, 0.066544, -0.011870, -0.024298, -0.035070, -0.047305, -0.013254, -0.094364, 0.054048, -0.023116, -0.069495, 0.108091, 0.059074, 0.014064, 0.190336, 0.133176, -0.120062, -0.167365, 0.014039, -0.108932, -0.018857, -0.053191, -0.014381, -0.105528, 0.191956, -0.165723, 0.129162, 0.054843, -0.075602, 0.097757, -0.115506, -0.153870, -0.039217, -0.319688, -0.042715, -0.086602, -0.103530, -0.083304, 0.137311, -0.094400, 0.125846, -0.075320, 0.137376, -0.002205, -0.100118, 0.036831, -0.120405, 0.004549, 0.213983, -0.047416, 0.165902, 0.069350, -0.112336, -0.012097, 0.091344, 0.072958, -0.127981, 0.153598, -0.114768, 0.055996, -0.124591, -0.057181, -0.039703, -0.113419, 0.033375, 0.034416, -0.031258, 0.125499, -0.011302, -0.119106, -0.164607, -0.000068, 0.108903, -0.175579, 0.026040, 0.146031, -0.111929, -0.139423, 0.120095, -0.080645, -0.149770, -0.152035, 0.090678, -0.060785, 0.040396, -0.293355, -0.021169, 0.066414, -0.101230, 0.056290, 0.067701, 0.024530, 0.063742, 0.020183, -0.189701, 0.152905, 0.041226, 0.010561, -0.116789, 0.122774, -0.132853, -0.079555, 0.076061, 0.037408, -0.106492, 0.080413, 0.103764, -0.293353, 0.050957, -0.074683, -0.146084, 0.255147, -0.026094, 0.041621, 0.085765, 0.088645, -0.091187, -0.163896, 0.063659, 0.026033, -0.235485, -0.038926, 0.091570, 0.038822, 0.010977, -0.081083, 0.041067, 0.082079, -0.002080, -0.073474, 0.074785, -0.127172, -0.160320, -0.260023, 0.030843, -0.049339, -0.100577, -0.080561, 0.206110, -0.121906, 0.127955, 0.158885, -0.015486, 0.036244, -0.103577, 0.065785, 0.129225, -0.123137, 0.058449, -0.045594, 0.029975, 0.065508, -0.126797, 0.013969, 0.049978, 0.076056, -0.191096, 0.299256, 0.116147, 0.051786, -0.030514, -0.151309, 0.092623, -0.058147, 0.186640, -0.002216, 0.031420, 0.051114, -0.051718, 0.084934, 0.013620, 0.058788, 0.104099, 0.086302, -0.127193, -0.141163, 0.042868, -0.130908, 0.094060, -0.062290, -0.028226, -0.131828, 0.068562, -0.015397, 0.089784, 0.145005, -0.215226, 0.070715, -0.129201, -0.018665, -0.019058, 0.071402, -0.127882, 0.129148, 0.010266, -0.294404, 0.063294, -0.107876, 0.035236, -0.106213, 0.009481, -0.003882, -0.122000, -0.039122, -0.214058, -0.054460, -0.015663, -0.078909, 0.082436, -0.036696, -0.154375, -0.017036, 0.074026, 0.057064, 0.099230, 0.031709, -0.054868, 0.086214, -0.053813, 0.062333, -0.075978, -0.029679, 0.030658, -0.002557, -0.020546, 0.003562, 0.102086, 0.043950, 0.003476, -0.052619, 0.218959, 0.016681, -0.052561, 0.012865, -0.067736, -0.013169, 0.072960, -0.000232, 0.077104, -0.110366, 0.122079, -0.064323, -0.096157, 0.085450, 0.232009, 0.022808, 0.181406, 0.067138, -0.219622, -0.035600, -0.090664, -0.168709, -0.144819, -0.006675, 0.101238, 0.181815, -0.307118, 0.045358, -0.027716, 0.116368, -0.200422, -0.089887, 0.127696, -0.109728, 0.086398, 0.099628, 0.044349, -0.052099, -0.239863, 0.026712, 0.055509, -0.119086, 0.106271, -0.025641, -0.042057, 0.098249, -0.048859, -0.053096, 0.160060, -0.071727, -0.176900, 0.019526, 0.087145, -0.014670, -0.062938, 0.005336, -0.089950, 0.081685, 0.036205, -0.059260, -0.000812, 0.181102, -0.057283, 0.058719, -0.115520, 0.016268, 0.082025, -0.007235, -0.033503, -0.127862, 0.039778, 0.008688, 0.024887, -0.018734, -0.012221, -0.150372, -0.051051, 0.031617, 0.138878, -0.065275, 0.027572, -0.023237, -0.002047, -0.120108, 0.172270, 0.046492, 0.020425, -0.047632, -0.099335, 0.004905, -0.014562, 0.061477, 0.057559, -0.064399, 0.154595, -0.078177, -0.103711, -0.235829, 0.041701, -0.003080, 0.050127, 0.090661, -0.152523, -0.078460, -0.082881, 0.162492, 0.046451, 0.082407, -0.006747, 0.009676, -0.002081, 0.111443, -0.174332, 0.040602, -0.154489, 0.013462, 0.103691, -0.057373, 0.050782, -0.019383, 0.007624, -0.057044, -0.002804, 0.009751, -0.121338, 0.091120, -0.032158, 0.082307, 0.053835, 0.025860, 0.086036, 0.008411, -0.079366, 0.000421, 0.030321, -0.036592, -0.089247, -0.084200, -0.131063, 0.031875, 0.127356, -0.162046, 0.119689, -0.014469, 0.018301, -0.103923, 0.148655, 0.065411, -0.035802, 0.098265, -0.019961, -0.072971, 0.007296, -0.020333, -0.077566, 0.079763, 0.017138, 0.074024, 0.052928, -0.070782, 0.071585, 0.000988, 0.115675, 0.307593, -0.302351, 0.083926, 0.021811, 0.040772, -0.310951, -0.139468, -0.060715, -0.042791, -0.171476, 0.027585, 0.000417, 0.140683, 0.051879, -0.166314, 0.026040, 0.047810, 0.089541, 0.020477, 0.174969, -0.084730, -0.170471, -0.234299, -0.243229, -0.083803, -0.038929, -0.055511, 0.195387, -0.269808, 0.321871, 0.061035, -0.238211, 0.146747, -0.204957, -0.026307, 0.244254, -0.423496, -0.006131, 0.152120, 0.126028, 0.007783, -0.098638, 0.028978, 0.401008, -0.057525, -0.242355, 0.107698, -0.028100, 0.059961, -0.073213, -0.081490, 0.076440, -0.146452, 0.291837, -0.063139, -0.221665, -0.085027, -0.055054, -0.011845, -0.034331, 0.090750, -0.024974, 0.005155, 0.042719, -0.206115, 0.025855, -0.175557, 0.116508, 0.153066, 0.109419, -0.108561, -0.120351, -0.022184, 0.082537, -0.053447, -0.278975, 0.018132, -0.048740, -0.201987, 0.016661, 0.043332, -0.083795, 0.071962, 0.011804, -0.227440, -0.099368, -0.105984, -0.070667, -0.084670, 0.102974, 0.074617, -0.246145, 0.063965, -0.211611, -0.104514, 0.012476, -0.030377, 0.029919, 0.076608, 0.219942, 0.101424, -0.148728, 0.006676, 0.169317, 0.054118, 0.057154, -0.038176, 0.160228, 0.075822, -0.104261, -0.052186, -0.022107, 0.055629, -0.093278, 0.131723, 0.067606, 0.132211, 0.192106, 0.105558, 0.043364, -0.032190, -0.076267, 0.208453, -0.106614, 0.029631, -0.029340, -0.034614, 0.073339, 0.062257, 0.068115, 0.091457, -0.294661, 0.009752, 0.041637, -0.082721, -0.010926, -0.015608, -0.207321, 0.002861, 0.191528, -0.133529, -0.041754, -0.152328, 0.084076, 0.133537, -0.154439, 0.024709, 0.060218, 0.053669, 0.034982, -0.105128, 0.023472, -0.070434, -0.036096, 0.039862, -0.088282, 0.046892, -0.153602, 0.021778, 0.061630, 0.023682, -0.008945, -0.131771, -0.079258, 0.136244, -0.008184, -0.073625, -0.073149, 0.031622, 0.134950, -0.031930, 0.273966, 0.117055, 0.004820, -0.028362, -0.029768, -0.070101, -0.074722, 0.200932, -0.042547, 0.031318, -0.095773, 0.065214, -0.069316, -0.035018, -0.023533, 0.121044, -0.271727, -0.093555, 0.046855, -0.140153, 0.163561, 0.011076, 0.220782, -0.003267, 0.024883, -0.090619, 0.265075, -0.010686, -0.091508, -0.028126, -0.085820, -0.229614, 0.038987, -0.035588, -0.047551, -0.039192, -0.052594, -0.052899, 0.145664, 0.101892, 0.204867, -0.044527, 0.155206, 0.004237, -0.199469, -0.118518, -0.232181, -0.002782, 0.155758, -0.215207, 0.049444, -0.004772, -0.149044, 0.139718, 0.013516, -0.006259, 0.074468, -0.076605, 0.074200, 0.013193, -0.241992, -0.100208, 0.020548, 0.010587, -0.137127, -0.018123, 0.028329, 0.073309, -0.108381, -0.097048, 0.051148, 0.143252, 0.075276, -0.040293, -0.090567, 0.137915, 0.108687, -0.057877, -0.217513, -0.031998, -0.310614, -0.031158, 0.096855, 0.113683, -0.215968, -0.175361, -0.149651, 0.265149, -0.088293, -0.076723, 0.088350, 0.101089, -0.034893, -0.015554, -0.026962, 0.258003, 0.054245, -0.020144, -0.022557, -0.019785, 0.058647, 0.173203, -0.078678, -0.046287, 0.030115, 0.267396, -0.155145, -0.076088, -0.023956, 0.020434, -0.125100, 0.101442, -0.151163, -0.115273, -0.096127, 0.025809, -0.059722, -0.154028, 0.222797, -0.049606, 0.005131, 0.105513, -0.086366, 0.100435, 0.090120, 0.042096, -0.106747, 0.062553, -0.064974, 0.070948, 0.082258, -0.095362, -0.065997, -0.082483, -0.071012, 0.063950, -0.155738, -0.078520, 0.014423, -0.109620, -0.050751, 0.101701, -0.064317, 0.174382, 0.165830, 0.080512, -0.004323, 0.149992, 0.077568, 0.073777, -0.008723, 0.003466, -0.168396, -0.032049, -0.000962, 0.077137, -0.000846, 0.159235, 0.150637, -0.052259, -0.115949, -0.275600, 0.223755, 0.038054, 0.149965, 0.160743, 0.044381, -0.018296, -0.009598, 0.039465, -0.066699, 0.174197, -0.210869, -0.013117, -0.130235, -0.064573, 0.008711, 0.025888, -0.057540, -0.032238, 0.038323, -0.095694, 0.080582, -0.008905, 0.152834, 0.318745, -0.197405, 0.014977, -0.345465, 0.111138, 0.201053, -0.150959, 0.052008, -0.077350, 0.124494, -0.023453, -0.029443, -0.245806, -0.057696, -0.004539, -0.004189, -0.069147, 0.027575, 0.158401, -0.073422, -0.153620, 0.073453, -0.111944, 0.120384, 0.014592, 0.110238, -0.053691, 0.241421, -0.052271, 0.197745, 0.007213, -0.050256, 0.224922, -0.188286, -0.113401, 0.000865, -0.052286, 0.110232, -0.053042, -0.231368, 0.036272, 0.038888, -0.138245, 0.091087, -0.162951, 0.132443, 0.007854, 0.004747, -0.017488, -0.135959, -0.075759, 0.128091, 0.082071, 0.039691, -0.046780, -0.195890, 0.059874, 0.050074, 0.112960, 0.024400, 0.060290, -0.167032, -0.040710, -0.176948, 0.020963, -0.006877, -0.018075, 0.043353, -0.013921, -0.090756, 0.048536, -0.162716, -0.203708, -0.074922, 0.111938, 0.160863, -0.200570, -0.158069, 0.032299, -0.086922, -0.035067, 0.051641, -0.032693, -0.060492, -0.064232, -0.138306, 0.025909, 0.040959, -0.182378, 0.010464, 0.176270, -0.057139, 0.065665, 0.050996, 0.175896, 0.045764, -0.065499, -0.095626, 0.027484, -0.011400, 0.059105, -0.114028, 0.041036, -0.018248, 0.054477, -0.028063, 0.036031, 0.050362, 0.067829, 0.062945, 0.006310, -0.004285, -0.148468, -0.018289, 0.176958, -0.060982, 0.084739, -0.077217, -0.046361, -0.335262, -0.171501, 0.100124, -0.022632, -0.160789, -0.041692, 0.066537, 0.252241, 0.175699, -0.149511, -0.084616, 0.074571, 0.144510, 0.046093, 0.047814, -0.064884, 0.022277, 0.026178, -0.104860, 0.003219, -0.107072, -0.057279, 0.254980, -0.320873, 0.171208, -0.026427, 0.075502, 0.109725, -0.095764, -0.065697, 0.200728, -0.297793, -0.012162, 0.137510, 0.009510, -0.058715, -0.018516, 0.130639, 0.221452, -0.067674, -0.239691, 0.150214, 0.048215, 0.168809, -0.008868, -0.119938, -0.031592, -0.127803, 0.187525, -0.075653, -0.170482, -0.177781, 0.014649, -0.068575, 0.041393, 0.117644, -0.111051, -0.040307, -0.059350, -0.033749, -0.063922, -0.015417, 0.040177, 0.116941, 0.177949, -0.103684, -0.134315, -0.013515, 0.109224, 0.171945, -0.129615, -0.089773, -0.361917, -0.121569, -0.074379, 0.081149, -0.146246, 0.199757, 0.067177, -0.298314, -0.090995, -0.015556, 0.034382, 0.026301, 0.039203, -0.078185, -0.088686, -0.064278, -0.328467, -0.030130, -0.002851, 0.096809, -0.005545, -0.084617, 0.010240, -0.001687, 0.007260, 0.196322, -0.022185, -0.015518, 0.025328, 0.044440, 0.024199, -0.130610, -0.014142, -0.023122, -0.022084, -0.035182, -0.165881, 0.036706, 0.130145, 0.181958, 0.138467, -0.091790, 0.191131, 0.071791, 0.188712, 0.070637, -0.058924, -0.040623, 0.136238, -0.072423, -0.117244, 0.027143, 0.076832, -0.133414, -0.001355, 0.037255, 0.219542, 0.045597, -0.046478, 0.059950, -0.079968, 0.048358, 0.074118, 0.017667, -0.223419, 0.005484, 0.021256, 0.022297, -0.195126, 0.115667, 0.060995, 0.057871, -0.145156, -0.079731, 0.051425, -0.053647, 0.062306, -0.020848, -0.205600, -0.014465, -0.246162, -0.022407, 0.032727, 0.037372, -0.091605, -0.033766, -0.075175, 0.015945, -0.200738, 0.039546, 0.114665, -0.068801, 0.108971, -0.002316, 0.136302, 0.134831, -0.050846, -0.080347, -0.147189, 0.025953, 0.018121, 0.053489, 0.043045, 0.222337, 0.056240, 0.050517, -0.107561, -0.124471, -0.120602, 0.079086, -0.226110, -0.107648, 0.070409, -0.112707, 0.082270, -0.090733, 0.199316, -0.108282, -0.081035, -0.180277, 0.140520, -0.044798, -0.031923, -0.069908, -0.123163, -0.210678, 0.052271, 0.062885, -0.023396, 0.012267, -0.117813, -0.006979, 0.024258, -0.115057, 0.138458, -0.052681, 0.066940, -0.055653, -0.072820, -0.033558, 0.011157, 0.048733, 0.112690, -0.088355, 0.041992, 0.017223, -0.136234, 0.029202, -0.011368, -0.004401, 0.034486, 0.063811, 0.132725, -0.114402, -0.155705, -0.057522, -0.084931, -0.007793, -0.100986, 0.018906, -0.064172, 0.191267, -0.251154, 0.024384, 0.237537, 0.104628, 0.004132, -0.100467, -0.168063, 0.136517, 0.064987, -0.034030, -0.279544, -0.079304, -0.315755, -0.003499, -0.008662, -0.066557, -0.039418, -0.026688, -0.158640, 0.148173, -0.198379, -0.034531, 0.197624, 0.025487, -0.071113, -0.043610, -0.103078, 0.172692, 0.003126, 0.108899, 0.081646, -0.071105, -0.020918, -0.022070, -0.089892, -0.017978, -0.067977, 0.133250, -0.177076, -0.187788, 0.061462, 0.008321, 0.140170, 0.104562, -0.161430, 0.126055, 0.033946, -0.005088, -0.072635, -0.106259, 0.143838, -0.169668, -0.039121, -0.112850, -0.077031, -0.096442, 0.013980, -0.376785, -0.122118, -0.182844, 0.033870, 0.022077, 0.054930, -0.087852, -0.063413, -0.131574, -0.129065, 0.016131, 0.004896, 0.017189, -0.084569, -0.035548, 0.242641, -0.106515, -0.221934, -0.005923, -0.103196, 0.027304, 0.048178, -0.387889, -0.012652, 0.077020, 0.178182, 0.101090, -0.019048, 0.107259, 0.440436, 0.053243, -0.136008, -0.016752, 0.018068, 0.179282, 0.109825, 0.014535, 0.033078, -0.085623, 0.364548, -0.078391, -0.324053, -0.112828, -0.108405, -0.047022, 0.043299, -0.156923, -0.312782, -0.041480, 0.239564, -0.001602, -0.176447, -0.043994, -0.046092, 0.120927, 0.025811, 0.036742, -0.506451, -0.096920, 0.198992, -0.003419, 0.006345, -0.047797, -0.080889, -0.071631, -0.013735, 0.070509, -0.054738, -0.146484, 0.088221, -0.445010, -0.077105, 0.045396, 0.035519, -0.009917, 0.129901, 0.021163, -0.147748, -0.053238, -0.126063, -0.029948, 0.129441, -0.144076, 0.200736, 0.049261, 0.171124, 0.101317, -0.204608, -0.097164, 0.079756, -0.038290, -0.014206, -0.198401, 0.097611, 0.171102, 0.032760, 0.293943, -0.141367, 0.057486, -0.171317, 0.160889, 0.033322, 0.057335, 0.140468, 0.043536, 0.043708, 0.014277, 0.097707, 0.122316, 0.005870, 0.134444, 0.033436, -0.013588, -0.251697, 0.014087, -0.102671, 0.157791, -0.204887, -0.144541, 0.140414, -0.043129, 0.034636, -0.102201, -0.172410, -0.073375, 0.003535, 0.125193, 0.263325, -0.145607, 0.057193, 0.205879, 0.072153, -0.189090, 0.107091, -0.020259, 0.150222, 0.131075, -0.050656, -0.098302, -0.007600, -0.033121, 0.069131, 0.064177, 0.033213, -0.024557, -0.086629, -0.048564, 0.231690, 0.092261, -0.026335, 0.193981, 0.133863, -0.011816, 0.099848, -0.057631, 0.054182, -0.095566, 0.063664, 0.124657, 0.007498, -0.090677, 0.084438, 0.003964, 0.174904, 0.197012, -0.065041, 0.057685, 0.060741, 0.038670, 0.057321, 0.041482, -0.156165, -0.026917, -0.603900, -0.180265, -0.076638, -0.211779, -0.026604, -0.030570, 0.277700, -0.043825, -0.029879, 0.005778, 0.097224, 0.124780, 0.037915, -0.016235, -0.074847, 0.061951, 0.001568, 0.033713, -0.086037, -0.082354, -0.026180, 0.054697, -0.027226, -0.039556, 0.123430, -0.102794, 0.079611, -0.027929, -0.180293, 0.136097, -0.176208, 0.082630, 0.045763, -0.103315, 0.039605, 0.035388, -0.049903, 0.114684, 0.018650, 0.046936, 0.029740, 0.049335, 0.133788, -0.160486, -0.312785, -0.083977, 0.102474, -0.104598, 0.006723, -0.062233, 0.194522, -0.017882, -0.050736, 0.232754, 0.176306, 0.029350, 0.098623, -0.030864, -0.069464, 0.042879, -0.034106, -0.123962, -0.163925, -0.097673, -0.193034, -0.030312, 0.029889, 0.192766, -0.069438, -0.146030, -0.065475, 0.090104, 0.136188, -0.120484, 0.067080, 0.120037, 0.088594, -0.067012, 0.175024, 0.083209, -0.017767, -0.054058, 0.024732, -0.134108, 0.051929, 0.006694, 0.087705, 0.010777, 0.073902, 0.220950, -0.076316, -0.060523, -0.101711, -0.053143, 0.066148, 0.225027, -0.126257, 0.048900, -0.176742, 0.016974, -0.151136, 0.049347, 0.234079, 0.148213, -0.042662, -0.114587, -0.042504, 0.027314, 0.153552, -0.092478, -0.057123, -0.006086, -0.021253, 0.042309, 0.018448, -0.115243, -0.080669, 0.061889, -0.071552, 0.107850, -0.059218, 0.051404, 0.036069, -0.104710, -0.031372, -0.054130, -0.089668, 0.010628, 0.107973, -0.013208, -0.048086, 0.037299, 0.184278, 0.236387, -0.013161, -0.126997, 0.037483, -0.007688, 0.281182, -0.069413, 0.159853, 0.207223, 0.168001, -0.161500, 0.038582, -0.153887, 0.186477, 0.209056, 0.159466, 0.114276, 0.018050, -0.101793, 0.058350, 0.130997, 0.017313, 0.333802, -0.319945, -0.041717, 0.263374, 0.224716, 0.067330, 0.053890, -0.030519, 0.244515, -0.041361, -0.118467, 0.246674, -0.110765, 0.098335, 0.136719, -0.137220, -0.025707, -0.498859, 0.083097, 0.098605, -0.041083, 0.120658, 0.057957, 0.020746, -0.173492, -0.101831, -0.290424, 0.021106, -0.139280, -0.014696, 0.100410, -0.061012, 0.026490, 0.036802, 0.026005, -0.026107, -0.188058, -0.171573, 0.028917, 0.049466, 0.018057, 0.086664, 0.037105, -0.099897, -0.005828, -0.080636, 0.205220, -0.054944, -0.025514, -0.084517, -0.144994, 0.050935, -0.105371, -0.105956, 0.105230, -0.007516, 0.038931, 0.210916, -0.106402, -0.002276, 0.008560, -0.032824, 0.115728, -0.100064, 0.076006, -0.030755, 0.114671, 0.192056, 0.082829, -0.030202, -0.004613, -0.004493, 0.192890, -0.009231, 0.004426, -0.152193, -0.028237, -0.056599, -0.057601, 0.318250, 0.026598, 0.153793, -0.010672, -0.059499, -0.009765, -0.291978, -0.068795, -0.177450, 0.181217, 0.128458, -0.148778, -0.038068, 0.103147, -0.133574, 0.034853, -0.000940, 0.032706, 0.002337, -0.036395, 0.075191, -0.045469, -0.122198, -0.376138, -0.006655, -0.014908, 0.192148, 0.005943, 0.082238, 0.206268, -0.133316, 0.028362, 0.016147, -0.052043, 0.082590, -0.025255, -0.071964, 0.173949, -0.057259, -0.062046, 0.058272, 0.017259, 0.008420, -0.056647, -0.002463, -0.006827, -0.033281, -0.070159, -0.118428, 0.149652, -0.206562, 0.275348, 0.036101, 0.015094, -0.171210, -0.149160, 0.271191, 0.180537, -0.063158, -0.141594, 0.025336, 0.163830, 0.003843, -0.047334, -0.080351, -0.210698, 0.254203, -0.113053, 0.176192, -0.034284, 0.059382, 0.136388, -0.247150, -0.118638, 0.134880, -0.037213, 0.126693, -0.119658, 0.069427, -0.140645, -0.091374, 0.051385, 0.169791, -0.087964, 0.091035, -0.421375, 0.043667, 0.215572, 0.174271, 0.057333, 0.008867, -0.043435, 0.193655, -0.000987, 0.009827, 0.026302, -0.115508, 0.177509, 0.097123, -0.029879, -0.152374, 0.102667, 0.332998, -0.049997, -0.302533, -0.133760, 0.090620, 0.046869, -0.092789, 0.187199, -0.314699, -0.127239, 0.033415, 0.130042, -0.180090, 0.009571, 0.005748, 0.067237, 0.250413, -0.128681, -0.116236, -0.094349, -0.073121, 0.171958, -0.066838, 0.022767, -0.095020, 0.018922, -0.091851, 0.157488, -0.029568, 0.056163, 0.258163, -0.343719, 0.039785, 0.096229, -0.107649, -0.032572, 0.032783, -0.033659, -0.047709, -0.059960, -0.213794, 0.032431, -0.078289, 0.092983, 0.044078, -0.011198, 0.015375, 0.095064, -0.082935, 0.004416, 0.018955, -0.164127, -0.078320, 0.063483, 0.168344, -0.001424, -0.114945, -0.057434, 0.073657, -0.097889, 0.021330, 0.069679, 0.079697, -0.058959, 0.049177, -0.037170, 0.168862, -0.018920, 0.017517, 0.060966, 0.009170, 0.065782, 0.170692, -0.033674, -0.033823, -0.041623, 0.127344, -0.125572, -0.142628, -0.067864, 0.253063, 0.147335, 0.036488, 0.048290, -0.238896, -0.060885, 0.020535, 0.060784, -0.028936, 0.095393, -0.002738, 0.109138, -0.113005, -0.090347, 0.104843, -0.098354, -0.051822, -0.064236, 0.140707, -0.032638, -0.176081, 0.028313, 0.051544, 0.000174, -0.225438, -0.040985, 0.052027, -0.154959, 0.162306, 0.074196, 0.088903, 0.000629, 0.004012, -0.014640, -0.007245, 0.049949, 0.108826, -0.060041, 0.165389, 0.007748, 0.028748, 0.024098, 0.058737, 0.138599, -0.090898, -0.000036, -0.040379, 0.096882, -0.060574, -0.039999, 0.078044, -0.011414, -0.054220, 0.008710, -0.363055, -0.008207, 0.015020, -0.178236, 0.134886, -0.035565, 0.180918, 0.012733, -0.028949, -0.017985, 0.140604, 0.108652, 0.006390, -0.017197, 0.060576, 0.097677, -0.072836, 0.143704, -0.128131, 0.063418, 0.135942, 0.093280, -0.010629, -0.090825, 0.047396, -0.064655, 0.048910, 0.077880, -0.142379, -0.030117, 0.026761, 0.146416, -0.011916, -0.069086, 0.105388, -0.111509, 0.000468, 0.096559, -0.005051, -0.102395, 0.066164, -0.018643, 0.044779, -0.048001, -0.232756, 0.041453, 0.069779, -0.083461, 0.020874, 0.070841, 0.043904, -0.022829, -0.169597, 0.099369, 0.386115, -0.027265, 0.070176, -0.001988, -0.177819, 0.029706, 0.013606, 0.009992, -0.227145, -0.066271, -0.338563, -0.148105, -0.085882, -0.046062, -0.045469, -0.098848, 0.060090, 0.063500, -0.009154, -0.005575, 0.086814, 0.089990, 0.106907, 0.078101, 0.097631, 0.234114, 0.066680, -0.061072, 0.083897, -0.199587, 0.137035, -0.088916, -0.034615, -0.107375, -0.002873, 0.208680, -0.198059, 0.127102, -0.010754, -0.000335, -0.015137, 0.050261, 0.007647, 0.043220, 0.172543, -0.088336, -0.022176, 0.000649, 0.054906, -0.063562, -0.016359, -0.098522, -0.065701, 0.074151, -0.161204, -0.029445, -0.072158, -0.218964, 0.111240, -0.098707, 0.091759, 0.157764, -0.077634, 0.012757, -0.121763, -0.055047, -0.142462, -0.097477, -0.116333, 0.232225, 0.225291, -0.078984, -0.156632, -0.091538, 0.201854, -0.066045, 0.064573, -0.122971, 0.090731, -0.159975, -0.181770, 0.095589, 0.148071, 0.061760, 0.160774, 0.022591, -0.078823, -0.050169, -0.008394, 0.038416, 0.097377, -0.009235, 0.049407, -0.021557, 0.321491, -0.123766, -0.173702, -0.116016, -0.042538, -0.066181, 0.025694, -0.170164, -0.183440, 0.002581, -0.007742, 0.090028, -0.255401, 0.121089, -0.022951, 0.186710, 0.050695, 0.003329, -0.200672, -0.120761, -0.091996, 0.131655, 0.180510, -0.066166, 0.049352, 0.024131, 0.019492, 0.016288, 0.162429, -0.380300, 0.096769, -0.330719, 0.075755, -0.098471, 0.045122, 0.165280, 0.176610, -0.329698, 0.129930, 0.109898, 0.069910, 0.009006, 0.054787, 0.012962, -0.082406, -0.041283, 0.032057, 0.241309, 0.046652, -0.082413, 0.092357, -0.047957, 0.058198, -0.115241, 0.139242, -0.030404, 0.064192, 0.132410, -0.203141, 0.028568, -0.128857, -0.065392, -0.045447, 0.048150, 0.019712, 0.122819, -0.000513, -0.043044, 0.145613, -0.222360, 0.166913, 0.155760, -0.021125, -0.199989, -0.341790, 0.058062, -0.006897, 0.118988, 0.072561, -0.164734, -0.038592, -0.078471, -0.134819, 0.058004, 0.046087, 0.074523, -0.158513, 0.138890, -0.136473, -0.060761, 0.013086, -0.091134, 0.171623, -0.142568, 0.205266, 0.078573, 0.177479, 0.137211, 0.077868, -0.073748, 0.234672, -0.086303, 0.101968, -0.126891, 0.017325, -0.212867, -0.028117, -0.200565, -0.036684, 0.043584, -0.319273, 0.126359, -0.001339, 0.366427, 0.165349, -0.145745, 0.128199, -0.002066, 0.185201, 0.232908, 0.143088, -0.013878, 0.039951, -0.002384, 0.276698, 0.256181, -0.111266, -0.021842, 0.061499, 0.011734, 0.023436, 0.096683, 0.033857, -0.099531, -0.014099, 0.012209, -0.104799, 0.011031, 0.016199, -0.068602, -0.105200, 0.057418, -0.100475, 0.098274, -0.033387, -0.088788, 0.044284, 0.018938, 0.058087, 0.123647, 0.058823, 0.115438, 0.077726, -0.008387, -0.109610, -0.100083, -0.022956, 0.122734, 0.109039, 0.002127, 0.030921, -0.057186, 0.151654, 0.051875, 0.099405, -0.001353, -0.104559, -0.035661, -0.146084, -0.091410, 0.037225, 0.003498, -0.078291, 0.005194, 0.172946, 0.024190, -0.049311, -0.150012, -0.065775, 0.007026, -0.000804, 0.069530, 0.007276, -0.070535, -0.018587, 0.100130, -0.023746, -0.046478, -0.085019, 0.024064, -0.002202, -0.018462, 0.157629, -0.052794, 0.046629, 0.166205, 0.123076, 0.036799, 0.011354, -0.014745, 0.084195, -0.071299, 0.082711, -0.041608, -0.055249, -0.101104, 0.238350, 0.168066, -0.009648, -0.025811, -0.014550, 0.023881, 0.072555, 0.042913, 0.026021, 0.016219, -0.152374, 0.101310, 0.196758, 0.082128, -0.054935, 0.131534, -0.022011, -0.085788, -0.128121, 0.025946, -0.040022, -0.024982, 0.173740, 0.071565, -0.036027, 0.050239, -0.079728, 0.072649, 0.081797, 0.105572, 0.212769, -0.057142, -0.024351, -0.118333, -0.108737, -0.155301, 0.117323, 0.023244, -0.155244, -0.086784, -0.104098, -0.094323, -0.053109, 0.204116, 0.017763, -0.008152, -0.055231, 0.156296, 0.217070, 0.008441, -0.018394, -0.184776, 0.203882, 0.001219, -0.097770, -0.015423, 0.070669, -0.034522, -0.054745, -0.058861, 0.288807, -0.123532, -0.090769, -0.082701, 0.076265, 0.012663, 0.246014, -0.005351, -0.061660, 0.093569, 0.005323, -0.007528, -0.020344, -0.310862, -0.007053, 0.116148, 0.195997, 0.002125, 0.021606, -0.134539, 0.058131, 0.075565, -0.213065, 0.225185, -0.323006, -0.002870, 0.165306, 0.169690, -0.116724, -0.026294, -0.302044, 0.005592, -0.157455, -0.162161, -0.036810, -0.002991, 0.027149, 0.044698, -0.028596, -0.000073, -0.200739, 0.027504, 0.184812, 0.192740, 0.228863, -0.091800, 0.141121, -0.290453, 0.052940, -0.353597, -0.004489, -0.104377, -0.026368, 0.168928, -0.071272, -0.007633, 0.175118, 0.009415, -0.202217, 0.128687, -0.282097, -0.080009, -0.001272, -0.090428, -0.010846, 0.056696, -0.217200, -0.122272, 0.015247, 0.080050, 0.086852, 0.119396, -0.089488, 0.029896, 0.109966, -0.021945, -0.102790, -0.098098, -0.048604, 0.112774, 0.033417, 0.052227, 0.181896, 0.053894, -0.027887, 0.066418, -0.036318, -0.151854, 0.095148, 0.048143, -0.019217, -0.043549, 0.118255, -0.161679, 0.070418, 0.289495, 0.173015, 0.042513, 0.018711, 0.171755, 0.025388, -0.039510, 0.156207, -0.033783, 0.012086, -0.020404, -0.133521, 0.073420, -0.165503, 0.059650, 0.121778, 0.041016, 0.019309, 0.077478, 0.178673, -0.004230, -0.037855, 0.229722, -0.026250, 0.074643, 0.019568, 0.161646, 0.211099, -0.133364, -0.130351, 0.071732, -0.007964, -0.154726, 0.192873, -0.044992, -0.004803, -0.017206, -0.144734, 0.009135, 0.046395, -0.110993, 0.132055, 0.107171, -0.149492, 0.108327, 0.062264, -0.028764, 0.010918, 0.085934, 0.070197, -0.025039, 0.074793, 0.112217, 0.073149, -0.081698, -0.042091, -0.043243, -0.206536, 0.175044, 0.098578, -0.042512, -0.033213, -0.095298, 0.041097, 0.196909, -0.056752, -0.207326, -0.062492, 0.179964, -0.063552, 0.057341, -0.111095, -0.115750, 0.227792, 0.020247, 0.065656, 0.113145, 0.016217, 0.008094, -0.212931, 0.086659, 0.038894, 0.005560, 0.082562, 0.057746, 0.103186, -0.124385, 0.036833, -0.001801, 0.132789, -0.016673, 0.226051, -0.352354, 0.044683, -0.194113, -0.049089, -0.057884, 0.127672, 0.084792, -0.001674, -0.052095, -0.047521, -0.114606, -0.285122, 0.230587, 0.008690, -0.033308, -0.202053, 0.069203, 0.290166, -0.168027, -0.155748, -0.376056, 0.035610, 0.032737, -0.152054, 0.032606, -0.102025, -0.000948, 0.051744, 0.093808, -0.253666, 0.114062, -0.152846, 0.054998, 0.273393, -0.204327, -0.141111, -0.021919, -0.058038, 0.154702, 0.094095, -0.016329, 0.072039, -0.043772, -0.167453, 0.054547, 0.056924, -0.040679, 0.054615, -0.249307, 0.074843, -0.052114, -0.057108, 0.054266, 0.024424, 0.052234, 0.049987, 0.051132, 0.111835, 0.158984, -0.024187, 0.204689, 0.032592, -0.057306, -0.229607, 0.070830, -0.134939, 0.104941, -0.010370, -0.026084, 0.088933, 0.053850, -0.012243, -0.006019, -0.046100, -0.039060, 0.137655, 0.050510, -0.148459, -0.025317, -0.088672, -0.006367, 0.170622, 0.046396, -0.042243, -0.008554, 0.211598, 0.080586, 0.060997, 0.087426, -0.083742, -0.110497, -0.176274, -0.100532, 0.020457, -0.082820, -0.102938, -0.054738, 0.205502, 0.051844, -0.052458, 0.174458, 0.092805, -0.031976, -0.081606, 0.124559, 0.066949, -0.033382, -0.058034, -0.032718, -0.118835, -0.180076, -0.116758, -0.025826, -0.000485, 0.127831, -0.019507, 0.053528, 0.058886, 0.058771, 0.334221, 0.035374, 0.035754, -0.034986, 0.037294, 0.010072, 0.136245, 0.092529, -0.090807, -0.103007, -0.071768, 0.013392, 0.230138, -0.112953, -0.001054, -0.055165, 0.045637, 0.045009, 0.138637, 0.061055, -0.079750, 0.007381, 0.155603, 0.098061, 0.025966, 0.088807, 0.014671, 0.072259, 0.198503, -0.023156, -0.037287, 0.055734, -0.008238, 0.009181, -0.049409, -0.129335, 0.084504, -0.034781, 0.067101, -0.030255, -0.122671, -0.090778, -0.083691, -0.069340, -0.103967, -0.057667, -0.060314, 0.237826, 0.170085, 0.026873, 0.082966, -0.063409, 0.088620, -0.027391, -0.010960, -0.039914, 0.013869, -0.007155, 0.034100, -0.069158, -0.044190, 0.112328, 0.164495, 0.114268, -0.210561, -0.070379, -0.161479, -0.092684, 0.057741, -0.032142, -0.105211, -0.155906, 0.185368, -0.028566, -0.049243, -0.031782, -0.150574, -0.044909, -0.123034, 0.078411, 0.263047, 0.022646, -0.046744, 0.029230, -0.081046, 0.013327, 0.117953, -0.114996, 0.062620, 0.048706, 0.061526, -0.022376, -0.077704, -0.040552, 0.062411, -0.112205, 0.225169, -0.089175, -0.003018, -0.016521, 0.068043, 0.087796, -0.061661, -0.092512, -0.015742, 0.127764, 0.103758, -0.034252, -0.104911, 0.057516, 0.045958, 0.075888, -0.003715, -0.169076, -0.049821, -0.042723, 0.190836, 0.072560, 0.065050, -0.100248, -0.091268, 0.027964, 0.023550, 0.030288, -0.063999, 0.146364, -0.125122, -0.003433, -0.081879, -0.085796, 0.128427, 0.002438, -0.048089, -0.038235, 0.068386, 0.128788, 0.094060, -0.119121, -0.096023, 0.223851, -0.266173, 0.076096, -0.145177, -0.109957, 0.222586, 0.074209, 0.242786, 0.196287, 0.056852, 0.039023, -0.114273, -0.012919, -0.091022, 0.093522, -0.226486, 0.270644, -0.011806, -0.095131, -0.173978, -0.136686, 0.058231, 0.008707, -0.084793, -0.074544, 0.092554, -0.168863, -0.288585, 0.028992, 0.202006, -0.136316, 0.024597, 0.056524, -0.109404, -0.119899, -0.094700, 0.018873, 0.186830, 0.184316, -0.051870, -0.035856, 0.049790, -0.120575, -0.114919, -0.000390, -0.115289, 0.033028, 0.027179, -0.019659, 0.080405, 0.028506, -0.046959, 0.118723, -0.325447, 0.255956, 0.046229, 0.146796, 0.267577, -0.105778, 0.031820, -0.230547, -0.140059, 0.136892, 0.224578, -0.005825, 0.114192, 0.066465, -0.073741, -0.038400, 0.068447, -0.310279, 0.001378, -0.207996, 0.026442, -0.044372, -0.072422, 0.324149, 0.172811, -0.383069, 0.012471, 0.077662, -0.137638, 0.076682, 0.120854, 0.050876, -0.077254, -0.082042, -0.047469, 0.169807, -0.118327, 0.042220, 0.223682, -0.075146, 0.020406, -0.176608, 0.279556, -0.349548, 0.276949, 0.070537, -0.252196, -0.098070, -0.120112, -0.053621, -0.114098, 0.014258, 0.322779, 0.126644, 0.030045, -0.088262, 0.176056, -0.333202, 0.154232, 0.220015, -0.266973, -0.244813, -0.056047, 0.056208, 0.089577, 0.154230, -0.023380, -0.327417, -0.009586, 0.018830, -0.216630, -0.033874, -0.136222, -0.107969, 0.022132, 0.215946, -0.140360, -0.092194, 0.098601, -0.066066, -0.006980, -0.250347, -0.012661, 0.200685, 0.037695, -0.101979, 0.257088, 0.121623, 0.168857, 0.074928, -0.002370, -0.127084, 0.058362, -0.203329, -0.063072, -0.059231, -0.238265, 0.130807, -0.235634, 0.070510, -0.152907, 0.241496, 0.128463, -0.192559, 0.284702, -0.109691, 0.269937, 0.185650, 0.225648, -0.202128, -0.017845, 0.013571, -0.043074, 0.281225, -0.001491, 0.055205, 0.017274, -0.233197, -0.116091, -0.101536, -0.026106, -0.086834, 0.164760, -0.002995, -0.119558, 0.055803, -0.178304, -0.077018, -0.183217, -0.006100, 0.081670, 0.141424, -0.064372, -0.263017, 0.021760, 0.084522, 0.199387, -0.041968, -0.082945, 0.062108, -0.025095, -0.048408, -0.075774, 0.011299, -0.050531, 0.067126, 0.110649, 0.025408, 0.000334, 0.009290, 0.213738, -0.086327, 0.051264, -0.011183, 0.019498, -0.105820, 0.034797, -0.100691, 0.047335, -0.037091, -0.086769, -0.094278, 0.167302, 0.092003, -0.119306, 0.013078, 0.119320, 0.033020, 0.128344, 0.207582, -0.048668, 0.140273, -0.094485, -0.204538, -0.128846, -0.035656, 0.010520, 0.093095, 0.039249, -0.020214, 0.012275, 0.019253, -0.149838, 0.207725, 0.006616, -0.097001, -0.004444, 0.051660, 0.044211, -0.235159, 0.129054, 0.045014, 0.031946, -0.114442, -0.050148, 0.022452, -0.008741, -0.081698, -0.214091, 0.041760, -0.026503, 0.015421, 0.000308, -0.010577, -0.057195, 0.169578, 0.090383, 0.042568, 0.000933, -0.003606, 0.069576, -0.118752, 0.075907, 0.100542, -0.089948, -0.162775, 0.007911, 0.015045, 0.032025, 0.223499, -0.129286, 0.050830, 0.166035, 0.033778, 0.007872, -0.001105, -0.048435, -0.165873, 0.016187, -0.149634, -0.110246, 0.167836, -0.194953, -0.354967, 0.058604, 0.043975, -0.125946, 0.111682, 0.012491, 0.025465, 0.088586, -0.078339, 0.255151, -0.082560, -0.100375, 0.234651, 0.161489, -0.215105, -0.097551, -0.034413, 0.046033, 0.079743, 0.039827, -0.236496, 0.143775, -0.127967, -0.044368, 0.112613, 0.119201, -0.085270, -0.044098, 0.111738, 0.031980, -0.102578, -0.145729, 0.060361, 0.032480, -0.103243, -0.196170, 0.063846, 0.186797, -0.019004, -0.086160, -0.509639, 0.029845, 0.071356, -0.486096, 0.268506, 0.061660, -0.096659, -0.068262, 0.229821, 0.069906, 0.015324, -0.265211, 0.060618, -0.093394, -0.143783, 0.134462, 0.017944, -0.122674, 0.026147, 0.042964, -0.021395, -0.005893, 0.029130, 0.123153, 0.159953, 0.226794, -0.072825, -0.159085, 0.033147, 0.064909, -0.043792, -0.083178, -0.131651, -0.122393, 0.237064, -0.168963, 0.060524, 0.105332, -0.021101, -0.164255, 0.266302, -0.235658, -0.088063, 0.116111, -0.016525, -0.129242, 0.130887, -0.233374, -0.093197, 0.065782, 0.001755, 0.177618, 0.060010, -0.070399, -0.011777, 0.185687, -0.073961, -0.158524, -0.024937, -0.072071, 0.041121, 0.099259, 0.003377, 0.082892, -0.001265, 0.027836, -0.062165, 0.099914, -0.034153, 0.155424, -0.110830, 0.014396, -0.061143, 0.230204, -0.132823, 0.063645, 0.117082, 0.085096, -0.071040, -0.012281, 0.105969, 0.055187, -0.001732, 0.090955, 0.048163, -0.115609, -0.092686, 0.031489, -0.074916, -0.252740, -0.023217, 0.014388, -0.121369, 0.087215, -0.282104, -0.023798, -0.138492, -0.049878, 0.320079, 0.195169, 0.040629, -0.121276, 0.089442, 0.029391, -0.079781, -0.122925, 0.079873, -0.118965, -0.208878, 0.165801, -0.087223, 0.188311, -0.157386, -0.127182, -0.071724, -0.000028, -0.166414, 0.158167, 0.219720, 0.025838, 0.055765, -0.054927, -0.097797, 0.049297, 0.050421, -0.108075, 0.000331, 0.080412, 0.322638, 0.022853, -0.079647, 0.129291, 0.018709, 0.085512, 0.041084, 0.104225, 0.078449, -0.069216, -0.128209, 0.125829, 0.205085, 0.184903, -0.062534, -0.040602, 0.344793, -0.130196, 0.115659, 0.015612, -0.285481, 0.118764, -0.032085, 0.064040, 0.017879, 0.081890, -0.001002, -0.139152, -0.086235, -0.022969, -0.058988, -0.096317, 0.168332, -0.103835, -0.167445, -0.180921, -0.175338, 0.160333, -0.075895, -0.058206, -0.081030, -0.143781, -0.154080, -0.447951, 0.097422, 0.212594, -0.102192, 0.087757, 0.073120, -0.077807, -0.198034, -0.130207, 0.256277, 0.062420, -0.001113, -0.194119, -0.052314, 0.195240, -0.039800, -0.006544, -0.110064, -0.088271, 0.146162, 0.130873, -0.078186, 0.043580, 0.025470, 0.006620, 0.210353, -0.307264, 0.295235, -0.146096, 0.097637, 0.321473, 0.008289, 0.218887, -0.085382, -0.014426, 0.144731, 0.100495, -0.047436, -0.108331, 0.112225, -0.336791, -0.064284, -0.025773, -0.100874, -0.177349, -0.228861, 0.021788, 0.112160, -0.036050, 0.212507, 0.111872, -0.016030, 0.107646, -0.013073, 0.148832, 0.039350, 0.172828, 0.197690, 0.018913, 0.077497, -0.086069, -0.001591, 0.064687, 0.086165, 0.110836, 0.028650, -0.097247, 0.172295, 0.114494, -0.078455, 0.008777, -0.100868, -0.034325, -0.045669, -0.046868, -0.252825, -0.030871, -0.078129, 0.028186, -0.124649, -0.104938, 0.085039, 0.136504, -0.142318, 0.019203, 0.093056, -0.022010, -0.197184, 0.031624, -0.084299, -0.089657, 0.006891, 0.024177, 0.008199, -0.084385, 0.122132, -0.258440, 0.038104, 0.088162, 0.028209, 0.100598, 0.248689, 0.071680, 0.076850, -0.129969, 0.010287, 0.064361, -0.288019, -0.024438, 0.179613, 0.125084, -0.038106, 0.077474, 0.201869, 0.045719, 0.114144, 0.131416, -0.059600, 0.078182, -0.098175, -0.060736, -0.155812, -0.082049, -0.012691, 0.025601, 0.012598, -0.060041, 0.009410, 0.178255, 0.191662, -0.152750, -0.024984, -0.103353, 0.237499, 0.007127, 0.134126, -0.286508, 0.152542, 0.061593, 0.141552, 0.021780, 0.074643, 0.057526, 0.077313, 0.099617, -0.095248, -0.005758, 0.065799, 0.192789, 0.090516, -0.034523, -0.013489, -0.122303, 0.075013, -0.199267, -0.098268, 0.028962, -0.076795, -0.133347, -0.110171, 0.049420, 0.066818, 0.096804, 0.080260, -0.034274, -0.027442, 0.055313, 0.088190, -0.178795, -0.039704, -0.074264, 0.045465, 0.047572, -0.000453, 0.096990, -0.057428, 0.157558, -0.090032, 0.223596, 0.075875, -0.064975, -0.012672, 0.055216, -0.071968, 0.052497, -0.038748, -0.007005, -0.051033, 0.051825, 0.048839, -0.119144, 0.114211, 0.087736, 0.045889, 0.038178, 0.163154, -0.014722, -0.045027, -0.003024, -0.083678, -0.009274, -0.006561, 0.146889, 0.098855, -0.003473, 0.056626, 0.132455, -0.088145, -0.021805, 0.075792, 0.167917, -0.077079, 0.080915, -0.005727, -0.023689, -0.178282, -0.036357, 0.004091, -0.030023, -0.024621, -0.011141, -0.044352, 0.156166, -0.010726, -0.155944, -0.036004, -0.125315, -0.034939, 0.000550, 0.027464, -0.107873, 0.138649, 0.129476, 0.097025, -0.035545, -0.022135, -0.029642, -0.044722, 0.055297, 0.067389, 0.092251, -0.111525, 0.201060, -0.177411, 0.168475, -0.257144, 0.083162, 0.030084, 0.044111, 0.009875, 0.230451, -0.170047, 0.389946, -0.204714, -0.075241, 0.188917, -0.220158, 0.175841, -0.028423, -0.212994, 0.026498, 0.016523, -0.053252, 0.080029, 0.144315, -0.072018, 0.011280, -0.145603, -0.045248, -0.022586, -0.238999, 0.153779, -0.183949, -0.118310, -0.087554, -0.201799, 0.207744, -0.076240, -0.321845, 0.085061, 0.013628, -0.359927, -0.282232, 0.114575, -0.013490, 0.014266, -0.102740, 0.047687, -0.010264, -0.151818, -0.031265, -0.085709, 0.140596, 0.148794, -0.006739, 0.062997, -0.002866, 0.107324, 0.076382, -0.018234, -0.222253, 0.127601, -0.024723, -0.114575, 0.065235, -0.089650, 0.205263, 0.014429, 0.010585, 0.166426, 0.128627, -0.071138, 0.140737, 0.220275, 0.235701, -0.024751, -0.260862, 0.141684, 0.279889, -0.060031, 0.029423, 0.272544, -0.177224, -0.170985, 0.003118, -0.128431, 0.190658, 0.188159, -0.026452, -0.147761, 0.059778, 0.181415, 0.158407, -0.195255, 0.096865, 0.094461, 0.133964, 0.275026, 0.160786, 0.079987, 0.124140, 0.004927, -0.101676, -0.129454, -0.033441, -0.184254, 0.125311, -0.178747, 0.079755, 0.084559, 0.193555, -0.179320, 0.091303, -0.146104, -0.190024, -0.083466, -0.057427, -0.220429, -0.042570, -0.190120, 0.063489, -0.050087, -0.140141, -0.008348, 0.317647, -0.222825, 0.225448, 0.122946, -0.024806, -0.172371, -0.106456, -0.065655, 0.013637, 0.043469, -0.156929, -0.271031, 0.045117, 0.070502, -0.363616, 0.053995, 0.383077, -0.097980, 0.084914, 0.317280, 0.109697, 0.112011, 0.132796, -0.133137, -0.025215, -0.126520, 0.088591, 0.106249, 0.054949, -0.111983, -0.046949, 0.227548, -0.069769, 0.020281, -0.017137, -0.113529, 0.137257, -0.339696, -0.158816, -0.154277, 0.261550, 0.045834, -0.075858, 0.027652, 0.057145, 0.106372, 0.002143, 0.043790, -0.274145, 0.071549, -0.154809, 0.011595, 0.089424, -0.200190, -0.179537, 0.297019, 0.116418, 0.012422, -0.099346, -0.019322, 0.086934, -0.110514, 0.065496, 0.095330, -0.141651, -0.149419, 0.194811, 0.125426, 0.093935, 0.201679, 0.033741, 0.054738, -0.082059, 0.079686, -0.064671, -0.028830, 0.007490, 0.037147, -0.010063, 0.075704, 0.200864, -0.106173, -0.054084, -0.163754, 0.096509, 0.003018, -0.129980, -0.062873, -0.063092, -0.077413, -0.004728, -0.009255, -0.001229, 0.035608, 0.115807, -0.043059, 0.104979, -0.059393, -0.021595, -0.123830, 0.047891, -0.047034, 0.067913, -0.055551, 0.010305, 0.013899, -0.062636, 0.119208, -0.220913, 0.051347, 0.071208, 0.061916, 0.059608, 0.159063, -0.123690, -0.000837, 0.071431, -0.169009, -0.254877, -0.237555, -0.050749, -0.001117, 0.082741, -0.167563, 0.093935, 0.107352, -0.002544, 0.067906, 0.030447, 0.063136, 0.042651, -0.067331, -0.137471, -0.144703, -0.002529, 0.063603, 0.024918, -0.133928, -0.038988, -0.081420, -0.067894, -0.017295, -0.078763, 0.021924, -0.093372, 0.076281, 0.137022, 0.131619, -0.042258, 0.096551, 0.021509, -0.001676, -0.100549, 0.030759, -0.084013, -0.051358, 0.103186, 0.105077, -0.070058, -0.194011, 0.081189, 0.050443, 0.111122, 0.088131, -0.130431, -0.007675, 0.071280, -0.121411, 0.001915, 0.062984, -0.073087, 0.058420, 0.021370, -0.149806, -0.129697, 0.197834, 0.024717, -0.345099, -0.019625, 0.064380, -0.038454, 0.341329, -0.107597, 0.056211, 0.141922, -0.191549, 0.202315, 0.051041, -0.065648, 0.282655, -0.003515, -0.283964, 0.122093, -0.012548, -0.045881, -0.010053, 0.197200, -0.043276, 0.096682, -0.000530, -0.046383, 0.028055, 0.320847, 0.022467, -0.037034, 0.005447, 0.089785, -0.166370, 0.227971, -0.049742, -0.033777, -0.085780, -0.217821, 0.122423, 0.188530, -0.120949, -0.127188, -0.104033, -0.024329, 0.188647, -0.195347, 0.259812, 0.155493, -0.094581, -0.050456, 0.158126, 0.034395, 0.121280, -0.117108, 0.095835, -0.128031, -0.158093, 0.236097, 0.151501, -0.264003, -0.218065, -0.166561, -0.004607, 0.143209, 0.000344, 0.204628, 0.144515, 0.176052, -0.173403, 0.011741, 0.086982, 0.018276, 0.059174, -0.077068, -0.162409, 0.011816, 0.229477, -0.113501, -0.137837, 0.135218, -0.055616, 0.023613, 0.191188, -0.195617, -0.083040, -0.011200, -0.153661, -0.163010, -0.026117, -0.071889, 0.016963, -0.072828, 0.014828, 0.038201, -0.120212, -0.110679, -0.118965, 0.186816, 0.006543, -0.199095, 0.093204, 0.014240, 0.010339, 0.172650, -0.125133, 0.169860, 0.058899, 0.176676, -0.140313, 0.020885, -0.103053, 0.034860, -0.244962, -0.006294, -0.006713, 0.154688, 0.011972, -0.007505, 0.024806, -0.053945, 0.131067, 0.006915, 0.182821, 0.062693, -0.074265, 0.083385, -0.005730, -0.131009, -0.126269, -0.063135, -0.057705, -0.297352, -0.229710, 0.013083, 0.084084, 0.037815, -0.141921, 0.050085, 0.020137, 0.009479, 0.117718, 0.069771, 0.029342, 0.032133, 0.031099, -0.124053, -0.161592, -0.157059, 0.061574, -0.139363, -0.140230, 0.148341, 0.168713, 0.135903, -0.104001, -0.138205, 0.012994, -0.164069, 0.056464, 0.128250, 0.167886, -0.063815, 0.212866, -0.050581, -0.010720, -0.103297, 0.131021, 0.003498, -0.100751, 0.097800, 0.027460, 0.047481, -0.087646, 0.045646, -0.002169, 0.035079, -0.116879, -0.072360, -0.056456, 0.016549, -0.154825, 0.162856, 0.076026, 0.205899, -0.126471, -0.065016, 0.201647, -0.317863, 0.137117, 0.069228, -0.303259, 0.047644, 0.004135, -0.060561, 0.211138, 0.112844, 0.042917, 0.059014, -0.194241, -0.116907, -0.009889, -0.020327, 0.185573, -0.269720, -0.348018, 0.041567, -0.085298, 0.211363, 0.071429, -0.158430, -0.011537, -0.015105, 0.042951, -0.482249, -0.064128, 0.019768, -0.008073, 0.015734, 0.084736, -0.080171, -0.004932, -0.231865, 0.044822, 0.127961, 0.004057, -0.061952, 0.024991, 0.006684, 0.123172, 0.018994, 0.057992, 0.031014, 0.055275, 0.150181, -0.197246, 0.043979, -0.006939, 0.003243, 0.073746, 0.145799, 0.160606, -0.021335, 0.027351, 0.026663, 0.194776, 0.204726, 0.058151, -0.254425, -0.012037, 0.129283, 0.002761, 0.098415, 0.175579, -0.204515, 0.067199, -0.055603, -0.178271, -0.060223, -0.001269, -0.018222, 0.035703, 0.036149, 0.131381, 0.023411, -0.045269, -0.069883, 0.061156, 0.097994, 0.166236, 0.004490, 0.005877, 0.001608, 0.042420, 0.070330, 0.016899, -0.082525, -0.121246, 0.055421, 0.037531, -0.116402, -0.136936, 0.099846, -0.147609, 0.277646, 0.099731, -0.111108, -0.023060, -0.164462, -0.181950, -0.074310, -0.040035, -0.005594, -0.037959, -0.044411, 0.034900, 0.149944, -0.130748, -0.027687, 0.170165, -0.020257, -0.000175, 0.070308, 0.026542, 0.063650, 0.103128, 0.166236, -0.104983, -0.151273, 0.020294, -0.326348, -0.135950, 0.017591, -0.062252, 0.115543, 0.270034, -0.012625, -0.030035, 0.027651, -0.079661, 0.045524, -0.113986, -0.092337, 0.099859, 0.322589, 0.130674, -0.007713, 0.149654, 0.131926, -0.036149, 0.067801, -0.081076, 0.090310, -0.214677, 0.030161, -0.082014, -0.140208, 0.094471, -0.016832, 0.179723, -0.065155, -0.011727, 0.112059, 0.077374, -0.081526, -0.093218, -0.198359, 0.006676, 0.156629, 0.085587, -0.269143, 0.036232, 0.019488, 0.045239, 0.067464, 0.015631, 0.015815, -0.074677, 0.021171, -0.025338, -0.056422, -0.107545, 0.127901, 0.055280, -0.000891, 0.070592, -0.117254, -0.107386, -0.042810, 0.082555, -0.007583, -0.108796, -0.042070, 0.035829, -0.067302, -0.010843, -0.003835, 0.095069, 0.036675, -0.095835, -0.017885, 0.008634, -0.082354, -0.040506, 0.011275, 0.077179, -0.048640, -0.123383, 0.025846, -0.091921, 0.140473, -0.001067, -0.041754, -0.026128, -0.159636, -0.134543, 0.068884, -0.006498, 0.001731, -0.023406, -0.053212, 0.029444, -0.061670, 0.094854, -0.104915, 0.109843, 0.171902, -0.001153, 0.155947, 0.119180, -0.052450, 0.139123, 0.059994, -0.056170, -0.204917, -0.127825, 0.095151, -0.070782, 0.176721, -0.138189, -0.080926, 0.091123, -0.101294, 0.042041, 0.110686, -0.017312, 0.085724, 0.045569, -0.046540, -0.125539, 0.024031, 0.119467, -0.077756, 0.008648, 0.074817, 0.014355, 0.053275, 0.133781, -0.145002, 0.061026, -0.165123, 0.018481, 0.092622, 0.073769, -0.025853, 0.153376, 0.044492, -0.059956, -0.041592, -0.015317, -0.094359, 0.023928, 0.025361, -0.143841, -0.063286, -0.023356, 0.118646, -0.033378, -0.025352, -0.276797, 0.018737, 0.082474, -0.007489, 0.122504, 0.123637, -0.157684, 0.184434, -0.216590, -0.042691, -0.064582, -0.046236, 0.169519, -0.026795, -0.093733, -0.112153, -0.026314, -0.131785, 0.067670, 0.172532, 0.024025, 0.024626, 0.010524, 0.051711, -0.054842, -0.216022, 0.046493, -0.205229, 0.033667, -0.057819, -0.090219, 0.040389, 0.016455, -0.084992, 0.161252, -0.055265, -0.049213, -0.222352, 0.010928, -0.083113, -0.076158, -0.157158, -0.008319, -0.041656, 0.115281, 0.003512, 0.029573, 0.096549, -0.024861, -0.068677, 0.048842, 0.007602, -0.000703, 0.185088, 0.158135, -0.140536, 0.182679, -0.284116, -0.113966, -0.005858, -0.084571, -0.019750, -0.067078, 0.050620, 0.012258, 0.137330, -0.147256, -0.025303, 0.193585, 0.035826, -0.023981, -0.143267, 0.088207, 0.295734, -0.002749, 0.057638, 0.096063, -0.001359, -0.218865, 0.097433, -0.073139, 0.128042, 0.192076, 0.096204, -0.153407, -0.003075, 0.165064, 0.013473, -0.187566, 0.036301, -0.178354, 0.219687, 0.240943, 0.171616, 0.112434, 0.077611, -0.134129, -0.039577, -0.045169, 0.124503, -0.134786, -0.077677, -0.019729, 0.056692, -0.177530, 0.090500, -0.011570, 0.136312, -0.045043, -0.128285, -0.050839, 0.100485, -0.291902, -0.118397, -0.025897, -0.011415, -0.005653, -0.151976, -0.082080, 0.079590, -0.098798, 0.224678, 0.096869, -0.225167, 0.063825, -0.013980, -0.052738, 0.027815, 0.095466, 0.006937, 0.025077, -0.191577, 0.155451, -0.278707, -0.131331, 0.149338, -0.051764, -0.142635, 0.197547, -0.070035, 0.166654, 0.029810, -0.112929, -0.129437, -0.218091, 0.129900, -0.074309, 0.090501, -0.036247, 0.037008, 0.161994, -0.014731, -0.192875, 0.078185, 0.041435, 0.153274, -0.317471, 0.079302, -0.048630, 0.020128, -0.012096, -0.060852, 0.004011, -0.094479, 0.087229, 0.035688, 0.012932, -0.096836, 0.061560, -0.181965, 0.051717, 0.165303, -0.028733, -0.129883, -0.013727, 0.313898, 0.083388, 0.003243, -0.151851, -0.010182, -0.080948, 0.147010, 0.089977, -0.013487, -0.076315, 0.087603, 0.231280, 0.069815, 0.173136, -0.188783, 0.049270, 0.052772, -0.089579, -0.097926, 0.129542, 0.010783, -0.021253, 0.010481, -0.017675, -0.046386, 0.025323, 0.034531, -0.043352, -0.085498, -0.104391, -0.155004, 0.000295, 0.046062, -0.062998, 0.000200, -0.038796, -0.006805, 0.091640, 0.187932, -0.035632, 0.056049, -0.081880, 0.108883, -0.001828, -0.008932, 0.041688, 0.158373, -0.102623, 0.017166, -0.059195, -0.030561, -0.029639, -0.025209, -0.163506, 0.184242, -0.033171, -0.013446, 0.126041, -0.218865, -0.036393, 0.008341, -0.058431, -0.083888, -0.026934, -0.024193, 0.002019, 0.035270, -0.108241, 0.008536, -0.076094, 0.044964, 0.160691, 0.192784, 0.033179, -0.076859, -0.035479, -0.119874, 0.061533, -0.023345, 0.172452, -0.089018, -0.146885, -0.000776, -0.008054, -0.112360, -0.016251, -0.120840, -0.038336, -0.078074, -0.029454, -0.006458, 0.059782, -0.227337, 0.030301, -0.066742, 0.024655, -0.064313, 0.125278, 0.002225, -0.052333, -0.072039, 0.201521, -0.036338, 0.053513, 0.054036, 0.050538, 0.034114, -0.054828, -0.005271, -0.123206, -0.056818, 0.252365, -0.011729, 0.017880, 0.012113, -0.019947, -0.006284, 0.095409, -0.079776, 0.168317, -0.082124, 0.096150, 0.231634, 0.070422, -0.092692, 0.297514, -0.056785, 0.121653, 0.054561, -0.052912, 0.290432, 0.038145, 0.040833, 0.096026, -0.181879, -0.110154, -0.025174, -0.080431, -0.086235, 0.005355, 0.147787, -0.036678, -0.046745, 0.194563, 0.038744, 0.102369, 0.002550, 0.057416, -0.043074, -0.018599, 0.190750, 0.004142, 0.078496, -0.076922, -0.064943, 0.161735, -0.133878, -0.108671, -0.100161, 0.012573, -0.065307, -0.098744, -0.053273, 0.085089, -0.121231, 0.195275, 0.012700, -0.119554, -0.306174, 0.102818, 0.060450, -0.066461, 0.133780, -0.020905, -0.082201, -0.123530, 0.188522, -0.087197, -0.171060, -0.121289, 0.100719, 0.001823, 0.187289, 0.009693, 0.114474, 0.180321, 0.096581, -0.081345, -0.168493, 0.149307, -0.013051, 0.075269, 0.005834, 0.118540, 0.049185, 0.212523, -0.068461, 0.044815, 0.189118, 0.152228, 0.017943, 0.264040, -0.125576, 0.028847, 0.052600, -0.267086, -0.046038, 0.047048, 0.000654, -0.055916, -0.076433, -0.032765, -0.096708, -0.091700, -0.115041, -0.200689, -0.030711, 0.091743, -0.163747, 0.018405, -0.055737, -0.051758, 0.106061, -0.206945, 0.134288, -0.085257, 0.246422, 0.052974, 0.055289, -0.124064, 0.005088, -0.065190, -0.037341, -0.070506, 0.207525, -0.177329, -0.132075, 0.115298, 0.056298, 0.012056, -0.023503, -0.106892, 0.159789, -0.007758, 0.028825, 0.067710, -0.280888, -0.139016, 0.055284, -0.135396, -0.239690, 0.009322, 0.079725, 0.084998, -0.085022, -0.123779, 0.011582, 0.137695, -0.070203, 0.189585, 0.093197, 0.060026, -0.039740, 0.062862, -0.006167, -0.131120, -0.060443, 0.134762, -0.194020, -0.131919, -0.002259, 0.141521, -0.056329, -0.171447, -0.255957, 0.047350, -0.025414, -0.060676, 0.134544, 0.183551, -0.209078, -0.029731, 0.063362, 0.117783, -0.074050, 0.211566, -0.010598, -0.072751, 0.011350, 0.021438, -0.046089, -0.010744, 0.040044, -0.032029, -0.137332, -0.253121, -0.123971, 0.060980, 0.054539, 0.120556, 0.227539, -0.027537, 0.191772, -0.133752, -0.038277, 0.126595, -0.028810, 0.106762, -0.094074, -0.208734, -0.170833, 0.100775, -0.075393, 0.066326, 0.099151, -0.085583, 0.043209, -0.012469, 0.021618, -0.064466, -0.128925, 0.168669, -0.145341, 0.200840, -0.011993, 0.080515, 0.300858, -0.025644, -0.072460, 0.162594, 0.009976, 0.116743, -0.203684, -0.078283, -0.087569, -0.142153, 0.033357, 0.068833, 0.047508, -0.041224, 0.050413, 0.090334, 0.037302, -0.236513, -0.048743, -0.111706, -0.177160, 0.048049, 0.242570, 0.064501, -0.045416, -0.023422, -0.276807, -0.090317, 0.040279, -0.001116, -0.073688, -0.038189, -0.017271, -0.027896, -0.062702, -0.079745, -0.022063, 0.240604, -0.012249, -0.055359, -0.211183, 0.032143, 0.191353, -0.053800, -0.222499, 0.075145, 0.082888, -0.047568, 0.120799, 0.051069, -0.060847, -0.065212, -0.037244, -0.174503, -0.013979, -0.009859, -0.108247, -0.138638, -0.116558, 0.230822, 0.113061, -0.026232, -0.017202, -0.087123, 0.094499, 0.104917, 0.156384, 0.031191, -0.002798, -0.068470, 0.216607, 0.057345, 0.038729, 0.132289, -0.019798, -0.026240, -0.015459, 0.074496, -0.098041, -0.055312, -0.068279, 0.023654, 0.064808, -0.025119, -0.143262, -0.084961, -0.025963, -0.103120, -0.115490, 0.001010, -0.027276, 0.103714, -0.164442, -0.062473, 0.025257, -0.116220, 0.012087, 0.126465, 0.131794, 0.051815, -0.116997, -0.078440, -0.223147, -0.073710, -0.025012, -0.035111, -0.079584, -0.063072, 0.075659, -0.163499, 0.022772, 0.059871, 0.023143, -0.113858, -0.042919, 0.033674, 0.191223, 0.083488, -0.106813, 0.055896, 0.084492, 0.007780, 0.092686, -0.025170, -0.018338, -0.063213, -0.192639, 0.129554, -0.093260, -0.124391, 0.080655, 0.160586, 0.066868, -0.141170, 0.029356, 0.177450, 0.055677, -0.023184, -0.018304, 0.241999, 0.173842, -0.163594, -0.010959, -0.191912, -0.164332, -0.014429, -0.067425, -0.254309, -0.023837, 0.076066, -0.104190, 0.085622, -0.130920, 0.058731, 0.073832, 0.204038, -0.069436, 0.147883, -0.170104, 0.038743, 0.132142, -0.113450, -0.050164, -0.101273, -0.018466, 0.009099, 0.057768, -0.011923, 0.066316, -0.006289, -0.059239, -0.090452, -0.026744, 0.035886, -0.071295, -0.068049, -0.167296, 0.072666, 0.033157, -0.113321, 0.007824, 0.086784, 0.010929, 0.019286, 0.050691, -0.077826, -0.083197, -0.073157, 0.033112, -0.011814, 0.156076, -0.052594, -0.058267, 0.005069, -0.120657, 0.195165, 0.023904, -0.089589, 0.092359, 0.059859, -0.000599, 0.130095, -0.141893, 0.011732, 0.001895, -0.067767, -0.166256, 0.039158, 0.060212, 0.069168, 0.151150, -0.086916, -0.046790, 0.112538, 0.037423, 0.001907, 0.074724, -0.033750, -0.074329, -0.019003, 0.017402, 0.009027, -0.006390, 0.184814, -0.108035, 0.044513, 0.081322, -0.039379, -0.027617, 0.045429, -0.152674, -0.019527, 0.026107, 0.083861, 0.103279, 0.093476, -0.099167, -0.077598, 0.128655, 0.045002, 0.022672, 0.059986, 0.006925, -0.030530, 0.020005, -0.014177, 0.179244, -0.163088, 0.077612, 0.116855, 0.037325, 0.148495, -0.006733, 0.027288, 0.103010, -0.145952, 0.067701, -0.005917, -0.128102, 0.076876, 0.082738, 0.123083, 0.088667, -0.204149, 0.086977, 0.092407, 0.015278, 0.051674, 0.221628, -0.200477, -0.280555, -0.088362, -0.185193, -0.100578, -0.241723, 0.002684, 0.117418, -0.210596, 0.173426, 0.152175, -0.121593, 0.079585, -0.258368, -0.066700, 0.224213, -0.181680, 0.152023, -0.043165, 0.052686, 0.143046, 0.032107, -0.152562, 0.188544, -0.053618, -0.133628, 0.184205, -0.024302, 0.110516, -0.019859, -0.214446, 0.005471, -0.024747, 0.130755, 0.111852, 0.040237, -0.064775, 0.131349, 0.147823, 0.087693, 0.035424, 0.109687, -0.005251, -0.222107, -0.030298, -0.021772, -0.043491, 0.123446, 0.135298, 0.049611, -0.354357, 0.160737, -0.142714, 0.243328, 0.133671, -0.199249, -0.018542, -0.134211, -0.184939, 0.104452, 0.150922, -0.161241, -0.012597, 0.044795, -0.083071, 0.011824, 0.024294, -0.033023, 0.028229, -0.100317, 0.027255, 0.110181, -0.095288, 0.083547, -0.136404, 0.073718, -0.112987, -0.111135, 0.060738, 0.108656, 0.031643, 0.028063, 0.007070, -0.055981, 0.028791, -0.100498, -0.074262, -0.060540, -0.037086, 0.022839, -0.091513, 0.095684, -0.092913, -0.146996, 0.109315, 0.033830, 0.103596, 0.085669, -0.075139, 0.110798, 0.063581, -0.065564, -0.121820, -0.221352, -0.070293, 0.228215, -0.073441, 0.034079, 0.037502, -0.041075, 0.040908, -0.045479, 0.182542, -0.038015, 0.201438, 0.142854, 0.083125, -0.218101, 0.029729, 0.012260, -0.114675, -0.066182, -0.138320, 0.040536, -0.025377, -0.177429, -0.071386, -0.230435, 0.053026, -0.173363, -0.091928, -0.000924, 0.105902, -0.001965, 0.006655, -0.092483, -0.053617, -0.154145, -0.031861, 0.187204, -0.101501, -0.118219, -0.023832, -0.090407, -0.021475, -0.044864, -0.010737, 0.022074, -0.110223, 0.015795, -0.052571, -0.015504, 0.015417, -0.019592, 0.018676, 0.013073, 0.008928, -0.080533, 0.013622, -0.058501, 0.220663, 0.071546, 0.006835, -0.114324, 0.074672, -0.122374, 0.058147, 0.130496, -0.092771, 0.104060, 0.321689, 0.199496, 0.082978, -0.077832, 0.033120, -0.130538, -0.005378, -0.159689, -0.115059, -0.012239, 0.076789, 0.060355, 0.060596, -0.079461, 0.092753, 0.225155, 0.012087, -0.045859, 0.061662, 0.134405, 0.116442, -0.135176, -0.015810, 0.092087, 0.041415, -0.163052, 0.017550, 0.114791, -0.031593, -0.075144, -0.015281, -0.057082, -0.036999, 0.138278, 0.073113, -0.061784, 0.144234, 0.164205, 0.086796, 0.036044, 0.054554, -0.195295, 0.005727, -0.053763, -0.038149, -0.026851, -0.118897, 0.109267, 0.078994, -0.038210, 0.048602, -0.058033, -0.229822, -0.143908, 0.096156, 0.067586, 0.037211, 0.222780, -0.008741, 0.106957, 0.013255, 0.144952, -0.144611, 0.035671, 0.020899, 0.126743, 0.144739, 0.076158, 0.006677, 0.227416, -0.059841, -0.025492, -0.107827, -0.088227, -0.093263, 0.057435, -0.049282, -0.076342, 0.209878, 0.024633, 0.091186, -0.065003, 0.066986, -0.033598, 0.043206, -0.065055, 0.069667, 0.082225, -0.054003, -0.051701, 0.046135, -0.028503, -0.141572, 0.122225, 0.086251, -0.112924, -0.095076, 0.193363, -0.095007, 0.017507, -0.011911, 0.072256, 0.009017, 0.054352, -0.022636, 0.045926, -0.059484, 0.067610, -0.100389, 0.010627, -0.050153, -0.099059, 0.070785, 0.071199, 0.056232, -0.041469, -0.163413, 0.013580, -0.113190, -0.033831, -0.071432, -0.104764, -0.042796, 0.118498, 0.092918, -0.049924, -0.094281, 0.012916, 0.044157, 0.028171, 0.087222, 0.116188, 0.203098, 0.082701, -0.109903, -0.140339, 0.009723, -0.284295, -0.113657, -0.010533, -0.025187, 0.024440, -0.002437, -0.233978, 0.078029, -0.123234, 0.038422, 0.000931, -0.092548, -0.018026, 0.070805, -0.060532, 0.031108, 0.002914, 0.016084, -0.253761, -0.051727, 0.089391, -0.096549, 0.049754, 0.001625, 0.031342, -0.007398, 0.007596, -0.075697, 0.042376, 0.062321, -0.150133, -0.082009, -0.125649, 0.063082, 0.028663, 0.082804, -0.131335, -0.057003, -0.094243, -0.148002, 0.005635, 0.066333, -0.001334, 0.103587, -0.086929, -0.119811, 0.156897, 0.024416, -0.006468, 0.115249, 0.225003, 0.048179, -0.127773, 0.011070, 0.223406, 0.139717, -0.160059, 0.020002, -0.149493, 0.140243, -0.044299, -0.099369, 0.210134, -0.175433, 0.140058, -0.125201, -0.020105, -0.049008, -0.067665, -0.024151, -0.101644, -0.021393, 0.007900, -0.015265, 0.003703, 0.070033, 0.095204, -0.090207, -0.142669, 0.060567, 0.091231, -0.215324, -0.240271, -0.035858, 0.094566, 0.042668, -0.047842, 0.064057, -0.205348, 0.038675, -0.105759, -0.086871, -0.056365, -0.030259, -0.081164, 0.180557, 0.113143, -0.109291, -0.196608, -0.084112, -0.059638, -0.043165, -0.169428, 0.118673, -0.034402, -0.058871, 0.184262, 0.136081, -0.040942, -0.008440, -0.043214, 0.048356, 0.044251, -0.217987, -0.222444, -0.168787, -0.175470, 0.182494, -0.075063, -0.203103, -0.115931, 0.254701, 0.170748, 0.002019, -0.066106, 0.025076, -0.122356, -0.005025, 0.064649, 0.012619, 0.007786, 0.010216, -0.082978, -0.141527, 0.012080, 0.025115, -0.076298, -0.049281, 0.021297, -0.025329, 0.103341, 0.113984, -0.043036, -0.014462, 0.112658, 0.073750, -0.004377, 0.012164, -0.047489, -0.047612, 0.146652, 0.071420, -0.031456, 0.153803, -0.104391, 0.127863, -0.037612, -0.323170, 0.031412, -0.049840, -0.098556, 0.051250, 0.054418, -0.123584, -0.183771, 0.092971, -0.087612, -0.055251, -0.087481, -0.099474, 0.049877, -0.131603, -0.152244, 0.069055, 0.017326, -0.000324, -0.055911, -0.067912, 0.082184, -0.176408, 0.099166, 0.109075, -0.083141, 0.159835, 0.000468, -0.110723, -0.192234, 0.077093, -0.092148, 0.055329, 0.098608, -0.016286, -0.111845, -0.012261, -0.103962, -0.000494, 0.072466, 0.128292, -0.063035, 0.047539, -0.052088, 0.230454, -0.026112, 0.104052, -0.020397, -0.024368, -0.080819, -0.054719, -0.051674, 0.073714, 0.101544, -0.085440, 0.014732, -0.316653, -0.020515, -0.100708, 0.215484, 0.189291, -0.065044, -0.056461, -0.209758, -0.022049, -0.089775, 0.085491, -0.049175, 0.010790, 0.053893, -0.062562, -0.038751, -0.137367, -0.013072, -0.059192, 0.029807, -0.005645, -0.112854, -0.002535, -0.044095, -0.253033, -0.044298, 0.056910, 0.092447, 0.042686, 0.135369, -0.092043, 0.002802, -0.120750, 0.062150, 0.141581, 0.033439, 0.117193, 0.122148, -0.053866, -0.078734, 0.059051, 0.091676, -0.071708, -0.217819, 0.062667, -0.045747, 0.022447, -0.001960, 0.003931, 0.071136, -0.112437, -0.070159, -0.009962, -0.173677, 0.068403, 0.084684, 0.082506, -0.022167, -0.056109, 0.099935, 0.033670, -0.020003, 0.080971, 0.022722, 0.110936, -0.008740, 0.100792, -0.408775, 0.045218, -0.144850, -0.013567, 0.003209, -0.248450, 0.052049, 0.137587, -0.096106, -0.096130, -0.076258, 0.136160, -0.140939, -0.015560, -0.030706, 0.093956, 0.019075, 0.087304, 0.034138, -0.069881, -0.176635, -0.179246, 0.020293, -0.279729, 0.071074, -0.103753, -0.027186, -0.209307, 0.005487, -0.117680, 0.185512, 0.090364, -0.135045, 0.055106, 0.000630, 0.061908, 0.082393, -0.031877, -0.138987, -0.016771, -0.021820, -0.110649, 0.048833, -0.057415, -0.037316, 0.129358, -0.008982, 0.117781, 0.143028, -0.050845, -0.000694, 0.082583, 0.218085, 0.119279, 0.066015, -0.014967, 0.267779, -0.007049, -0.031945, -0.141092, -0.105741, 0.001965, 0.048637, 0.017315, 0.000718, 0.007507, -0.096662, 0.024356, 0.121224, 0.039695, -0.045822, 0.119754, -0.180879, -0.096895, 0.027446, -0.141921, -0.041046, 0.031386, -0.066016, -0.070783, -0.148069, 0.004189, 0.178185, -0.029061, -0.057363, -0.104341, 0.020150, 0.005752, 0.126856, -0.025083, 0.027754, 0.159134, -0.125708, -0.177092, -0.170038, 0.075200, 0.000563, 0.031508, 0.001968, -0.000362, -0.143431, -0.072405, -0.033353, -0.181999, 0.029324, 0.083461, 0.146613, -0.024561, -0.182344, 0.182519, -0.110094, 0.191435, -0.015777, 0.003734, -0.047246, -0.139003, -0.219428, -0.093659, -0.040313, -0.048495, 0.072286, -0.085652, -0.026628, 0.044660, 0.051786, 0.047157, -0.182097, 0.014019, -0.046014, -0.036267, 0.056689, 0.112414, -0.073710, 0.035125, 0.015486, -0.112916, 0.064946, -0.131945, 0.063375, 0.196875, 0.112020, -0.261378, 0.121115, 0.095329, -0.072341, 0.222653, -0.071332, 0.195603, -0.021573, -0.081772, -0.227990, -0.288886, 0.322613, -0.099907, -0.133864, 0.131956, -0.051101, 0.191753, 0.135257, -0.215389, 0.206203, 0.130397, -0.229572, -0.034263, 0.105276, -0.442823, -0.285234, -0.074852, -0.219758, 0.045242, -0.386060, -0.085578, 0.110897, -0.276107, 0.143937, 0.105910, -0.187334, 0.216301, -0.256797, 0.022340, 0.019784, -0.150794, 0.161343, 0.003659, -0.182409, -0.116291, -0.133960, -0.113299, 0.201554, 0.001978, -0.314821, 0.224337, 0.043738, 0.247276, 0.048448, -0.335880, 0.186260, 0.134130, 0.153458, 0.051758, -0.001998, -0.042658, 0.019013, -0.065554, -0.031569, -0.021308, 0.065495, 0.041917, -0.013512, -0.067706, 0.026062, -0.042190, 0.174362, 0.169021, 0.182631, -0.192732, 0.105424, -0.052975, 0.191115, 0.198311, -0.357589, 0.059197, -0.224457, -0.249067, -0.010785, -0.013225, -0.035142, -0.036267, 0.009179, -0.135185, 0.061150, -0.265202, -0.018724, -0.074981, -0.014275, 0.090210, 0.098744, -0.045837, 0.130710, 0.023073, 0.002543, -0.043460, -0.082607, 0.065120, 0.160893, 0.101803, -0.051386, -0.085123, 0.079255, 0.055173, 0.033733, -0.097355, -0.033780, -0.158902, 0.020591, 0.141950, 0.078019, -0.037349, 0.037535, 0.062913, -0.052246, -0.147466, -0.027049, -0.029160, 0.010971, -0.096265, 0.013135, 0.053476, 0.059981, -0.053517, 0.019304, -0.013584, -0.034600, -0.093032, 0.077753, 0.073993, -0.129302, 0.152810, 0.157869, -0.080588, 0.112836, -0.068187, -0.223956, -0.085157, -0.049479, -0.177731, -0.147076, 0.011245, 0.098803, 0.128059, -0.029556, -0.015737, 0.030874, -0.053004, -0.058345, -0.064989, -0.044963, -0.172904, 0.095221, -0.069570, 0.085997, -0.096283, -0.004530, -0.118102, -0.058654, 0.012823, -0.023658, -0.132330, 0.034514, 0.106833, -0.221578, 0.053632, -0.011051, -0.233936, 0.093490, -0.047008, 0.071105, 0.058079, 0.031022, -0.159139, 0.004893, -0.063858, -0.153374, 0.147585, -0.087648, 0.266578, -0.016744, 0.003864, 0.051137, 0.129785, -0.086440, -0.054321, -0.205510, -0.025520, 0.185131, -0.008227, 0.130998, 0.007915, 0.067084, -0.040130, -0.101101, -0.088108, -0.016882, 0.157600, -0.090093, -0.108907, -0.018958, -0.044086, 0.089882, -0.038401, 0.006349, 0.080607, -0.193737, 0.125372, 0.150320, -0.022816, 0.031218, -0.157835, 0.113369, -0.070487, 0.068470, -0.010650, 0.037260, -0.123493, 0.271191, -0.046586, 0.168942, -0.026353, -0.007470, 0.053497, 0.051924, 0.170105, 0.092345, -0.012817, 0.079512, -0.018132, -0.265662, -0.080294, -0.016614, -0.247985, -0.054813, -0.066229, -0.056192, 0.097857, -0.088843, -0.028336, -0.077899, -0.019862, -0.026626, 0.072787, -0.018552, 0.119340, 0.113584, -0.093049, -0.082743, 0.027709, -0.051151, -0.103230, 0.170321, -0.045886, -0.086095, -0.236319, -0.078111, 0.051036, 0.078906, 0.042036, 0.166588, -0.048443, -0.028311, 0.002611, -0.142381, 0.099272, -0.086988, 0.152254, -0.146518, -0.009707, 0.132419, 0.125915, -0.067594, 0.213200, -0.023774, 0.125054, -0.078090, -0.122298, 0.144341, 0.036472, -0.092812, -0.151140, -0.011923, -0.052540, 0.008326, -0.113808, 0.013356, -0.211986, 0.051104, 0.063943, 0.115466, -0.027691, 0.022286, 0.108258, -0.000905, -0.191558, -0.009052, -0.104739, 0.097414, 0.059509, -0.114858, -0.080129, 0.085754, -0.024711, 0.096882, -0.182204, -0.027278, -0.035902, 0.030924, -0.110518, -0.058483, -0.008611, -0.009296, -0.060666, 0.077224, -0.098848, 0.010585, -0.115615, 0.017512, 0.048525, 0.071951, 0.022332, -0.022629, 0.020969, -0.132477, 0.006372, -0.136162, -0.054288, -0.007363, -0.005542, 0.113251, 0.035214, -0.039620, 0.064459, -0.001696, 0.099665, 0.073456, 0.055489, 0.051010, 0.015113, 0.101737, -0.054672, -0.125706, 0.023477, -0.145413, -0.072623, -0.019973, -0.029278, -0.058356, -0.155849, 0.105671, 0.028740, -0.146790, -0.224195, 0.093019, 0.165708, -0.006224, -0.071028, -0.156718, -0.037221, -0.092130, -0.010559, -0.009243, 0.088259, 0.080590, -0.070167, -0.064516, 0.077479, -0.091884, 0.127791, 0.012744, -0.057618, -0.025651, -0.082523, 0.090303, -0.079246, 0.023770, -0.019652, -0.116149, -0.102067, 0.031054, 0.081152, 0.069549, 0.040209, 0.144485, 0.105353, 0.047300, -0.145690, 0.004672, -0.203447, -0.108797, -0.287213, -0.128554, -0.018532, -0.326758, 0.182156, 0.142045, 0.113497, 0.116085, 0.053788, 0.230332, -0.072617, 0.002485, -0.191778, -0.361477, -0.071869, 0.052440, -0.109349, -0.007431, 0.073752, -0.049960, -0.017346, 0.103290, 0.102976, -0.085978, 0.010681, 0.197244, 0.105005, -0.053182, 0.019324, -0.064141, -0.243485, -0.129103, -0.133864, -0.118862, 0.041414, -0.069627, 0.031336, -0.197497, 0.064336, 0.014943, -0.032208, 0.118399, 0.175797, -0.041935, 0.206228, 0.175558, -0.117840, -0.203562, 0.029582, 0.164143, 0.067754, -0.197416, -0.113373, -0.224500, -0.024495, 0.011142, 0.164698, -0.188617, -0.237801, 0.106733, 0.021995, -0.016516, 0.118890, 0.133595, -0.070585, 0.104364, 0.032452, -0.153139, 0.130920, 0.017245, 0.117187, -0.040120, 0.001994, 0.125650, -0.305604, 0.251462, 0.252725, -0.009944, -0.024364, 0.130563, 0.041732, -0.122368, 0.017173, -0.099056, -0.262149, 0.305332, 0.133980, 0.069948, -0.041883, -0.012660, 0.148704, -0.026403, -0.172456, 0.076835, -0.000336, -0.097239, 0.034855, 0.051924, -0.233317, -0.123198, 0.052794, -0.041569, 0.075743, -0.036270, -0.165705, 0.045126, -0.311647, 0.015161, 0.043796, -0.143384, 0.030879, -0.123591, -0.087746, -0.043953, -0.157240, 0.208880, 0.059930, -0.163436, 0.108848, -0.149726, -0.142271, 0.076890, -0.083780, -0.313653, 0.194391, 0.048991, 0.109254, -0.021207, -0.198042, -0.113488, 0.163473, 0.180037, 0.296315, 0.149274, 0.002354, 0.142511, 0.150212, 0.044726, 0.179398, -0.201724, -0.047354, -0.068888, -0.068124, -0.130082, 0.153252, -0.097352, 0.005959, 0.056119, -0.120194, -0.109168, -0.130508, 0.131941, 0.259758, -0.088635, -0.069689, -0.423045, -0.008337, 0.031383, 0.037973, 0.015302, -0.097431, 0.056034, -0.171020, -0.047104, -0.226827, 0.043960, -0.053662, 0.006391, 0.007307, -0.048367, -0.105271, 0.055376, -0.056169, 0.095163, 0.002302, 0.094547, 0.011399, 0.105234, -0.012006, -0.122903, 0.030029, 0.043015, 0.078871, -0.059795, -0.021162, 0.108464, -0.146998, 0.017846, -0.112192, 0.070699, 0.075634, -0.066333, 0.138787, -0.056637, 0.043984, -0.099782, 0.022250, 0.010782, -0.042833, -0.047658, 0.084062, -0.016278, -0.066655, 0.100596, -0.129394, -0.054354, -0.009226, 0.030039, -0.116041, -0.159375, 0.109429, 0.070717, 0.064514, 0.057743, 0.113069, -0.129466, -0.046921, 0.026384, -0.121316, -0.265596, 0.068818, 0.207620, 0.163483, 0.002318, 0.038998, -0.157310, -0.066974, -0.129410, -0.094889, 0.038538, -0.148172, -0.094186, -0.123304, 0.126829, 0.022615, -0.076318, -0.179793, 0.011197, -0.075958, -0.074864, -0.127626, 0.017550, 0.091507, -0.313590, 0.214353, 0.139437, 0.013410, 0.065498, 0.064238, 0.070546, 0.036696, -0.030785, -0.038696, -0.020732, 0.102632, -0.088620, 0.085590, -0.094090, 0.119045, 0.024581, 0.023860, 0.044667, 0.052280, 0.056413, -0.114932, -0.015893, 0.039428, 0.162408, -0.059344, 0.009007, -0.094270, 0.205328, -0.102820, -0.126807, -0.141973, -0.063689, -0.006901, -0.029691, -0.102976, -0.147838, -0.105646, -0.009371, -0.064818, 0.025436, 0.070608, -0.100298, 0.015174, -0.089653, -0.069010, -0.076397, -0.181568, 0.099331, -0.010489, -0.107379, 0.082291, 0.089234, 0.054346, 0.127474, -0.092814, 0.066964, 0.052361, 0.060687, -0.055150, 0.089238, 0.156899, 0.125853, -0.098207, 0.015057, -0.093620, -0.289849, -0.011932, -0.030622, -0.098655, 0.102069, -0.034233, 0.057262, 0.203190, -0.045691, -0.012946, -0.032803, -0.135126, -0.094803, 0.048782, -0.064339, -0.119118, 0.135825, -0.011687, 0.085744, 0.017773, -0.143501, -0.014508, 0.068560, -0.114028, -0.002795, 0.005907, 0.054691, 0.106326, -0.050634, 0.003540, 0.078740, -0.035355, -0.064318, -0.076463, 0.016626, 0.120650, -0.045493, 0.047891, -0.063644, -0.024007, -0.000422, -0.122912, -0.054874, 0.011670, -0.109832, 0.082151, -0.103911, -0.247020, 0.071940, 0.146270, 0.108022, 0.186222, -0.017941, 0.187037, 0.099186, 0.050329, -0.068583, -0.151024, 0.128528, -0.208249, -0.386649, 0.027158, 0.034159, -0.085390, 0.107112, -0.234566, 0.212592, 0.123698, -0.097989, -0.102645, 0.179018, -0.273370, -0.179452, -0.073234, -0.350137, 0.053336, -0.264378, 0.046952, 0.018141, -0.343671, 0.385616, 0.322220, 0.050821, 0.055038, -0.112173, -0.086235, 0.122757, -0.053736, 0.201163, 0.032343, -0.092248, -0.069313, -0.187120, 0.175492, 0.193092, 0.029781, -0.516015, 0.238543, 0.178938, 0.061019, -0.040955, -0.337433, -0.043915, 0.223436, 0.308481, -0.069143, 0.203031, 0.086746, -0.021910, -0.014423, -0.213022, 0.016924, -0.279265, -0.046251, 0.249478, -0.213458, -0.059267, -0.122732, 0.052169, 0.355485, 0.054335, 0.099306, -0.045579, 0.071902, 0.259161, 0.231673, -0.209715, -0.075173, -0.585771, -0.246171, 0.055219, -0.071325, 0.197389, -0.077910, 0.204353, -0.486577, 0.069067, -0.329399, -0.111365, -0.118724, 0.187976, 0.194369, -0.262912, -0.055108, -0.057679, 0.030332, 0.065816, -0.126077, -0.026031, 0.053480, 0.288103, 0.272650, -0.125007, -0.079091, -0.027912, -0.028575, -0.076947, 0.101131, 0.000779, 0.200109, 0.063272, 0.211921, -0.084290, -0.000277, 0.068285, 0.174396, 0.069898, -0.238577, -0.126787, -0.059528, -0.124217, 0.022908, 0.137446, 0.053310, 0.062506, 0.093326, -0.065710, 0.015719, 0.091962, 0.072076, 0.209859, 0.143683, -0.407564, -0.038926, 0.175363, -0.228961, -0.057819, -0.056769, -0.287716, -0.089108, 0.082065, -0.004413, 0.054992, 0.026174, 0.150531, 0.041795, 0.034787, -0.227482, 0.150276, -0.143245, 0.073976, 0.019271, 0.006358, -0.271736, -0.216899, -0.167384, 0.161230, 0.035777, 0.001505, -0.069921, -0.204099, -0.135234, 0.228597, -0.070594, -0.009849, 0.137153, -0.099877, -0.004425, 0.146263, 0.014246, -0.029124, -0.073816, 0.209576, -0.003013, -0.110483, -0.096668, -0.008723, -0.012350, -0.109788, 0.064935, -0.024595, 0.102556, -0.075013, 0.033470, -0.091162, 0.059689, -0.022533, 0.007760, -0.157997, -0.125203, 0.100474, -0.177923, 0.085717, 0.020009, 0.279323, 0.009157, 0.028313, -0.139162, 0.164377, -0.077718, 0.054214, 0.042266, -0.050392, -0.109149, -0.110377, -0.061293, -0.020723, 0.000001, -0.148341, 0.194033, 0.189716, -0.098549, 0.067525, -0.244265, 0.212226, -0.070780, 0.078534, 0.034571, -0.087835, 0.036988, 0.282074, -0.070447, 0.076359, -0.027072, -0.056938, 0.026089, -0.059634, -0.141363, 0.157090, 0.177445, 0.039910, -0.065341, -0.319186, -0.044469, 0.128502, -0.176931, -0.076074, -0.085938, -0.026340, 0.062980, -0.178166, -0.009390, 0.035811, 0.002969, 0.013321, 0.058004, -0.032716, 0.099317, -0.057448, -0.001148, -0.103466, -0.084629, -0.359460, -0.024254, -0.135898, -0.103072, -0.048231, -0.288548, 0.013220, 0.007533, -0.240620, 0.045033, 0.020380, 0.048032, 0.099758, 0.049511, 0.142668, 0.153237, 0.018190, 0.010201, 0.082804, 0.156114, 0.042841, 0.072131, -0.059892, 0.124749, 0.011285, 0.115390, -0.134123, 0.087246, 0.013337, 0.058884, -0.097286, -0.128376, 0.145991, 0.046644, -0.117210, -0.056866, -0.033266, -0.247746, 0.186015, 0.172211, 0.051924, 0.099605, -0.093229, 0.308217, 0.005010, 0.127348, -0.063295, 0.020949, 0.123696, 0.081527, -0.026839, -0.140562, 0.001205, 0.247874, 0.114145, 0.021452, 0.065503, 0.015377, 0.028159, 0.073017, -0.131345, -0.123271, -0.063343, 0.003458, 0.208292, -0.024539, -0.125816, -0.152763, 0.181453, 0.141452, 0.005050, 0.092634, -0.116897, -0.047601, 0.022669, -0.104839, 0.137394, -0.110917, 0.072248, -0.165659, -0.177403, -0.085336, -0.173481, 0.122346, -0.147303, 0.102365, 0.180531, 0.028593, 0.070039, 0.091893, -0.058716, 0.259947, -0.361539, -0.129349, -0.103768, 0.109475, 0.164694, 0.047375, -0.034613, -0.156475, 0.174096, -0.083784, 0.020263, -0.372877, 0.076656, 0.165277, -0.070143, -0.068601, -0.123504, 0.045307, -0.078290, 0.183627, -0.015237, 0.125654, 0.058655, -0.144850, 0.029164, -0.090664, 0.025459, 0.008102, -0.126371, -0.123412, 0.007962, -0.028862, 0.019820, -0.088846, 0.103123, -0.031619, -0.107448, 0.043415, -0.105588, 0.083145, -0.138530, 0.084179, 0.247273, -0.028038, -0.070935, -0.034340, -0.161792, -0.060239, 0.052181, -0.146436, -0.065595, 0.050176, -0.257617, 0.125073, 0.158780, 0.222292, 0.385946, -0.042876, 0.376347, -0.083757, -0.132581, -0.098851, -0.339357, 0.046905, 0.014758, -0.127411, 0.098631, -0.067161, -0.206711, 0.266184, 0.079328, 0.068610, -0.238477, -0.016199, 0.249696, -0.059830, -0.140441, 0.008952, 0.187884, -0.144917, -0.087024, -0.089634, -0.061072, 0.168867, -0.104911, 0.120335, -0.305636, 0.040177, 0.033480, 0.052864, 0.066648, 0.169689, 0.121374, 0.094148, 0.057380, -0.037051, 0.237806, 0.042152, 0.178995, 0.105174, -0.139106, -0.278248, -0.165776, 0.166655, -0.127249, -0.067311, -0.126564, -0.208899, 0.116645, -0.107004, -0.045934, -0.016929, 0.075228, 0.117860, 0.094152, 0.094117, -0.182374, 0.204961, -0.011324, 0.013029, -0.079143, -0.046521, -0.031333, -0.115598, 0.170730, 0.215567, -0.070210, 0.023195, 0.001168, 0.053984, -0.165018, -0.012014, -0.209891, -0.253926, 0.222720, 0.155349, -0.054273, 0.162070, 0.005427, 0.093765, 0.126066, -0.099409, 0.111298, 0.020432, 0.058751, -0.013739, -0.028928, -0.133635, -0.065731, 0.055560, -0.057185, 0.108404, 0.050821, -0.136444, 0.080114, -0.262893, 0.012993, 0.075005, -0.020663, 0.056707, -0.155427, -0.050197, 0.115129, -0.195661, 0.299419, 0.100990, -0.032069, 0.063713, -0.145851, -0.154514, 0.070358, -0.036879, -0.218524, 0.232575, -0.086836, -0.152596, -0.048196, -0.137407, -0.029905, 0.068676, 0.030172, 0.080777, 0.163476, -0.137000, 0.011015, 0.129929, -0.131386, 0.220471, -0.181198, 0.044377, 0.051594, 0.089140, -0.102263, -0.008035, 0.131309, -0.021546, -0.008337, -0.000029, -0.308120, 0.061815, -0.021057, 0.104408, -0.085086, -0.036174, -0.413840, -0.122044, 0.048199, 0.092208, -0.013795, -0.129266, 0.083810, -0.221565, 0.072685, -0.221146, -0.095261, -0.043067, 0.075611, 0.000743, -0.021428, -0.174249, 0.047771, 0.084672, 0.031011, -0.010859, -0.062897, -0.080283, 0.128576, -0.007525, -0.084965, -0.020735, 0.051420, 0.028543, -0.109687, -0.038141, 0.068080, 0.077223, 0.076301, 0.005615, 0.032519, 0.026803, -0.053892, 0.195438, 0.021099, -0.042088, -0.036048, 0.024134, -0.003739, 0.031778, 0.122179, -0.006086, 0.084699, 0.050482, -0.099641, -0.041392, -0.034217, 0.006656, -0.013746, 0.145949, -0.060051, 0.066918, 0.089760, 0.008951, 0.053723, -0.031316, -0.175533, 0.046961, 0.144372, 0.048882, -0.013875, 0.009340, -0.023237, 0.146254, -0.041067, -0.000483, 0.044849, -0.001100, 0.090930, -0.077219, -0.017626, -0.211974, -0.114156, 0.023293, 0.152451, 0.076076, -0.245303, -0.174492, -0.205906, -0.156568, -0.006418, -0.108884, -0.069524, -0.007145, -0.058322, 0.249154, -0.101861, -0.086360, 0.028938, 0.046401, 0.046372, -0.038742, 0.062528, -0.123624, -0.049714, 0.135460, -0.129879, -0.006377, -0.097431, 0.152934, 0.031956, 0.032116, -0.035042, 0.091281, -0.032765, -0.125918, -0.025974, -0.080607, 0.265757, -0.101115, 0.051494, -0.027492, 0.274307, -0.026179, -0.058191, -0.242233, -0.003691, -0.022438, 0.028281, -0.067258, -0.002955, 0.017338, -0.083634, -0.103819, -0.121238, -0.037217, -0.189464, 0.005914, -0.092041, -0.145203, -0.087071, -0.090836, 0.111914, 0.023259, 0.050562, -0.036187, 0.086965, 0.104434, 0.254770, -0.117792, 0.025335, -0.070497, 0.007527, 0.021417, -0.027053, 0.012719, 0.202998, 0.235828, -0.100257, -0.093152, -0.287168, 0.048646, 0.171606, -0.088685, -0.153191, 0.057965, 0.005834, 0.247443, -0.211289, -0.129992, 0.125887, -0.074607, -0.025430, -0.100329, -0.103255, 0.144746, -0.013589, -0.033334, -0.089259, 0.030945, -0.242963, -0.140923, -0.073846, 0.062556, -0.134129, -0.163214, 0.003338, 0.231413, -0.203394, 0.086076, 0.070380, 0.085739, -0.023219, 0.044845, 0.102906, 0.247462, 0.142850, -0.106868, -0.039186, 0.046866, 0.030881, -0.037755, -0.026288, 0.111173, 0.083959, 0.178003, -0.111150, -0.045770, -0.079844, -0.012905, 0.080410, 0.086475, 0.015907, 0.112040, 0.214494, 0.071310, -0.053629, -0.107489, -0.172255, -0.199351, -0.240406, 0.056684, -0.076016, 0.054475, 0.156404, 0.080497, 0.065743, 0.117295, 0.126097, 0.032843, 0.171216, -0.058900, -0.014434, -0.068000, -0.245281, 0.125625, -0.104483, -0.076910, -0.202510, -0.166657, 0.131971, 0.140495, 0.032736, -0.070810, -0.272894, -0.035764, 0.043366, -0.078614, 0.040733, 0.181738, 0.149766, 0.062333, -0.032032, 0.121505, -0.089886, -0.009547, -0.330318, 0.031069, 0.123713, -0.000365, 0.041310, -0.015117, -0.207723, 0.054153, 0.082776, -0.252872, 0.149316, -0.054206, -0.178262, 0.041662, -0.150859, -0.031066, -0.180607, -0.019205, 0.181474, -0.097149, -0.106565, -0.102685, 0.194576, 0.284938, 0.171666, -0.021488, -0.206487, 0.110316, 0.027756, 0.161499, -0.046188, -0.001066, -0.180975, -0.070647, -0.063897, -0.120284, 0.162074, -0.167472, 0.167377, -0.289682, -0.046143, -0.119491, -0.044145, 0.046578, 0.132957, 0.030812, 0.135276, -0.219575, 0.140722, 0.191125, 0.043565, -0.014675, 0.303588, 0.044500, 0.127204, 0.057920, -0.139013, -0.205500, -0.062421, -0.071806, -0.089330, 0.072715, -0.049724, 0.065618, -0.024562, 0.096373, 0.211201, -0.089133, -0.076442, -0.143964, 0.093558, -0.170338, -0.077932, -0.165721, -0.277307, 0.030018, 0.148329, 0.115056, 0.168602, 0.062116, 0.002699, -0.046426, -0.236509, 0.076098, 0.078888, 0.096942, -0.189670, 0.008918, 0.218982, -0.055813, -0.079079, -0.022595, 0.030036, -0.090482, -0.135489, 0.149897, 0.166735, 0.220712, 0.048263, -0.002757, -0.008625, -0.175640, 0.222401, -0.050869, -0.127631, 0.154727, -0.113937, -0.037849, 0.212800, -0.221237, 0.068451, 0.054877, 0.071003, -0.245790, -0.030676, -0.093065, 0.207604, 0.038303, 0.252257, 0.015066, 0.218162, -0.047872, 0.212553, -0.014439, -0.051050, -0.040431, 0.035651, -0.001014, -0.034632, -0.070892, -0.116553, 0.131663, 0.220140, 0.021748, 0.018412, -0.050097, 0.013265, 0.173922, 0.029057, 0.108849, -0.228146, -0.145255, -0.188395, -0.015680, -0.043546, -0.103558, -0.008603, -0.104651, 0.220752, 0.159415, 0.057760, 0.007934, 0.004740, 0.029152, 0.067022, 0.056906, -0.143790, 0.143940, -0.025606, 0.054215, -0.002425, 0.006171, -0.140962, 0.216802, -0.057230, -0.013648, 0.137064, -0.155060, 0.102039, 0.029733, -0.068293, 0.050366, -0.099095, 0.188509, 0.058290, 0.044436, 0.186883, -0.101018, 0.006426, 0.217140, -0.001986, 0.117743, 0.025910, 0.109974, 0.031744, -0.187729, -0.396877, -0.019608, 0.194389, -0.093225, 0.038068, -0.054925, 0.000743, 0.137962, -0.163857, -0.035070, 0.097364, 0.113528, 0.196716, -0.065175, 0.029991, 0.111879, -0.176110, 0.101066, 0.091633, -0.111648, -0.277209, -0.051685, -0.119149, 0.084494, -0.086743, -0.298571, -0.089820, 0.167640, 0.086188, -0.031379, -0.129714, 0.156726, 0.039422, -0.052656, 0.016726, 0.120929, 0.146218, -0.070876, 0.010023, 0.081840, -0.156730, 0.180246, -0.019032, -0.024784, 0.052030, -0.015495, -0.163898, 0.119012, -0.022060, 0.141424, -0.327074, -0.048524, 0.089702, -0.037480, -0.169614, -0.008891, 0.061329, -0.141294, 0.322509, 0.097230, -0.007398, 0.169080, -0.000927, 0.328393, -0.067810, 0.027444, -0.202096, -0.112897, 0.261689, -0.000555, -0.134943, -0.140645, 0.110620, 0.294201, 0.137888, -0.131316, 0.054962, -0.046709, -0.044019, 0.119954, -0.375240, -0.212157, 0.143201, 0.161049, 0.289991, -0.091640, -0.009370, 0.001584, 0.217200, 0.287327, 0.001878, 0.181243, -0.072139, -0.030060, -0.012145, 0.067300, 0.152522, -0.084868, 0.137716, -0.002828, -0.215947, -0.275212, -0.163436, 0.148786, -0.180168, 0.325099, 0.137014, -0.007110, 0.168329, 0.271663, -0.114015, 0.311391, -0.397616, 0.014644, -0.030387, 0.206321, 0.057048, 0.012447, 0.033256, -0.058437, 0.166217, -0.079054, 0.177458, -0.163281, -0.124362, 0.363738, -0.207572, -0.013478, -0.214014, 0.039924, -0.109624, 0.191187, -0.211188, 0.269140, 0.022729, -0.108029, 0.060147, -0.011828, -0.057109, -0.094226, -0.187746, 0.051554, 0.022603, 0.120396, -0.185640, -0.156113, -0.032282, -0.118054, -0.067476, 0.017159, 0.077795, -0.020676, 0.072642, 0.149670, 0.098716, 0.159717, 0.039073, 0.033869, -0.081266, -0.081756, 0.041034, 0.011364, -0.043041, 0.051041, -0.103484, 0.076539, 0.078716, 0.203086, 0.196637, 0.090923, 0.171287, 0.020597, 0.052731, 0.210160, -0.371405, -0.128381, -0.097423, -0.012922, 0.148219, 0.032419, -0.024708, 0.152130, 0.097184, 0.213922, -0.191999, 0.033219, 0.172786, 0.054310, -0.092491, -0.096863, 0.109963, 0.006475, -0.169838, -0.141707, -0.077197, -0.001465, 0.001346, 0.108045, -0.353421, 0.067707, -0.013910, 0.053792, 0.101272, -0.023360, -0.087156, 0.123440, 0.012914, -0.033607, 0.050456, 0.072811, 0.284307, 0.124621, -0.254652, -0.225744, -0.064028, 0.129437, 0.014893, -0.048933, -0.245967, -0.008738, 0.072191, -0.062375, 0.068383, -0.018483, -0.137531, 0.083644, 0.048672, -0.130651, -0.325418, 0.130479, -0.100630, 0.181331, 0.067447, -0.001054, 0.017899, -0.161419, -0.063450, 0.271340, 0.036582, -0.001782, -0.029777, -0.092416, 0.092777, 0.076074, -0.090627, -0.016454, -0.122036, 0.177480, 0.070899, 0.036738, -0.073949, 0.029935, 0.175514, -0.186834, -0.127655, -0.033509, -0.064788, 0.069248, 0.078020, 0.016783, -0.031564, 0.228534, 0.071145, 0.059486, 0.013792, -0.140586, -0.113862, -0.131373, -0.147492, 0.052688, 0.147871, -0.015480, -0.105832, 0.080757, 0.047376, -0.030585, 0.173305, 0.165020, -0.123650, 0.059481, -0.125642, -0.033317, -0.032110, -0.013057, -0.143467, 0.064690, -0.030096, -0.106528, 0.036623, -0.142790, 0.182830, 0.163882, -0.225097, 0.086099, 0.105932, -0.274512, 0.104698, 0.004266, -0.317877, 0.110154, -0.196646, -0.045906, 0.027814, 0.157580, 0.057210, 0.026509, 0.130995, 0.011477, 0.053636, -0.021335, -0.100268, -0.072292, -0.128912, 0.145169, -0.000854, -0.033764, -0.148167, -0.034694, 0.116577, -0.108358, -0.009031, -0.015925, -0.150974, -0.144211, -0.087407, -0.078351, -0.038566, 0.005247, -0.079218, 0.005699, -0.085555, 0.018098, 0.169106, 0.261891, 0.031821, 0.024216, -0.108766, -0.086968, -0.008817, 0.023490, -0.238798, -0.007171, -0.101650, -0.140536, -0.088543, -0.029048, 0.050547, 0.007731, 0.117833, 0.239088, 0.074602, -0.062972, -0.037712, 0.035891, -0.128535, -0.000563, 0.049957, -0.016795, -0.029663, -0.079482, 0.081674, 0.125976, 0.211283, 0.022270, -0.123731, -0.042304, -0.002466, -0.036894, 0.014046, 0.112017, -0.137710, -0.038521, 0.055252, -0.038344, -0.002541, 0.011710, 0.075638, -0.025430, 0.140195, 0.175199, 0.185112, 0.067770, 0.018080, 0.144638, 0.036087, 0.020280, -0.136462, -0.078528, 0.048219, 0.036305, 0.099829, -0.123183, -0.025755, -0.066087, 0.316023, 0.072879, 0.163849, 0.019045, 0.048692, 0.067520, 0.136852, 0.003004, 0.067905, -0.092034, 0.094820, 0.010795, -0.023115, -0.018725, 0.073035, -0.076081, 0.122616, -0.086520, 0.088894, -0.108782, -0.155054, 0.172677, -0.061322, 0.058240, -0.090711, 0.167422, 0.017391, -0.100386, 0.074666, 0.095541, -0.062699, -0.156489, 0.032100, -0.020438, 0.025025, -0.173554, 0.070279, 0.005371, 0.401738, 0.138301, 0.093535, -0.070534, 0.014889, -0.059283, -0.065043, 0.031608, -0.172592, -0.014476, 0.055854, -0.020493, 0.052267, -0.097354, 0.031702, 0.025268, -0.143052, -0.209258, 0.070912, -0.051683, -0.106794, 0.037455, 0.145327, 0.061149, 0.082827, 0.099859, 0.050223, 0.086992, 0.035300, 0.012460, -0.035988, 0.216512, -0.084145, 0.134267, 0.040987, 0.131437, -0.023825, -0.139398, -0.222782, 0.008218, 0.244576, -0.094855, 0.236980, -0.034040, -0.072841, 0.138042, -0.180568, -0.053541, 0.196426, 0.011539, 0.157733, -0.138579, -0.059654, -0.015653, -0.090774, -0.141788, 0.065174, -0.100278, -0.302032, -0.023981, -0.031420, -0.095459, -0.115742, -0.045483, -0.072145, 0.160386, 0.005857, 0.063694, -0.077745, 0.125248, -0.117343, 0.039687, -0.082911, -0.002859, 0.077834, -0.117938, -0.028888, 0.104737, 0.020712, -0.072538, 0.086437, -0.019130, 0.008475, -0.077203, -0.244400, 0.091504, -0.101865, 0.041586, 0.026097, -0.031280, 0.063977, -0.039947, 0.145777, -0.023352, 0.070724, -0.126941, -0.137270, 0.014974, 0.000250, -0.130442, -0.065414, 0.106510, -0.100462, -0.033232, 0.091636, -0.003419, 0.196363, -0.037420, 0.213736, -0.001418, -0.148343, 0.048259, -0.209145, 0.097929, -0.100462, -0.022162, -0.047473, 0.082146, -0.066540, -0.079169, 0.123702, -0.058061, -0.143808, -0.096253, 0.074272, -0.004689, -0.042291, -0.023989, 0.003323, 0.061108, 0.062199, 0.012120, -0.053168, -0.106770, -0.099228, -0.057190, -0.112526, 0.269295, 0.071821, 0.042445, -0.035373, 0.126016, -0.071852, -0.112111, 0.010635, 0.087323, -0.058785, 0.132231, -0.095965, -0.105820, -0.020144, -0.005055, -0.071565, 0.033265, -0.186187, 0.051002, 0.082158, 0.223283, 0.288564, -0.010614, -0.188303, -0.097476, 0.091621, 0.141399, -0.007445, 0.026016, 0.021995, -0.151466, -0.082885, -0.138109, -0.039552, -0.212127, -0.128946, -0.240374, -0.072238, -0.019824, 0.037508, 0.092410, -0.058866, -0.078231, -0.055301, -0.293869, 0.087154, 0.219691, 0.046875, -0.037020, -0.007602, -0.073429, 0.172222, 0.129651, -0.056330, -0.190857, -0.011598, -0.099541, -0.014545, -0.241179, -0.014250, -0.136277, 0.126577, 0.085742, -0.193320, -0.106197, -0.078903, 0.187103, -0.005695, 0.018044, -0.125498, 0.025312, 0.046524, -0.036956, 0.029012, -0.223830, 0.197306, 0.179249, -0.211223, -0.044053, -0.099581, -0.007593, -0.003919, 0.084979, 0.089911, -0.185825, 0.105998, 0.118415, -0.005330, -0.025133, -0.118314, -0.097745, 0.110323, 0.033032, -0.125498, -0.101226, -0.168649, -0.063978, -0.054304, 0.002658, 0.190382, -0.034004, 0.191062, 0.164156, -0.132015, -0.150368, 0.280583, -0.110347, -0.000650, -0.128111, 0.033470, -0.192999, 0.146889, -0.005688, -0.227754, -0.032537, -0.014710, 0.137943, -0.237731, 0.286579, 0.071848, -0.042351, -0.015047, 0.061449, -0.022005, 0.114582, 0.041243, 0.096003, -0.041219, 0.030509, 0.274626, 0.113552, -0.056361, -0.107257, -0.059953, 0.019143, -0.056853, 0.028563, 0.015568, 0.066975, 0.120935, -0.008271, 0.021494, 0.026706, -0.089818, -0.104199, 0.005832, -0.077465, 0.020788, -0.084615, -0.005839, -0.034154, 0.005414, 0.191751, -0.025738, 0.122682, 0.014455, 0.087542, 0.023187, -0.112469, -0.120310, -0.128530, -0.040431, 0.061076, 0.109498, -0.117874, -0.056160, -0.096928, 0.112116, 0.051945, 0.012965, -0.042939, -0.120954, 0.057577, -0.095120, 0.069019, 0.023529, 0.112415, -0.118869, 0.163679, 0.140003, 0.017335, -0.124981, 0.089055, 0.032517, -0.024668, 0.019751, 0.070735, 0.088035, -0.143746, -0.159646, -0.109864, -0.009360, 0.008273, -0.069371, 0.127562, -0.047746, 0.050750, 0.088115, 0.081926, 0.042181, 0.126525, 0.296993, -0.001367, 0.244909, -0.032554, 0.166880, -0.084410, 0.084065, -0.099876, -0.002680, -0.006668, 0.143070, 0.211795, 0.063027, 0.008215, -0.112283, 0.002049, -0.037951, 0.012843, 0.150307, -0.014233, -0.248536, 0.083251, 0.214934, 0.053446, -0.001333, 0.065252, -0.127802, -0.104773, 0.212048, 0.056600, -0.211508, -0.029683, 0.180878, -0.019049, -0.080881, -0.042126, -0.149565, -0.115611, 0.247947, 0.113942, 0.286168, -0.059537, -0.187232, -0.127809, -0.028929, 0.043407, -0.113742, 0.025830, -0.162704, -0.270312, 0.023927, -0.081189, -0.155881, -0.018028, 0.033798, -0.104755, -0.109074, -0.006635, 0.314191, -0.103409, -0.149830, -0.099186, 0.021302, 0.106430, 0.093369, 0.062013, 0.228932, 0.043811, -0.118967, 0.097816, 0.145464, 0.193858, 0.020623, 0.161887, -0.014569, -0.116110, -0.098413, -0.063278, 0.289783, -0.050738, 0.109508, -0.044938, -0.164289, -0.096520, -0.184181, 0.088013, -0.010055, -0.075212, 0.256387, -0.044454, -0.035546, 0.122759, -0.165296, 0.260479, -0.282968, -0.031092, -0.289392, 0.074237, -0.041997, -0.092193, -0.025794, 0.017178, -0.032985, 0.024246, 0.112274, 0.093097, -0.098073, -0.036636, -0.227276, -0.124792, -0.235696, 0.136631, 0.133913, 0.136501, 0.049724, 0.175599, 0.072113, -0.122645, -0.091395, -0.137328, 0.025031, -0.050144, -0.115691, 0.138367, 0.091496, 0.186276, -0.217694, 0.033995, 0.094964, 0.037008, -0.003078, 0.058769, 0.008688, -0.120724, 0.024300, 0.275537, 0.091122, 0.156287, -0.093740, 0.046912, -0.049106, 0.085783, -0.037752, 0.025772, 0.080167, 0.047322, 0.099389, -0.044752, 0.038849, 0.132233, 0.155940, -0.113784, -0.137308, -0.106410, 0.167939, 0.206612, -0.309097, -0.089428, -0.178988, 0.011217, -0.014383, 0.061137, 0.082580, -0.105298, -0.066710, 0.242290, 0.010506, -0.022112, 0.066092, -0.042520, -0.015976, -0.010084, 0.186061, -0.101768, -0.012356, -0.037271, 0.067626, -0.016200, 0.105110, -0.092126, -0.265959, 0.141339, -0.102739, -0.002927, 0.120610, 0.078134, 0.150339, 0.126369, -0.129359, -0.045351, -0.085028, 0.161560, 0.020561, 0.022875, -0.110634, -0.153109, 0.125370, -0.127806, 0.089241, -0.233316, 0.113851, 0.002567, 0.020228, -0.098602, 0.163551, -0.137449, -0.232988, 0.132004, -0.217499, 0.113438, -0.146620, 0.141011, -0.056374, 0.276493, -0.029895, 0.123683, 0.009007, 0.267526, -0.085040, 0.149196, 0.059576, 0.057802, -0.070835, 0.140776, 0.090245, 0.074548, 0.139271, -0.236851, -0.397037, 0.177155, -0.038051, -0.092976, 0.031146, 0.062016, 0.029133, -0.041965, -0.073650, 0.015949, 0.055575, -0.084210, 0.154200, -0.097162, 0.090503, 0.058827, -0.045728, -0.007769, 0.006324, 0.078751, -0.023244, -0.030313, -0.320839, -0.025972, 0.320865, 0.041653, 0.030680, 0.081218, 0.231955, 0.108442, -0.092274, 0.215944, 0.123916, -0.208204, 0.149631, 0.228328, -0.119781, 0.057689, -0.110688, -0.111211, -0.373490, 0.069384, 0.185201, 0.074106, 0.070206, 0.033787, -0.319960, -0.216754, -0.012972, -0.014142, 0.079942, -0.236747, -0.011056, 0.051453, 0.066786, -0.065657, -0.167635, 0.224419, -0.004155, 0.111094, 0.007291, 0.011830, 0.113411, 0.066584, -0.061610, -0.100202, -0.032846, -0.114748, -0.027321, 0.033155, -0.087214, -0.312010, -0.160734, -0.059659, -0.077485, -0.153852, -0.304238, 0.002848, -0.019727, 0.080905, -0.110536, 0.227000, -0.204101, 0.083970, 0.175032, -0.029283, 0.227553, 0.108361, 0.111473, 0.354520, 0.079727, -0.007033, -0.133489, -0.204242, -0.157534, 0.237257, -0.007091, -0.027641, -0.073382, 0.207885, 0.081472, -0.223256, 0.103487, 0.163000, 0.100539, -0.101907, -0.093440, 0.012399, -0.128324, 0.120426, 0.154352, -0.045010, -0.009515, -0.073653, 0.157876, -0.044649, 0.051178, -0.216020, -0.207958, -0.176108, -0.101833, 0.052469, 0.048400, -0.069601, -0.092847, 0.055154, 0.138782, 0.022880, -0.002022, 0.166282, 0.202343, 0.051823, 0.087091, 0.023456, -0.136552, 0.149116, 0.033456, 0.104256, -0.034242, -0.245017, -0.057712, 0.023450, -0.248590, 0.054646, 0.172186, -0.024675, 0.160781, -0.072885, 0.187940, -0.132107, 0.127662, -0.026610, 0.059527, -0.021685, -0.021274, 0.012960, 0.124280, 0.020590, 0.019758, -0.041423, 0.199316, -0.043400, 0.000827, -0.030232, 0.156694, -0.160472, -0.071737, 0.059980, -0.248746, 0.042127, -0.002876, 0.059969, 0.054899, 0.095195, 0.014518, 0.110513, 0.107869, -0.067823, 0.076559, -0.102632, 0.107694, 0.029042, -0.010150, -0.060510, -0.008845, -0.118855, 0.078237, -0.093176, -0.095184, 0.065631, -0.011721, 0.031734, -0.006628, -0.000186, -0.035424, -0.045510, 0.026183, 0.097583, 0.073832, -0.073859, -0.019957, -0.102762, 0.000472, -0.073508, 0.123677, -0.170130, -0.060155, 0.041944, 0.139819, 0.108331, 0.098781, -0.052426, -0.187796, 0.089627, -0.116533, 0.016986, -0.081060, 0.160179, -0.149698, 0.128468, 0.071963, 0.096586, -0.024307, -0.066071, 0.095596, -0.091128, 0.080278, 0.016043, 0.060367, 0.080905, -0.100546, -0.020786, 0.029957, 0.049346, -0.034490, -0.058741, 0.048739, 0.019626, 0.102889, 0.025342, -0.012379, 0.068244, 0.208266, -0.103801, 0.103068, -0.038068, 0.142602, -0.070440, 0.077706, -0.086525, -0.025236, 0.018683, 0.161881, 0.075888, -0.012996, 0.112261, -0.264217, -0.063818, -0.030749, -0.054646, 0.085791, -0.064051, -0.075050, 0.120689, 0.070996, -0.042271, -0.078783, -0.014825, -0.042823, -0.006497, 0.179043, 0.112285, 0.041407, 0.103981, 0.171500, 0.122580, 0.052329, 0.069388, 0.004654, -0.080420, 0.119884, -0.301344, -0.131917, 0.206869, 0.219153, -0.040206, 0.012996, 0.123941, 0.042877, -0.091504, 0.091163, -0.121886, 0.160083, -0.065591, 0.083410, 0.023154, -0.137968, 0.103335, -0.063853, 0.050061, -0.138955, -0.096051, 0.023906, -0.067632, -0.075809, -0.123310, -0.038106, -0.054302, 0.028185, 0.044974, 0.067519, 0.077434, -0.123979, 0.003982, -0.235774, 0.145314, 0.104881, 0.127899, 0.168937, 0.000143, -0.026714, 0.024084, -0.390995, 0.111850, 0.279941, 0.139044, 0.020806, -0.021447, 0.187248, 0.006395, 0.093610, 0.088170, 0.114741, 0.057620, 0.066756, -0.186683, 0.030607, -0.063136, 0.094048, -0.031817, -0.200842, 0.110817, -0.033193, 0.100664, 0.145923, 0.055683, -0.124711, -0.031741, 0.065033, -0.004770, 0.077443, -0.084441, 0.072553, -0.045041, -0.282173, 0.077640, -0.079575, -0.170428, -0.149954, -0.220983, 0.045861, 0.117450, -0.069924, 0.215410, 0.147080, -0.223613, -0.116446, -0.240025, -0.186185, 0.129169, 0.105321, 0.166067, -0.182928, -0.082015, 0.130609, 0.066260, -0.000283, 0.086535, 0.002790, 0.060845, -0.035442, -0.200265, 0.246663, -0.303423, 0.221984, -0.045186, -0.312440, -0.101237, -0.134547, 0.144321, -0.135114, 0.158751, 0.137850, 0.034869, 0.125098, 0.073874, 0.281318, -0.354494, 0.130986, 0.234674, -0.246997, -0.014962, -0.068390, 0.010904, 0.106506, 0.049733, 0.027610, -0.132900, -0.127874, 0.193888, -0.124991, -0.053066, -0.056988, -0.064720, -0.053549, 0.245455, -0.244086, -0.104008, -0.150305, -0.086196, -0.175287, 0.007909, -0.003719, 0.064102, 0.109431, -0.038581, 0.278440, 0.138729, -0.019613, 0.303110, 0.144289, -0.060594, -0.150129, -0.026645, 0.191818, 0.149153, -0.487697, 0.121275, -0.398551, 0.007483, -0.050207, 0.393589, 0.070522, -0.056427, -0.016017, -0.030252, 0.042913, 0.057291, 0.280559, -0.016414, 0.140993, 0.061750, -0.147123, 0.249876, -0.000948, -0.107606, 0.017939, -0.294497, -0.056524, -0.187758, -0.056431, 0.086210, 0.069845, 0.008699, -0.007095, 0.044292, -0.119003, 0.010811, -0.123537, -0.113824, -0.060832, 0.090489, -0.169895, -0.052710, 0.004509, -0.020707, 0.285013, 0.016292, -0.077052, 0.061120, -0.019576, -0.128249, -0.172168, -0.094988, 0.016282, 0.166062, 0.053961, 0.049031, 0.077005, 0.021447, 0.041560, 0.034658, 0.098474, 0.039078, -0.067110, -0.156558, -0.006793, -0.063945, 0.056507, -0.041973, 0.054315, 0.145999, 0.009505, -0.003214, -0.151347, 0.195807, 0.127263, 0.003328, -0.001424, 0.111994, -0.010590, 0.004118, -0.051635, 0.048437, -0.133302, -0.005394, 0.014161, 0.032568, 0.113488, -0.065561, 0.155126, -0.021013, -0.131077, 0.184234, 0.074080, 0.009849, -0.097166, -0.021489, 0.120740, -0.212525, -0.043993, 0.075155, 0.008759, -0.103433, -0.028276, 0.001647, 0.046848, 0.046343, -0.037405, 0.071607, -0.079601, -0.029542, 0.152334, 0.046618, 0.033797, 0.261720, 0.104102, 0.106957, 0.049623, -0.026789, -0.062388, -0.084064, -0.024632, 0.079343, -0.301846, -0.082848, 0.264608, -0.077982, -0.011752, -0.171068, -0.266165, -0.014989, 0.108117, 0.149787, 0.193549, -0.261848, -0.158735, -0.076178, -0.008787, -0.243238, -0.145876, 0.235102, -0.110428, -0.197458, -0.170479, 0.011862, 0.015387, 0.154304, 0.196059, -0.268115, -0.127235, -0.049480, 0.228524, -0.002058, -0.158717, 0.162687, 0.193814, -0.041039, 0.074803, -0.152132, 0.063145, -0.077588, 0.078112, 0.043618, 0.132410, 0.190569, -0.150565, 0.038402, 0.018165, -0.148026, -0.153957, -0.063335, 0.145670, -0.186371, -0.036849, -0.033036, 0.085143, 0.018743, -0.078307, 0.185634, 0.045152, -0.210846, 0.170733, -0.109731, -0.197366, 0.148494, -0.243252, 0.056711, 0.431407, 0.086727, -0.038715, 0.041758, -0.042432, -0.026549, -0.083940, 0.245993, -0.078902, 0.276657, 0.215953, 0.226596, -0.099358, 0.026587, 0.056583, -0.079307, -0.077661, -0.081234, 0.136390, -0.069824, 0.431007, -0.213960, -0.340742, -0.058147, -0.075373, -0.188469, 0.019918, -0.127115, 0.053150, 0.080720, -0.103728, 0.052175, 0.060739, 0.083682, 0.048015, 0.002843, 0.101202, -0.063690, -0.124066, 0.002049, -0.026099, 0.143977, -0.025362, -0.123054, 0.061038, -0.053951, -0.021605, 0.038086, -0.014102, 0.197354, 0.000942, -0.122736, -0.001252, 0.050209, 0.020044, -0.025458, 0.081649, 0.078230, -0.091176, -0.033529, 0.073988, 0.094202, -0.190797, 0.001894, 0.045922, 0.057291, -0.056736, -0.113059, -0.039917, 0.092360, 0.000417, 0.083970, 0.103109, -0.058095, 0.108615, 0.092986, -0.047271, 0.053704, -0.028753, 0.014308, -0.077235, -0.056567, 0.008366, 0.052008, 0.097294, -0.145757, -0.100844, 0.018695, 0.082196, 0.009530, 0.054494, -0.064001, 0.085653, 0.028360, -0.184539, -0.052995, -0.175721, 0.018124, 0.009157, -0.036503, 0.086780, -0.031886, 0.168256, -0.080299, 0.142908, -0.235528, -0.001540, 0.037116, 0.048832, -0.025854, 0.055236, -0.123380, -0.062063, -0.049131, -0.169992, 0.067143, -0.071979, 0.070334, -0.089430, 0.069512, 0.020446, 0.133787, -0.033234, 0.266275, 0.165178, 0.258943, -0.051560, -0.072067, 0.146305, 0.050695, 0.100303, -0.037215, 0.178659, -0.288832, -0.106188, 0.168235, 0.194411, -0.004583, 0.023323, 0.197901, -0.014827, -0.247312, 0.027358, 0.138536, 0.074492, -0.028435, 0.165808, -0.129506, -0.154534, -0.030241, -0.064098, -0.070664, -0.177180, -0.062534, 0.142913, -0.078822, -0.327083, -0.101535, 0.067302, 0.000066, -0.060624, 0.036089, -0.051008, 0.199595, -0.153940, 0.203736, -0.308718, -0.059059, 0.094038, 0.087929, 0.089695, -0.021625, -0.010521, -0.003676, -0.531168, 0.313572, 0.226231, -0.016667, 0.293842, -0.052621, -0.077101, 0.158525, -0.041276, -0.079784, -0.012774, -0.038978, 0.118042, -0.101253, -0.159585, 0.041543, 0.013381, 0.178528, -0.286154, 0.112668, -0.077396, -0.024657, 0.215168, 0.091918, 0.078846, -0.265844, 0.008411, 0.104579, -0.087625, -0.056049, 0.068743, -0.097179, -0.366143, 0.066025, -0.211168, -0.088543, -0.335887, -0.167718, 0.033422, 0.068767, 0.072220, 0.229055, -0.031013, -0.137546, 0.061220, 0.044414, 0.010921, 0.064616, 0.087464, 0.292801, -0.108219, -0.070634, 0.055454, -0.121398, -0.089356, 0.142671, 0.077764, 0.035749, 0.060351, 0.134081, 0.203678, -0.423158, 0.106606, 0.007485, -0.077601, 0.058192, -0.100007, -0.205422, -0.086906, 0.260396, 0.206986, -0.042199, -0.109575, 0.045506, 0.234163, -0.237248, 0.005902, 0.076385, -0.342937, -0.106315, -0.128327, 0.008774, -0.053096, 0.090353, -0.074110, 0.027612, -0.062393, 0.085850, -0.155842, 0.130596, 0.195137, 0.028627, 0.146601, 0.278769, -0.000617, -0.007175, -0.116122, -0.043563, -0.069365, -0.150400, -0.109375, 0.296264, -0.014450, 0.024924, 0.245366, 0.044001, 0.233492, 0.057972, -0.062903, -0.043934, 0.006150, -0.110355, -0.002179, -0.149365, -0.255331, -0.172062, -0.222734, -0.058123, -0.045394, -0.137736, 0.028950, -0.039781, -0.094245, 0.083639, 0.155429, 0.100646, 0.010410, 0.117191, -0.359817, 0.241720, 0.029085, 0.029877, -0.027902, 0.175665, -0.026567, -0.185440, 0.083018, -0.142106, -0.015298, 0.142368, 0.248782, -0.026937, -0.113652, 0.164727, -0.148113, 0.016365, -0.039224, -0.103165, -0.079044, 0.113131, -0.170491, -0.036695, -0.066148, 0.034552, 0.102029, -0.074797, -0.123575, -0.010701, 0.040212, 0.059432, -0.190030, -0.148087, 0.033703, 0.119123, 0.064379, -0.027319, 0.097999, -0.006572, -0.024432, -0.018125, 0.016832, -0.062877, -0.079169, -0.142309, -0.067713, -0.003658, 0.034139, 0.055676, 0.095956, 0.013739, 0.174073, 0.044321, -0.164984, 0.214929, 0.130476, -0.020359, 0.012265, 0.140320, 0.020139, -0.130332, -0.029091, -0.027546, -0.095917, -0.183520, -0.154997, 0.046231, 0.095408, 0.061356, 0.151380, 0.004950, -0.024592, 0.134445, 0.121336, -0.077130, -0.024657, -0.040236, 0.287760, -0.082433, -0.126482, 0.032720, -0.116076, -0.141733, 0.084674, 0.015931, 0.043842, 0.091958, -0.037613, 0.078688, -0.008963, 0.018986, 0.159285, 0.160801, -0.261511, 0.267996, 0.008506, 0.155332, 0.007825, 0.048842, 0.038647, 0.032763, 0.227054, -0.097335, 0.196055, 0.130855, 0.120967, 0.067431, 0.051403, -0.035163, -0.235534, 0.043069, 0.000823, -0.113184, -0.018844, 0.175715, 0.115855, -0.095244, -0.061938, 0.238495, -0.068521, -0.146409, 0.201019, -0.166593, -0.061879, 0.071419, 0.064804, -0.146638, -0.023247, 0.081465, 0.059434, -0.072693, -0.180725, 0.023786, 0.159527, -0.047421, -0.057092, -0.069975, -0.091686, -0.058758, 0.153280, 0.009199, -0.097254, 0.221577, -0.069264, 0.095476, -0.311568, 0.110268, -0.207706, -0.077955, 0.243377, -0.032771, 0.009039, 0.233738, -0.218260, 0.263608, 0.087687, -0.104412, -0.024689, -0.072696, -0.009419, 0.231566, 0.289065, -0.020488, 0.101426, 0.095458, -0.142108, -0.104980, -0.107915, 0.033334, 0.033210, -0.060494, 0.041516, 0.133608, 0.020654, -0.117534, 0.145827, 0.056498, -0.058431, -0.205437, -0.162608, 0.025503, 0.030359, -0.102470, 0.020939, 0.215788, -0.222511, 0.013292, -0.278491, 0.164885, -0.088995, -0.150958, 0.012736, 0.059812, -0.100457, -0.033537, 0.042617, -0.133088, 0.102179, -0.132858, -0.003962, 0.176649, 0.181356, 0.369885, -0.388203, -0.020794, 0.177819, -0.188327, 0.037152, 0.127717, -0.293453, 0.101997, -0.070155, -0.128303, 0.205964, -0.426528, 0.036409, -0.054669, -0.102103, -0.029624, -0.140798, -0.091124, -0.314840, 0.127393, 0.253115, -0.004360, 0.004150, -0.016331, 0.323092, -0.332275, 0.303400, 0.037351, -0.000388, -0.069937, -0.192948, -0.117494, 0.078713, 0.000860, 0.013832, 0.090705, -0.009696, 0.043801, -0.157690, 0.044827, 0.296620, -0.013027, 0.077055, 0.212904, -0.092017, 0.008934, -0.109038, -0.303475, -0.261216, -0.071532, -0.010247, -0.041041, -0.051165, -0.004844, 0.286688, 0.104298, -0.038124, 0.282046, 0.084344, -0.083288, -0.040869, 0.046289, 0.263190, -0.188908, -0.160626, 0.021250, -0.366347, -0.122861, 0.152488, 0.184824, 0.044317, -0.210523, -0.287083, 0.038190, 0.043633, -0.044781, 0.304316, 0.215720, -0.132662, -0.004525, -0.038443, 0.121550, -0.071145, 0.192720, -0.091831, -0.262583, 0.016579, 0.063702, -0.035792, -0.024021, 0.197244, -0.045356, 0.050367, 0.124810, -0.115922, 0.003211, 0.064407, -0.035431, -0.160131, -0.004301, -0.165076, 0.081661, -0.071753, 0.035339, 0.038241, 0.015332, 0.026762, 0.015462, -0.021910, -0.108265, -0.110966, 0.063769, -0.020823, 0.081052, 0.009579, -0.026853, 0.088328, 0.069256, 0.125834, 0.129730, -0.023873, -0.046225, 0.000719, 0.036663, 0.073563, 0.051974, 0.138646, 0.098463, 0.101193, 0.151177, -0.163480, 0.073776, -0.054268, 0.195209, -0.130406, 0.056886, 0.040769, 0.030707, -0.119698, -0.114631, -0.110132, 0.065360, -0.153667, -0.012668, -0.110146, -0.078286, 0.021903, -0.163296, -0.011998, 0.088600, 0.033805, 0.149787, 0.101967, 0.010450, 0.121461, 0.081454, -0.275388, 0.026270, -0.143265, 0.049711, -0.110435, -0.011046, -0.030329, -0.000958, 0.065035, 0.011001, -0.018899, -0.035387, -0.051657, 0.031638, 0.022903, 0.085566, 0.002543, -0.057208, -0.161490, -0.101238, -0.040610, 0.133148, 0.084661, -0.088107, 0.209973, 0.203708, -0.233406, 0.019298, 0.060804, 0.019270, -0.059625, -0.119861, -0.239424, 0.050587, 0.121415, 0.070981, -0.024053, -0.092123, 0.163523, 0.060025, -0.101325, -0.119533, -0.321911, 0.235479, -0.013885, -0.316454, 0.021335, -0.076977, -0.136033, 0.328685, 0.047213, -0.038451, -0.133483, -0.063111, 0.080524, -0.012881, -0.319157, 0.126828, -0.082687, -0.070611, 0.282110, -0.179784, 0.194663, 0.034698, -0.013986, -0.030751, 0.056274, 0.066978, -0.012278, -0.052303, 0.287873, 0.004296, 0.011409, -0.021414, -0.036085, -0.279683, 0.092785, -0.166216, 0.003104, 0.043209, -0.104723, 0.127321, 0.107675, -0.212684, 0.241864, 0.075763, -0.223371, 0.089852, 0.115932, 0.055392, 0.321916, -0.097720, -0.177852, 0.135078, -0.058592, 0.018272, -0.099643, 0.133167, -0.141104, 0.226842, 0.323142, 0.114600, -0.081903, -0.143982, -0.044684, 0.012251, -0.001179, 0.097594, -0.058125, 0.071878, 0.251918, -0.317943, -0.253857, -0.062008, 0.051489, -0.124120, -0.052375, 0.069892, -0.004087, 0.095459, -0.097359, 0.122878, 0.058006, -0.081381, -0.082592, 0.051670, 0.055270, 0.055517, 0.135510, 0.036434, -0.133656, 0.015233, -0.121322, 0.045825, -0.056251, 0.000385, 0.110332, 0.030675, 0.029284, 0.098360, 0.058746, 0.021450, -0.125156, 0.142556, 0.020426, 0.021120, 0.030982, -0.049087, -0.010495, -0.116067, -0.070668, 0.219126, -0.107617, -0.059982, 0.053226, -0.070016, -0.036272, 0.037379, 0.056696, 0.021054, -0.004758, 0.094087, -0.001486, 0.025257, 0.186442, 0.213744, -0.096449, 0.026427, 0.079589, -0.174806, -0.052524, -0.192438, -0.118763, 0.102968, -0.040292, -0.127077, -0.146002, -0.008871, -0.066661, -0.058066, -0.063458, 0.039460, 0.167874, 0.082700, 0.156245, -0.031908, 0.031494, -0.083529, -0.170043, 0.001529, -0.031602, 0.026682, 0.090114, 0.072831, -0.111545, 0.093628, 0.144282, -0.054891, -0.171166, -0.049308, 0.113730, 0.016606, -0.027085, 0.064058, 0.119474, -0.129592, -0.056591, 0.004814, 0.040111, 0.090751, -0.082956, 0.119977, 0.140291, 0.006209, 0.172867, 0.301123, 0.047015, -0.139506, 0.057777, -0.141016, -0.200889, -0.009963, 0.006244, -0.120199, -0.069869, 0.033112, 0.329921, -0.031713, -0.032380, 0.146918, 0.081549, -0.397390, 0.158048, 0.057532, -0.087522, 0.032124, -0.015503, 0.017453, 0.028598, -0.031534, 0.148804, -0.075512, -0.047547, -0.029623, 0.007549, -0.288532, -0.042279, -0.038070, -0.084378, 0.001108, 0.250158, -0.096995, -0.083847, 0.129223, -0.084198, -0.026291, -0.218115, -0.130208, 0.068160, -0.032558, 0.088037, 0.053247, 0.057388, 0.079246, 0.090699, 0.177117, 0.024777, -0.020796, 0.078040, 0.000913, -0.028279, 0.145526, 0.193207, 0.006085, 0.093314, -0.052240, 0.046478, -0.116810, 0.021971, 0.013909, 0.082552, -0.060374, -0.106076, 0.112526, -0.066098, -0.017477, 0.155694, 0.214689, 0.029396, -0.181129, -0.069559, 0.215740, -0.039238, 0.042764, -0.077650, 0.036910, -0.127906, -0.085858, -0.218526, 0.147288, -0.159508, -0.063516, -0.087281, 0.038968, -0.036981, 0.002371, 0.084608, -0.155479, -0.038249, 0.079618, -0.068885, 0.156639, 0.025569, 0.200739, -0.071158, -0.080023, -0.033162, -0.186166, -0.154158, 0.074114, 0.052533, 0.026598, 0.015208, -0.050593, -0.007132, -0.284875, 0.110265, 0.142209, -0.083978, -0.052394, -0.111413, 0.012594, -0.119213, 0.135811, 0.139565, 0.041563, 0.033581, 0.040469, 0.176049, -0.133011, -0.068657, 0.128339, -0.188035, -0.068008, -0.173087, -0.116864, 0.058800, 0.098278, 0.056447, 0.101788, -0.047628, 0.078061, 0.081382, -0.037699, 0.105392, -0.100847, 0.117396, 0.014327, -0.045593, -0.047748, -0.047852, -0.031604, 0.114475, -0.154930, -0.154933, 0.038961, -0.022435, 0.112819, 0.115804, 0.092962, 0.167330, 0.081192, 0.025370, -0.102195, -0.040259, 0.024436, -0.160776, 0.078515, -0.061385, -0.032721, -0.126479, 0.006638, 0.088714, 0.003051, -0.024236, -0.197107, -0.020193, 0.018367, 0.075720, -0.019024, 0.171067, 0.054882, -0.141649, -0.095658, 0.018082, -0.026502, -0.096254, 0.150880, -0.099992, -0.205677, -0.119319, 0.081119, -0.016216, -0.011122, 0.157614, -0.048691, 0.146646, 0.116839, 0.024489, 0.045219, 0.135665, -0.099050, 0.006093, -0.080601, -0.185852, 0.010473, 0.066930, -0.105366, 0.119718, 0.023340, -0.044196, 0.028363, 0.092526, -0.083293, -0.012793, -0.085352, -0.066760, 0.013552, -0.039887, -0.022533, 0.096354, -0.047303, -0.065162, -0.001685, -0.016485, 0.007108, -0.079199, -0.077772, 0.010674, -0.082539, 0.017073, 0.041883, 0.173848, 0.046302, 0.031469, 0.096057, 0.040328, 0.055299, -0.010856, 0.006699, 0.153603, -0.114564, 0.008258, -0.067610, -0.018555, 0.001318, -0.005123, -0.054577, -0.129133, -0.009458, 0.020261, -0.107569, 0.108644, 0.121431, 0.006315, 0.007468, 0.202980, -0.017012, -0.026739, 0.035705, -0.103377, -0.146193, -0.166637, -0.036718, -0.107595, -0.088495, 0.110272, -0.160040, 0.103734, 0.090414, 0.049061, 0.061773, -0.141486, 0.014975, 0.188755, 0.107313, -0.019716, 0.002089, 0.052026, -0.087460, 0.023433, 0.109214, -0.031928, 0.007442, 0.237020, -0.198583, 0.018139, 0.217920, 0.121259, 0.017153, -0.060126, -0.080564, -0.313490, -0.012307, -0.020920, -0.054110, 0.283128, 0.051464, 0.128498, 0.007190, -0.047997, 0.158139, 0.065023, 0.039275, -0.065309, -0.026052, 0.004700, 0.053389, -0.114051, -0.056073, 0.193788, 0.116379, -0.010604, 0.083116, 0.017035, -0.046721, 0.002614, -0.080825, -0.028226, 0.110657, -0.308857, -0.067190, 0.284870, -0.103512, -0.161397, 0.021495, 0.097508, 0.009337, -0.376229, 0.005284, -0.135121, -0.034517, 0.122586, 0.040326, -0.018417, -0.009454, 0.043678, 0.022473, 0.213270, -0.347339, -0.029844, -0.005305, -0.037679, 0.100473, 0.347009, 0.050789, 0.149870, 0.064227, -0.044080, 0.136520, -0.009700, -0.042159, 0.031472, 0.017920, -0.091534, 0.150476, -0.122800, 0.042947, 0.116489, 0.099019, -0.015596, -0.110174, -0.179200, 0.310096, 0.024575, 0.059962, -0.104146, 0.154808, -0.030314, -0.101628, -0.041437, 0.130831, -0.074391, -0.065039, 0.017009, -0.111274, 0.081566, -0.111489, -0.002560, -0.221502, 0.176646, -0.010294, -0.181837, 0.244121, -0.021187, 0.305971, -0.079017, -0.058416, -0.069830, -0.078304, -0.083528, 0.097917, -0.122920, 0.101016, -0.013191, -0.134811, 0.177636, -0.386375, 0.244049, 0.161097, -0.004839, -0.068988, -0.181489, -0.142851, -0.169585, 0.107431, 0.176031, 0.145226, 0.020069, -0.041289, 0.268082, -0.258583, -0.077308, 0.044682, -0.200807, 0.000265, -0.112466, -0.019393, 0.060943, 0.050046, 0.108905, 0.312139, -0.206735, 0.093994, -0.262956, 0.110954, 0.060319, 0.081953, 0.104115, 0.369792, 0.065691, -0.099328, 0.049334, -0.187617, 0.012541, -0.175768, -0.027150, 0.069447, 0.090981, 0.150633, 0.279176, -0.017976, 0.056912, 0.124522, 0.110097, -0.127623, -0.004368, -0.217014, 0.010698, -0.064618, -0.278999, 0.029494, -0.178282, -0.116870, 0.122304, 0.024119, 0.243065, -0.046614, 0.052667, -0.106646, -0.060372, 0.025799, 0.141585, 0.089348, -0.244688, 0.139767, -0.150796, 0.133059, -0.072589, 0.072783, 0.073677, -0.294960, 0.049911, 0.129590, -0.159069, 0.141893, 0.223608, 0.047357, -0.014345, -0.010559, -0.141148, -0.041109, 0.136241, -0.124029, -0.220741, 0.079267, 0.105208, 0.198439, -0.040223, -0.026335, -0.056614, -0.093076, 0.017353, -0.082640, 0.165264, -0.000432, -0.178144, 0.156618, 0.092856, -0.075685, -0.126418, -0.247862, 0.062250, -0.104198, 0.021703, -0.189137, 0.014114, -0.135366, 0.077178, 0.080562, 0.123089, -0.051195, -0.017602, 0.162015, 0.004986, -0.022618, 0.055031, -0.020485, 0.046234, -0.006844, 0.018844, -0.037950, -0.026287, -0.077152, -0.100785, -0.234434, -0.155276, 0.084295, -0.164382, 0.152380, -0.119506, 0.078211, 0.035032, -0.053589, -0.118760, -0.035118, 0.198771, -0.036409, 0.105670, 0.022211, -0.260566, 0.094501, -0.203611, -0.046552, -0.111596, 0.150693, 0.089784, -0.054708, 0.060205, 0.028878, -0.051840, -0.087305, -0.048532, 0.038095, 0.005557, 0.094057, -0.014368, 0.027257, -0.058875, -0.003975, -0.091043, -0.060324, 0.030329, 0.219722, -0.059823, 0.122825, -0.068663, 0.270472, -0.254662, 0.211755, 0.197739, -0.318823, -0.324646, -0.059953, -0.181636, -0.009643, -0.214597, 0.227039, 0.368578, 0.070701, 0.103128, -0.002150, -0.017002, 0.227248, -0.237840, 0.061010, -0.339132, -0.260024, 0.257515, -0.020861, 0.137095, 0.408247, 0.338940, -0.052280, -0.226552, -0.161911, 0.106377, -0.127658, -0.232039, 0.378474, 0.121349, -0.270614, 0.167096, -0.173484, 0.328896, -0.097564, 0.101527, -0.131439, 0.023089, 0.057538, 0.031313, -0.058696, 0.134867, 0.016447, -0.132058, -0.023152, -0.106063, -0.348854, 0.142515, -0.058897, 0.094200, -0.083807, 0.114633, 0.038899, -0.174421, 0.006950, 0.265968, 0.235813, -0.156030, -0.063715, -0.187435, 0.087733, 0.311152, -0.056277, 0.005679, 0.409917, -0.044031, -0.005707, -0.067366, 0.133460, 0.294923, 0.002400, 0.435279, -0.132246, -0.132962, 0.240536, 0.239169, 0.003551, -0.137731, 0.005421, -0.080782, -0.006024, 0.251776, 0.007121, -0.200996, 0.069443, 0.074061, -0.237942, -0.028340, 0.042975, 0.166488, 0.199699, -0.117622, 0.270131, -0.018817, -0.125701, -0.104979, -0.075028, 0.031208, -0.017759, 0.021623, -0.137649, -0.135600, 0.042087, 0.098899, 0.143830, 0.026307, 0.066579, -0.099834, -0.287087, -0.022691, 0.082295, 0.003961, 0.076319, -0.172610, 0.105172, -0.061852, 0.020085, -0.039185, -0.080019, 0.040797, -0.074092, 0.048073, -0.244183, -0.132850, 0.014518, 0.132206, -0.015204, 0.096803, -0.055415, 0.013748, 0.096980, 0.049689, 0.074813, -0.026243, -0.078022, 0.205152, 0.030597, 0.028734, -0.074971, -0.030756, -0.120339, -0.106965, -0.100393, -0.032483, -0.000556, -0.018498, -0.050156, -0.038298, 0.034835, -0.014792, 0.037399, 0.030854, 0.020625, 0.182265, 0.029801, 0.080833, -0.016722, -0.167206, 0.107759, -0.147258, -0.100182, -0.156273, 0.048868, -0.037677, 0.131774, 0.022662, 0.070108, -0.032051, 0.001348, -0.217557, -0.103162, 0.136453, 0.019966, -0.017351, 0.053110, -0.063154, -0.136059, -0.113782, -0.140847, 0.091413, 0.069058, -0.044288, -0.017820, -0.109407, -0.170091, 0.041667, 0.170199, 0.180881, -0.258886, -0.172941, -0.065064, -0.133240, 0.101468, -0.264792, -0.051181, 0.090927, 0.131913, 0.305796, 0.146818, -0.023491, 0.059665, 0.055656, -0.131776, 0.051737, -0.030614, 0.006881, -0.086912, -0.033767, 0.187001, 0.207133, 0.153314, 0.039040, -0.122946, 0.117887, -0.080417, 0.003303, 0.051879, -0.033225, -0.247035, -0.266124, 0.012526, 0.189713, -0.002415, -0.103031, 0.055807, 0.065627, -0.009430, -0.192906, -0.066901, 0.085106, -0.026968, -0.027183, -0.034113, -0.034121, 0.004203, 0.083826, 0.008372, 0.212530, -0.122562, 0.276685, 0.249980, -0.339509, 0.078445, 0.145297, -0.044882, 0.158684, -0.080352, 0.141759, 0.126359, 0.193543, 0.027558, 0.146832, 0.307103, 0.074157, 0.194602, -0.060313, 0.118552, 0.013170, -0.130443, 0.094537, 0.075023, -0.166382, -0.001194, 0.119116, -0.027235, -0.142570, 0.053145, -0.006718, -0.102163, -0.035171, -0.091967, -0.165890, -0.102074, 0.021176, -0.010145, -0.064140, -0.145986, 0.094721, 0.022851, -0.027720, 0.033757, -0.140733, 0.007021, 0.000052, -0.046247, -0.074054, -0.048205, 0.001065, -0.138759, -0.037291, 0.134503, 0.139733, 0.151933, -0.020869, -0.096773, 0.042386, -0.224949, 0.037045, 0.162164, -0.169166, 0.051274, 0.003075, 0.062553, 0.022024, -0.027810, 0.063549, -0.033007, 0.099122, 0.024484, -0.028950, -0.150249, 0.031581, -0.156140, -0.009559, 0.145313, 0.020755, -0.088573, 0.011906, 0.078401, 0.157212, 0.122088, -0.139087, -0.026271, 0.146805, -0.116900, -0.078861, 0.048842, -0.036174, -0.025538, 0.052086, -0.126038, -0.167913, 0.120135, 0.073864, 0.162115, -0.142737, -0.049624, 0.040467, 0.008300, 0.165868, 0.093578, 0.257745, 0.093625, -0.235036, 0.018903, -0.032823, 0.165524, 0.002493, 0.086268, -0.032435, -0.029983, -0.036620, 0.080159, 0.063086, 0.154192, -0.008035, -0.132351, -0.163937, 0.048652, 0.088111, 0.122534, -0.004707, -0.025806, -0.168542, -0.310304, -0.111991, -0.052780, 0.036970, 0.053865, 0.018822, -0.024638, -0.131456, 0.204242, -0.171961, 0.178258, 0.219252, 0.052635, 0.051173, 0.082569, -0.076671, -0.034495, 0.197441, -0.045631, -0.125487, -0.031921, 0.013293, 0.104863, -0.032657, -0.009914, -0.071993, -0.101144, -0.019182, 0.022373, 0.051173, -0.049137, -0.186478, 0.037875, 0.002375, 0.048941, 0.025331, -0.070978, -0.060885, 0.063508, -0.144892, -0.047778, 0.046509, 0.016055, 0.017828, -0.106316, 0.061336, 0.003056, -0.020594, 0.132287, 0.071383, -0.024552, -0.067596, 0.061193, 0.024457, 0.073884, -0.009368, 0.057735, 0.080730, -0.127858, -0.003855, -0.155867, 0.025451, 0.087222, -0.158729, -0.131386, -0.148926, -0.047769, 0.062942, 0.008318, 0.044831, 0.085393, 0.213367, 0.155294, 0.150176, 0.028575, -0.197699, 0.023347, -0.152314, -0.072256, -0.242549, -0.023313, -0.025890, 0.034315, 0.036044, -0.030287, 0.097846, -0.044462, -0.082478, -0.105881, 0.038408, 0.099812, 0.141194, 0.077360, 0.006068, -0.106624, -0.094727, -0.008535, 0.031063, 0.168141, -0.091382, 0.182762, -0.012575, -0.023464, 0.265978, 0.163653, 0.056115, -0.091782, 0.093561, -0.126942, -0.077142, -0.092611, -0.010100, -0.015942, 0.164752, 0.040073, 0.002908, 0.041528, 0.029534, 0.078902, 0.031710, -0.098414, -0.024757, -0.135256, -0.028706, -0.000456, 0.068622, -0.006771, -0.011902, -0.058918, -0.011905, -0.197548, 0.081608, 0.062896, 0.055113, -0.064902, -0.167148, -0.069519, 0.047239, -0.137106, -0.061897, -0.033584, -0.186637, 0.023457, 0.091080, 0.130882, -0.119562, 0.011185, 0.011317, -0.165379, -0.178436, 0.039523, -0.086655, 0.102172, 0.082724, 0.049311, -0.083274, -0.147221, -0.066444, 0.109128, -0.218142, 0.147746, 0.100689, -0.102594, -0.056629, 0.053403, 0.025323, -0.010172, 0.091136, -0.073417, -0.112287, -0.051632, -0.035168, -0.000155, 0.056072, -0.007504, 0.203897, 0.019924, 0.123455, -0.147451, 0.042970, 0.102431, -0.062167, 0.011868, -0.214470, -0.067105, -0.068637, -0.022850, -0.105367, -0.060714, -0.114551, 0.078038, -0.062334, -0.042524, 0.042623, 0.126535, -0.056498, 0.008188, 0.056956, -0.278637, 0.177005, 0.097182, 0.110930, 0.007863, -0.084718, -0.080454, 0.173026, 0.069258, -0.028217, 0.034500, 0.006860, 0.023281, 0.042135, -0.234691, -0.080945, 0.129156, -0.079509, -0.186218, -0.091766, 0.025652, -0.002810, 0.187888, -0.141551, 0.214731, -0.069569, 0.015688, 0.034978, 0.045360, 0.079798, 0.006756, -0.227096, -0.031875, 0.071724, -0.223800, -0.033459, 0.059934, 0.006902, -0.071862, -0.048112, 0.112929, -0.041306, 0.034429, 0.030400, -0.014494, 0.108848, -0.013476, -0.007491, -0.053484, -0.188555, -0.152887, -0.284204, 0.145999, 0.158324, 0.096300, -0.208925, -0.143829, 0.028518, 0.044452, 0.003653, -0.076739, -0.009599, 0.001245, 0.114028, -0.086506, -0.273631, 0.128504, -0.101327, 0.190602, -0.154555, 0.069677, -0.053586, 0.046568, 0.114169, 0.011737, 0.035752, -0.147388, 0.088669, 0.029256, -0.015541, 0.013470, 0.077247, -0.028457, -0.019294, -0.123507, -0.036935, 0.012227, -0.094509, 0.076620, -0.006775, 0.037476, 0.045257, -0.019794, -0.043306, -0.127445, -0.116552, 0.169286, 0.307821, 0.308896, -0.002373, -0.091997, 0.186953, -0.181386, -0.171368, -0.040967, -0.356779, 0.022841, 0.015747, -0.013374, 0.124733, -0.067074, -0.015370, -0.081567, 0.261245, -0.001060, -0.151980, 0.035776, -0.137803, -0.020781, -0.048290, -0.049467, -0.170382, -0.041325, 0.263097, 0.012155, 0.053438, 0.092535, 0.243218, -0.068587, 0.004189, 0.077798, 0.219942, 0.020788, 0.203909, 0.237266, 0.029987, 0.209055, -0.047040, -0.232156, -0.140320, -0.021949, -0.077837, 0.138314, 0.038230, -0.178323, -0.178368, -0.135901, 0.027060, -0.130584, -0.137312, 0.038900, 0.039685, -0.158497, 0.007608, 0.051308, -0.240697, 0.340568, -0.021785, 0.062842, -0.001435, -0.085351, -0.189164, -0.048316, -0.172722, 0.038982, -0.026393, -0.154341, -0.046830, -0.067730, 0.341270, -0.111407, -0.045936, -0.034361, -0.132331, 0.022849, 0.094654, 0.102383, 0.075986, -0.034610, -0.193417, -0.134805, -0.037265, -0.111074, -0.021460, -0.020623, 0.035816, -0.004552, 0.177822, -0.130867, -0.035883, -0.065227, 0.203279, 0.123911, 0.031481, -0.069615, 0.038605, 0.024516, -0.113116, -0.104842, -0.043150, 0.107758, 0.090745, -0.077234, 0.064185, -0.084805, 0.044597, -0.229193, 0.015122, 0.032310, -0.195508, 0.130627, -0.090393, 0.108137, -0.108217, -0.064403, 0.055069, -0.029194, -0.031800, -0.055759, -0.284711, -0.062418, 0.210529, -0.106709, 0.033302, 0.076294, 0.010510, 0.031229, -0.058499, 0.097952, -0.096426, 0.157242, -0.090749, -0.052836, -0.078182, -0.093789, -0.114653, -0.120885, -0.090720, -0.217264, -0.029996, 0.068860, -0.075480, 0.006156, -0.234013, 0.103642, -0.094719, -0.084804, 0.018932, 0.138391, -0.019047, -0.002181, -0.000541, 0.058461, -0.325915, -0.138262, 0.016234, 0.031093, -0.050919, 0.065975, -0.042887, -0.058721, -0.130428, -0.028246, 0.081515, -0.108855, -0.036952, -0.005265, -0.060449, 0.165975, 0.101554, 0.109242, 0.094513, 0.051640, -0.133920, -0.087642, -0.059061, 0.185519, 0.057733, 0.107619, -0.064961, -0.205353, -0.155432, -0.047361, 0.089956, 0.158117, 0.012269, 0.113653, -0.001394, -0.056457, 0.021730, 0.173255, -0.130592, 0.085061, -0.046689, 0.008540, -0.065219, -0.158166, 0.119077, -0.059668, 0.053841, -0.116549, -0.070581, 0.005798, 0.127306, 0.028404, 0.044120, 0.169827, -0.045506, 0.213441, 0.073090, 0.042413, 0.140606, -0.066984, 0.116922, 0.039381, -0.201117, -0.079337, -0.068911, 0.014240, 0.126609, 0.144609, -0.007677, 0.035459, -0.237749, -0.088671, -0.022928, -0.096213, 0.185664, 0.048447, 0.055755, 0.224015, -0.096003, 0.162430, -0.119767, -0.176833, 0.365587, 0.093667, 0.024336, -0.123859, 0.090120, 0.087797, 0.174463, -0.040642, 0.022086, 0.078939, -0.101151, -0.081131, -0.202405, 0.108482, -0.109072, -0.020537, 0.078589, 0.128854, -0.167057, -0.071274, -0.036836, 0.139250, 0.001320, -0.162362, 0.093345, -0.080290, -0.076127, -0.153844, -0.033522, -0.068629, 0.172605, -0.003766, 0.015121, 0.063437, -0.074836, -0.036867, -0.060914, -0.235697, -0.088974, 0.011904, 0.190228, 0.074050, 0.092022, -0.181053, 0.065714, -0.116957, 0.000706, 0.017344, 0.145784, 0.064012, -0.019820, -0.088916, 0.192793, 0.183732, -0.027417, 0.031305, 0.051876, -0.027530, 0.133565, -0.289511, -0.008436, 0.021188, -0.243503, -0.007285, -0.035997, 0.040107, -0.065272, 0.059370, 0.160776, 0.082101, -0.136509, -0.076643, -0.153862, 0.029803, 0.045943, -0.086020, 0.055865, 0.037671, -0.093609, 0.147845, 0.060923, -0.025016, -0.344047, 0.117944, -0.107765, -0.095387, -0.039725, 0.051279, -0.016364, 0.059554, 0.009865, -0.027090, -0.124878, -0.031234, -0.016745, -0.111872, -0.361039, 0.062895, 0.038272, 0.035811, -0.015745, 0.084869, 0.038391, -0.072469, 0.034271, 0.059355, -0.231507, 0.061975, 0.122506, 0.024608, -0.065389, -0.042957, -0.050880, -0.005412, 0.013906, 0.165491, -0.089392, -0.051885, 0.023825, -0.047751, -0.133203, 0.034732, -0.007318, 0.036420, -0.059037, 0.167382, -0.143373, 0.002607, -0.032130, -0.010437, -0.005264, 0.086632, 0.017661, 0.003242, -0.042569, -0.165747, 0.119745, -0.040240, 0.057619, -0.053047, -0.107257, -0.026920, 0.210812, 0.129211, -0.098507, -0.189948, -0.019048, 0.138465, -0.024161, -0.211849, -0.133573, -0.019286, 0.023619, -0.032216, -0.197482, -0.095471, -0.281251, 0.072106, -0.001072, -0.133037, 0.089740, 0.004271, 0.129842, 0.072703, 0.020497, -0.016234, -0.175580, 0.121918, 0.259155, -0.190147, 0.005558, -0.035420, -0.021555, 0.093502, 0.074272, 0.049822, -0.092164, 0.146081, -0.076999, 0.029140, -0.114844, 0.037948, 0.137919, 0.052527, -0.004870, -0.109460, -0.103493, -0.135322, -0.000782, -0.139674, 0.000800, 0.089845, 0.144579, -0.167497, -0.132756, 0.201873, -0.107735, -0.036758, 0.125939, -0.012454, -0.153366, -0.216563, -0.029991, -0.049581, -0.148372, -0.092419, -0.247827, 0.199420, 0.014981, 0.223784, 0.168085, -0.112869, 0.005252, 0.014103, -0.111769, 0.174880, 0.085816, -0.070160, 0.074182, -0.042893, -0.168424, -0.156941, 0.022091, -0.118951, 0.029419, 0.050046, -0.047142, -0.054742, 0.033856, -0.176916, -0.133660, 0.088200, 0.115123, 0.126303, -0.071663, -0.070596, 0.124513, -0.030626, -0.028024, 0.005719, -0.098313, -0.019165, 0.071828, -0.087135, 0.074497, -0.140019, -0.039334, -0.076752, -0.038841, -0.101871, -0.036075, -0.030726, -0.038985, -0.003373, -0.027941, -0.044878, 0.041871, -0.109509, 0.055856, -0.082440, 0.019123, -0.048025, 0.157005, -0.106633, -0.105477, 0.064577, 0.062683, 0.018289, 0.201889, 0.045449, -0.110972, 0.044357, 0.052434, -0.078213, -0.117091, 0.064346, -0.022389, 0.084858, -0.028282, -0.131711, -0.205815, -0.027313, 0.028497, 0.004514, -0.017876, -0.017376, 0.094031, 0.105904, -0.027028, 0.038504, -0.013891, 0.100345, -0.087560, 0.044670, -0.083211, -0.028698, -0.135412, 0.034018, -0.033901, 0.087052, 0.029910, 0.028254, -0.105552, 0.126719, 0.021900, 0.025251, 0.069402, -0.050896, 0.034027, 0.052771, 0.220853, 0.060589, 0.086616, 0.042794, -0.081028, 0.034797, -0.078377, -0.145959, 0.013408, -0.057094, -0.002535, -0.098286, 0.158337, 0.455010, -0.049235, -0.152216, -0.081472, -0.087286, 0.025836, 0.041102, -0.029228, -0.007784, 0.231447, 0.102686, 0.180804, -0.014166, -0.010346, 0.144212, -0.058149, -0.191944, 0.062450, -0.130522, -0.045792, -0.012539, 0.172792, -0.194181, 0.065280, -0.040252, -0.114586, 0.057754, 0.011563, -0.020956, -0.183175, -0.126845, 0.041373, -0.019482, -0.152595, -0.055247, -0.032207, 0.013951, -0.078940, 0.107700, 0.245406, 0.074037, -0.231261, 0.042674, 0.000841, -0.142916, -0.003218, -0.089842, -0.242818, 0.103776, 0.082596, 0.063869, 0.133334, -0.081287, 0.045469, 0.302302, 0.115416, 0.071583, 0.175650, -0.188427, 0.074140, 0.094291, -0.185820, -0.014252, -0.210660, 0.018322, 0.026520, -0.074425, 0.083969, -0.004842, 0.096642, 0.026925, 0.022301, -0.068631, -0.116916, -0.120875, -0.164365, 0.161567, 0.122372, -0.090000, -0.367986, 0.116918, -0.080553, -0.037860, 0.057457, -0.120907, 0.087089, -0.141817, 0.052347, -0.267608, -0.005599, -0.000393, -0.065113, 0.036678, -0.042742, -0.337539, -0.018640, 0.077453, 0.015676, -0.045016, -0.057407, -0.009549, 0.185256, 0.139502, -0.057177, -0.064870, -0.146006, 0.000003, 0.010009, -0.101154, -0.039222, -0.121274, 0.102980, -0.024845, -0.034518, -0.062941, -0.044455, 0.058966, -0.307865, 0.066601, 0.041737, -0.011921, 0.018024, 0.033267, 0.016152, -0.101774, 0.051024, 0.127649, 0.162496, -0.017196, -0.017534, -0.100643, 0.093168, 0.163311, 0.159713, 0.046057, -0.057451, 0.000539, 0.091690, -0.089314, 0.036439, -0.004561, 0.114382, 0.054983, 0.094620, 0.040079, -0.137651, 0.001881, 0.089520, -0.018085, 0.024250, 0.021054, 0.096227, 0.056983, -0.002849, -0.149356, -0.029567, 0.159045, 0.163213, 0.070753, -0.188085, 0.031474, -0.000125, 0.098723, -0.298271, -0.014775, 0.030848, -0.010501, 0.096387, 0.105708, 0.009285, -0.165700, -0.003313, -0.059405, 0.200662, -0.011755, 0.091025, -0.087795, -0.058715, -0.120015, 0.007583, 0.036848, 0.087730, 0.148482, -0.096816, 0.021151, -0.028751, 0.196484, 0.075839, -0.319977, 0.135251, 0.004239, 0.293318, -0.015487, 0.004069, -0.099680, 0.225017, -0.006411, -0.097453, -0.199294, -0.166409, 0.076402, 0.058921, -0.167358, -0.089068, -0.101085, 0.109562, -0.146803, -0.014598, 0.031639, -0.208070, 0.084930, -0.051840, -0.187769, -0.010866, -0.104694, 0.092722, -0.034627, 0.051444, -0.039867, -0.062669, -0.086593, 0.291804, -0.052670, 0.107772, -0.026700, 0.035254, 0.040223, -0.134655, 0.265342, -0.016516, 0.020346, 0.047337, -0.000382, -0.137771, -0.008076, 0.003099, -0.085061, -0.090872, -0.090076, -0.198973, 0.144292, 0.121026, -0.129515, -0.156493, -0.141076, -0.025216, -0.094555, -0.058992, 0.004680, 0.106260, -0.041659, 0.048006, -0.010425, -0.181628, -0.054018, -0.091740, 0.002059, -0.205173, -0.021004, -0.033520, 0.090348, -0.118083, 0.118629, 0.038508, -0.064202, -0.007896, 0.057874, 0.139566, -0.027026, 0.102056, 0.112407, -0.149699, -0.207352, -0.029564, 0.045838, 0.016953, 0.276082, 0.022689, -0.025767, -0.002681, 0.027713, 0.104601, 0.171884, 0.116468, -0.258387, 0.105827, -0.146002, 0.077427, 0.001383, -0.013758, 0.120037, 0.059892, 0.015278, 0.072079, 0.023710, -0.093816, 0.115307, 0.060160, -0.056351, 0.055380, -0.054956, 0.107473, -0.074899, -0.093145, -0.065089, 0.084306, 0.079418, -0.130364, 0.007923, -0.044057, 0.065807, -0.128501, -0.092113, 0.031154, 0.036536, 0.158957, -0.145252, 0.074009, -0.021267, -0.055808, 0.100876, 0.043996, 0.147478, -0.028505, 0.082279, -0.041927, -0.045123, -0.059619, 0.059302, -0.152825, -0.124306, -0.032588, 0.009562, 0.041303, -0.047305, -0.085521, -0.069042, -0.075241, -0.081372, 0.058245, 0.098716, -0.022996, 0.129249, 0.123976, -0.024656, -0.040939, 0.041675, 0.020899, -0.059535, 0.077250, -0.066986, -0.074375, -0.001402, 0.063860, 0.084289, -0.365399, -0.086298, -0.173296, -0.076596, 0.179337, -0.099093, -0.055623, 0.017106, -0.115480, -0.076776, -0.078931, 0.025492, -0.114172, -0.082295, -0.104651, 0.086106, -0.022851, 0.026558, -0.040848, 0.010145, -0.086359, -0.152920, 0.047452, 0.012279, 0.120410, 0.070277, 0.016576, -0.119037, -0.052361, 0.146143, -0.058842, 0.225889, -0.055626, 0.104629, -0.054536, -0.183364, 0.002080, 0.067287, 0.196392, -0.077737, -0.160661, 0.019851, 0.121920, 0.207693, 0.114155, 0.206293, -0.153109, 0.118718, 0.140272, -0.110856, -0.054843, -0.148565, -0.127491, -0.068792, -0.030181, -0.064096, 0.029906, 0.052980, 0.015910, 0.077086, 0.003612, -0.002266, -0.068879, -0.084677, 0.099441, -0.012338, 0.192812, -0.023419, -0.067564, 0.053313, 0.030104, 0.033380, 0.004151, -0.034901, 0.125006, 0.057906, 0.085335, 0.043272, 0.074691, 0.008868, 0.259482, -0.087043, 0.002764, 0.191358, -0.165828, 0.053574, -0.099097, 0.145074, -0.009271, 0.113838, -0.177186, -0.119012, -0.090807, -0.000647, 0.224535, -0.063800, -0.172854, -0.252110, 0.259799, -0.108648, -0.059302, 0.028608, 0.012887, -0.113021, 0.085822, 0.042783, 0.103398, -0.107808, -0.022549, 0.059430, 0.085341, -0.172498, -0.012239, -0.073985, -0.060759, 0.335000, 0.306362, -0.175288, -0.045104, -0.003806, -0.072283, 0.074697, -0.040647, 0.033670, 0.184682, -0.053887, 0.041931, 0.046137, -0.050676, 0.183842, 0.138990, -0.050229, 0.003281, -0.029747, -0.108418, -0.030763, -0.007252, -0.066651, 0.163121, 0.009903, -0.291221, 0.078003, 0.129451, -0.106986, -0.118680, -0.158746, 0.111623, -0.083873, 0.053443, 0.046242, 0.040801, -0.062118, -0.212699, 0.110566, -0.049897, 0.045271, -0.048100, 0.119473, -0.204700, 0.077159, 0.113416, -0.091074, -0.239388, 0.115132, 0.118644, 0.027072, 0.115250, -0.044045, 0.211575, -0.016499, -0.017745, 0.139012, 0.230497, 0.094778, 0.023939, 0.220684, -0.176707, 0.018082, -0.119157, 0.095800, 0.148064, 0.030461, 0.004256, -0.037942, 0.197685, 0.174923, 0.130808, -0.073538, -0.034131, -0.057015, -0.123579, 0.162250, 0.259865, 0.065853, -0.285135, 0.132130, -0.019578, -0.035329, 0.109406, 0.097436, -0.047259, -0.145736, 0.009860, -0.095555, 0.033033, -0.081746, 0.115716, 0.006583, -0.041634, -0.126881, -0.002056, 0.036512, 0.137347, -0.102903, -0.137895, -0.053329, 0.203840, 0.041113, -0.020451, -0.137303, -0.027932, -0.115449, -0.040438, -0.289035, -0.102318, -0.138808, 0.087274, -0.073939, -0.148677, -0.013886, -0.013893, 0.143060, -0.217093, 0.069925, 0.172510, -0.011549, 0.175360, -0.071410, -0.103765, -0.071337, 0.005914, 0.031382, 0.101604, -0.013634, 0.049195, -0.011088, -0.056255, 0.244293, 0.129177, 0.044685, -0.171219, 0.126626, 0.055783, -0.147580, -0.107583, -0.001369, 0.278478, -0.104273, -0.054374, -0.093129, -0.112208, 0.078210, 0.134170, -0.000626, -0.030195, 0.111093, -0.044835, -0.133047, 0.078076, -0.041478, -0.093729, 0.119730, 0.053301, 0.100334, -0.200893, 0.056953, -0.164356, 0.070251, -0.352163, -0.246817, -0.243378, 0.055362, 0.145964, 0.148206, -0.042730, -0.058682, 0.022707, -0.106659, 0.076049, 0.120270, 0.133917, 0.013558, -0.037314, 0.001838, 0.013948, 0.064331, -0.050279, -0.003681, -0.102764, -0.042479, 0.000679, -0.025570, -0.052392, -0.212283, -0.016247, 0.155323, 0.130225, 0.031059, 0.059471, -0.102599, 0.143954, 0.001521, -0.166603, -0.093385, 0.043552, -0.017206, -0.060453, -0.242120, -0.135473, -0.144929, 0.006470, -0.002160, -0.031296, -0.071719, -0.083796, -0.011945, -0.165358, -0.099070, -0.006105, -0.084344, -0.031296, -0.028460, -0.003363, -0.025369, -0.064820, -0.005678, 0.231458, -0.193324, 0.114868, -0.047409, 0.034695, 0.045562, 0.098487, 0.102832, 0.043278, 0.048308, 0.019508, -0.110219, -0.078746, 0.059449, -0.031607, 0.036311, -0.063187, -0.084380, -0.202248, 0.173960, 0.112684, -0.070329, -0.064205, 0.006693, 0.076455, 0.008932, -0.032744, -0.010271, 0.129942, -0.054669, -0.030450, -0.018731, -0.165443, -0.095302, -0.117207, -0.034958, -0.217829, -0.081031, -0.071629, 0.018096, -0.202953, 0.078238, 0.190391, -0.059564, 0.017133, 0.010791, -0.004674, 0.134063, 0.118278, 0.031057, -0.029396, -0.138301, -0.165321, -0.167725, 0.017278, 0.169334, -0.059547, 0.158002, 0.084570, -0.208948, -0.030932, 0.476394, 0.048740, 0.108971, -0.023932, 0.045529, -0.175569, 0.075653, 0.013317, -0.076718, -0.096062, -0.104733, 0.087454, 0.054199, -0.044706, 0.043719, 0.177219, -0.076224, -0.009646, -0.009922, -0.050615, -0.018289, -0.010792, -0.183357, -0.015511, 0.128154, -0.228899, 0.021305, 0.127265, 0.044980, -0.072750, -0.160163, 0.219332, 0.130922, -0.195257, 0.030563, -0.117248, -0.050458, 0.061414, 0.086433, 0.102188, -0.001416, -0.074441, -0.006676, 0.016983, -0.062382, -0.002778, 0.033572, -0.179367, 0.140386, 0.041089, -0.100553, 0.058778, 0.003584, 0.175521, 0.216952, 0.129868, 0.080314, 0.155561, -0.080501, -0.066127, 0.190166, -0.221454, 0.223554, -0.112486, 0.042457, 0.329727, -0.094533, -0.171895, -0.081396, -0.033752, 0.056688, -0.043033, -0.099840, -0.169845, -0.110359, -0.059693, 0.278779, 0.004959, 0.078931, -0.389562, -0.049503, 0.124950, 0.007563, 0.131853, 0.032539, 0.129177, -0.170286, 0.080263, -0.330740, -0.091108, -0.041099, 0.298113, 0.118937, 0.044299, -0.193716, -0.020715, 0.401719, 0.166467, 0.100658, -0.152826, -0.085802, 0.252164, 0.129353, 0.119428, -0.016913, -0.124952, 0.024798, 0.025314, -0.049496, -0.131714, 0.122745, 0.135247, 0.028117, 0.080393, -0.102607, 0.117376, -0.031718, -0.319991, -0.275814, 0.055621, -0.134578, -0.279933, -0.049549, 0.071615, 0.027016, 0.163295, 0.144651, -0.130979, -0.046072, 0.254063, 0.044948, -0.047262, 0.169260, -0.004482, 0.204244, 0.038405, -0.110794, 0.075440, 0.071813, 0.027208, -0.013372, 0.088277, 0.075158, 0.117317, 0.223749, -0.134075, 0.129002, 0.124128, 0.046020, 0.277777, -0.005970, 0.089507, 0.038127, -0.132771, 0.087135, -0.019155, -0.099149, 0.267799, 0.021521, 0.197755, -0.093862, 0.061145, 0.040679, -0.206062, -0.140128, 0.069023, 0.130630, 0.096683, -0.084712, 0.137620, -0.021988, -0.081261, 0.037727, 0.098801, -0.081970, -0.068157, 0.008063, -0.031085, -0.109649, 0.097511, -0.073645, -0.008561, -0.011013, 0.054761, 0.070238, 0.043421, 0.073026, -0.051244, -0.337407, 0.227539, 0.009158, 0.203242, -0.050423, -0.102729, -0.107089, 0.220659, 0.002240, 0.053405, 0.032753, -0.040123, -0.071489, 0.056578, -0.028299, -0.139450, 0.023747, -0.093507, 0.054912, -0.029207, -0.099617, -0.235476, 0.136503, -0.229639, -0.002676, 0.225715, -0.206455, 0.018743, 0.023104, 0.042882, 0.030972, -0.054656, 0.009340, 0.061873, 0.001452, 0.135941, -0.099583, 0.009854, 0.171107, 0.123947, 0.054728, 0.043295, 0.066933, 0.017259, -0.016954, -0.312439, 0.072148, 0.230187, -0.161569, -0.006420, 0.028206, -0.343439, 0.120530, -0.051468, -0.149660, 0.009642, -0.084182, 0.129178, -0.058707, 0.030433, -0.034370, -0.087311, 0.053302, -0.002933, -0.008333, -0.174466, 0.058224, 0.052570, 0.073150, -0.250637, -0.105905, -0.135246, 0.070692, -0.001067, 0.241723, -0.114434, -0.128508, -0.032554, 0.085483, 0.051748, 0.038067, 0.175326, -0.107226, -0.127977, 0.106912, -0.120153, 0.122007, 0.082599, 0.026982, -0.032835, -0.054102, -0.083263, 0.074154, -0.054447, 0.370594, 0.129231, -0.147431, 0.011779, 0.020823, 0.027940, 0.028894, -0.176419, -0.007321, 0.094954, 0.194413, 0.136530, 0.038881, -0.019017, 0.368579, 0.001979, 0.167368, -0.242866, -0.043814, 0.139789, 0.071520, 0.039021, 0.005111, 0.302174, 0.059875, -0.120695, -0.123572, 0.119621, -0.012525, -0.030320, 0.140887, -0.038497, -0.061412, 0.016345, -0.077015, 0.197169, -0.034215, 0.118772, 0.053261, -0.260750, 0.171184, 0.081984, 0.228250, -0.080948, 0.018504, -0.127760, -0.015075, -0.055882, -0.010055, 0.114345, 0.025632, 0.217554, 0.041673, 0.007898, -0.063145, -0.266968, 0.073446, 0.118882, -0.025706, -0.041616, 0.271464, -0.046558, -0.008470, -0.117771, 0.032359, 0.225341, -0.042635, -0.062690, -0.086198, 0.324102, 0.101207, 0.267338, 0.004349, -0.449642, -0.503721, -0.001230, 0.167271, 0.144765, -0.100644, -0.120086, 0.185845, -0.149633, 0.082756, 0.011966, 0.184175, -0.231911, -0.028859, -0.026741, 0.135035, -0.097336, 0.184538, -0.056577, -0.005729, 0.055685, -0.137098, -0.240337, -0.080780, -0.024625, 0.075423, 0.025107, -0.004255, -0.172226, 0.119019, 0.057462, 0.039187, 0.200073, -0.058487, 0.025070, -0.005609, -0.044852, -0.078904, -0.005560, -0.050856, 0.020752, 0.002519, -0.102415, 0.307065, 0.199255, 0.117070, 0.216376, 0.066528, 0.179025, 0.003651, 0.076999, -0.081146, -0.267719, -0.092355, 0.197617, 0.024410, 0.071084, -0.026028, -0.065235, 0.032842, 0.010817, -0.073766, 0.020807, 0.137748, 0.011639, 0.024639, 0.118897, -0.025937, 0.045374, -0.144425, -0.053170, -0.047958, -0.161437, -0.027692, -0.082987, -0.060964, 0.010536, 0.129967, -0.000137, 0.050251, 0.109037, 0.294663, -0.093612, 0.011730, -0.201855, -0.132491, 0.059579, 0.120117, 0.125937, 0.134478, -0.140249, -0.149303, -0.126263, 0.043909, -0.013362, 0.136647, -0.074803, -0.036026, 0.265292, 0.075024, 0.014163, 0.019132, 0.006466, 0.081063, 0.148705, -0.020360, 0.026723, 0.129510, -0.055641, 0.144921, -0.088429, 0.048717, 0.047251, 0.040014, -0.139279, 0.483884, -0.010058, -0.046161, -0.027380, -0.099119, -0.082978, -0.073381, -0.051035, 0.103576, 0.011400, 0.108285, 0.043689, -0.010851, -0.010904, 0.179967, 0.006766, 0.070825, -0.008224, -0.055108, 0.000555, -0.024354, 0.057950, 0.039737, -0.028193, 0.073596, -0.156413, -0.084044, 0.291933, 0.035675, -0.072182, -0.028579, 0.044268, -0.072527, -0.145292, 0.004429, -0.049484, 0.061399, 0.080040, -0.095738, 0.110446, -0.013271, -0.054144, 0.198343, -0.129127, 0.039572, 0.004919, -0.103294, 0.042667, 0.014308, 0.173770, -0.176356, 0.070718, -0.164842, 0.100710, 0.046319, 0.055478, 0.132490, 0.230908, -0.130294, -0.077424, 0.176431, -0.190232, 0.223548, 0.021801, 0.065165, 0.294939, 0.118356, -0.099162, 0.053939, 0.101882, -0.020035, 0.002560, -0.009083, -0.032443, -0.024145, 0.072471, 0.260189, 0.285105, 0.049076, -0.212595, 0.158128, -0.043446, -0.084482, 0.022482, 0.223541, 0.025077, -0.046861, 0.010139, -0.103726, 0.045157, 0.039082, 0.264960, -0.060694, 0.014803, -0.162398, -0.003265, 0.201366, 0.187413, -0.120823, -0.187503, 0.045589, 0.097396, 0.155399, 0.052753, -0.051949, 0.066644, 0.012907, -0.019794, -0.125172, -0.061580, -0.034664, 0.184271, 0.178877, -0.117549, 0.014517, 0.008952, 0.034445, -0.328087, 0.089894, 0.266288, -0.045669, -0.031410, 0.049730, 0.085359, -0.259064, 0.024016, 0.239200, -0.132758, 0.002563, 0.082260, 0.041597, -0.244267, 0.210530, 0.134901, 0.081778, -0.182579, -0.113967, 0.002716, -0.086925, 0.036689, -0.080696, 0.274467, 0.222410, 0.177869, 0.087474, -0.188509, -0.127895, 0.159312, -0.037070, 0.223749, 0.051392, 0.074544, 0.013551, 0.133600, -0.116097, -0.194802, 0.207722, 0.233090, -0.018192, -0.013660, 0.121080, -0.031421, 0.134475, -0.239890, -0.124449, -0.180893, 0.065644, 0.180329, 0.139694, -0.101581, -0.130150, 0.070517, 0.023582, 0.161615, 0.066702, 0.116155, -0.053473, -0.140018, 0.008243, -0.025674, 0.058409, -0.074549, 0.037614, -0.112976, -0.102684, -0.054458, 0.038156, -0.023530, -0.202109, 0.137258, -0.003940, 0.207572, -0.033446, -0.178222, -0.120687, 0.231717, -0.081544, -0.078901, -0.152113, 0.011374, 0.007958, 0.038744, -0.102032, -0.224710, -0.115582, 0.087344, 0.015299, -0.161176, -0.041844, -0.159226, 0.033142, -0.204821, 0.059088, 0.123544, -0.238049, 0.086460, 0.004849, -0.008847, -0.155139, 0.008687, -0.079746, 0.126621, -0.110235, 0.167311, -0.053675, -0.170426, 0.090472, 0.110560, 0.056412, 0.042559, 0.146748, 0.088507, -0.181858, -0.081503, -0.095215, 0.222451, 0.015960, 0.003632, 0.014774, -0.265386, 0.172776, -0.010912, -0.041487, 0.074790, 0.068354, 0.092647, -0.091441, 0.063939, -0.015277, 0.007039, -0.061242, 0.037337, 0.120732, -0.324439, 0.005528, -0.037737, 0.133971, -0.310170, -0.252088, -0.079462, 0.119638, 0.039671, 0.194611, -0.191543, -0.014057, -0.040059, -0.057268, 0.103203, 0.089898, 0.228952, -0.001995, -0.259134, 0.129592, -0.082548, 0.037159, -0.003541, 0.091289, -0.008259, -0.063201, -0.061243, 0.025299, -0.078554, 0.318662, 0.067793, 0.046155, -0.283460, 0.067397, 0.132614, -0.057684, -0.172867, -0.078764, -0.260102, 0.047944, 0.054398, 0.083208, -0.016184, 0.018852, 0.034689, 0.081039, 0.002681, 0.086905, 0.065321, -0.066675, 0.147134, 0.031876, 0.061297, 0.159190, 0.077351, 0.145186, 0.136512, 0.019803, -0.082001, 0.052864, -0.150929, 0.007289, -0.219945, -0.041072, -0.148415, -0.001587, 0.207544, -0.101256, -0.021473, 0.113685, -0.000266, -0.056367, 0.125949, 0.192981, 0.037634, 0.029471, 0.026733, -0.051388, -0.045500, -0.152922, 0.201225, 0.208789, 0.234409, 0.102904, 0.005624, -0.045845, 0.111642, -0.195260, -0.033976, -0.170065, -0.147431, 0.004389, 0.073524, -0.019801, 0.179628, 0.112832, -0.101834, -0.023062, 0.106218, 0.089275, 0.061668, -0.030316, -0.017569, 0.095695, -0.019519, 0.113336, 0.112459, 0.064133, -0.003526, -0.142876, 0.164082, 0.062847, 0.088221, -0.044357, -0.088134, 0.123015, 0.057841, -0.033947, -0.095860, 0.030631, 0.323279, 0.079225, 0.171225, -0.245756, 0.326744, -0.024619, 0.019208, -0.014713, 0.179964, -0.094349, 0.440021, -0.184102, 0.067973, -0.064006, -0.095022, 0.044805, -0.080554, -0.058364, -0.309734, -0.022586, 0.084196, -0.028811, 0.114193, 0.064684, 0.058086, -0.113000, -0.129230, -0.109598, -0.052234, -0.137129, -0.408050, 0.057369, -0.024227, 0.158520, 0.203167, 0.032948, -0.201660, -0.081998, -0.154477, 0.019175, -0.066587, -0.031576, -0.068535, 0.091379, 0.072929, -0.004945, -0.046837, -0.043642, -0.071239, 0.012541, 0.023960, -0.110826, 0.083400, 0.118355, -0.223732, 0.164269, -0.016088, 0.133280, 0.160762, -0.076923, 0.003834, 0.076737, -0.065487, -0.148467, 0.390343, -0.092969, 0.087687, -0.033028, 0.011553, -0.110171, 0.169290, 0.017139, -0.066313, -0.055290, 0.172380, 0.293301, 0.115676, 0.062935, 0.062529, -0.079839, -0.287255, -0.066022, -0.054937, -0.098854, -0.020866, 0.071252, -0.283145, 0.046993, 0.166566, 0.076246, -0.100317, -0.155653, -0.070905, 0.042937, 0.130789, 0.067797, -0.129812, -0.350119, 0.020902, 0.064886, 0.136683, -0.113920, -0.235722, 0.024812, 0.069022, 0.049505, -0.081992, 0.077459, 0.052773, -0.099716, 0.016138, -0.037272, -0.261031, -0.030216, 0.061864, -0.004824, -0.081149, -0.109937, -0.166180, 0.031362, -0.060928, 0.000970, 0.143093, -0.082792, 0.056649, -0.068652, 0.044710, -0.060831, -0.015296, -0.008670, 0.004839, -0.008836, 0.196190, -0.068935, -0.066494, 0.148566, -0.132915, 0.195895, -0.088863, 0.001745, 0.188841, -0.120796, -0.116530, -0.007089, 0.208818, -0.046671, 0.102882, 0.095567, 0.055514, -0.004114, -0.032532, 0.094740, 0.050085, 0.024828, 0.126437, 0.023179, 0.001431, -0.038682, -0.044263, 0.163116, 0.116317, 0.018548, 0.106778, 0.102560, 0.154081, 0.303968, -0.184436, 0.017461, -0.060546, 0.085620, 0.265663, 0.020637, -0.265774, -0.131408, 0.025305, -0.013064, 0.002088, -0.089694, 0.015928, -0.066098, -0.014855, -0.051177, -0.150695, 0.012789, 0.063892, 0.024411, 0.013200, -0.098823, -0.085540, -0.000374, 0.027285, 0.289333, -0.023027, -0.276565, 0.187052, 0.044399, 0.056653, 0.020457, -0.091033, -0.146693, -0.037852, 0.218314, 0.040835, -0.025741, -0.076506, 0.332989, 0.091472, -0.039168, -0.101887, 0.056399, 0.224280, -0.093505, 0.080841, -0.103814, 0.375656, 0.008092, 0.039553, -0.126773, 0.174908, -0.012575, 0.142959, 0.206983, 0.040010, -0.107751, -0.038495, 0.092458, -0.060337, 0.033469, 0.064242, 0.079072, -0.129113, -0.001045, 0.064776, 0.113189, -0.223250, 0.094698, 0.033413, -0.038871, -0.141379, -0.119774, 0.200115, -0.134040, 0.225768, -0.086885, 0.276326, -0.080326, -0.316201, 0.053762, -0.084604, 0.025862, 0.218092, 0.115081, 0.118150, -0.106952, -0.245718, -0.094029, 0.090163, 0.009109, -0.077233, -0.214891, 0.321001, 0.035941, 0.082342, -0.099750, -0.152477, -0.177258, 0.157109, 0.260575, -0.050442, -0.100977, -0.127316, 0.058231, -0.142831, -0.073417, -0.003108, 0.375903, -0.346654, 0.185219, -0.081622, 0.140620, -0.082717, -0.149492, -0.081664, 0.073590, -0.052259, -0.088492, -0.174906, 0.093007, 0.119567, -0.013124, -0.244888, -0.024169, -0.060551, 0.165511, 0.149351, 0.276173, 0.174904, -0.120303, 0.042344, -0.026993, -0.026081, -0.100677, 0.168839, -0.043946, -0.016732, 0.027516, 0.054482, 0.199880, -0.002472, 0.251115, 0.012523, 0.180485, 0.146667, 0.060430, 0.044622, 0.034666, -0.277677, 0.037923, 0.032129, -0.074624, 0.055383, 0.036376, -0.101974, 0.126847, -0.020600, 0.079378, -0.011585, 0.051375, 0.118587, -0.179737, 0.039218, 0.067531, -0.010051, 0.076529, -0.134697, 0.159785, -0.079651, -0.091509, -0.041233, 0.098156, -0.197046, 0.108065, 0.016888, 0.054106, 0.094425, 0.099856, -0.120791, -0.011365, 0.008467, -0.162215, -0.023940, 0.152391, 0.097807, 0.263322, -0.219232, -0.096879, -0.168163, -0.142390, -0.192449, 0.007798, -0.200775, -0.187141, 0.234927, 0.013508, 0.186862, -0.017216, 0.024878, 0.191436, 0.033039, -0.056402, -0.196120, 0.064540, -0.002860, 0.113242, -0.042547, -0.074583, -0.115145, -0.152003, 0.011053, 0.414853, -0.107534, -0.151221, -0.163012, 0.074776, -0.095959, -0.080991, -0.227173, 0.287711, -0.150635, 0.072380, 0.069161, 0.067522, 0.046219, 0.029952, 0.180189, -0.006132, 0.077740, 0.067023, -0.034793, -0.107852, 0.093129, 0.181766, 0.143618, 0.077983, -0.125387, 0.191458, 0.043426, -0.009455, -0.090070, 0.019329, -0.122558, 0.005329, -0.232296, 0.019768, -0.088307, 0.076119, 0.043938, -0.131874, 0.002652, -0.045576, -0.052047, -0.085712, 0.110980, 0.131959, 0.088987, -0.008453, -0.064137, -0.092990, -0.127700, -0.145721, 0.195740, -0.014214, 0.220746, -0.026864, 0.004949, 0.119500, -0.024769, -0.164423, -0.012163, -0.144512, -0.102984, 0.131234, -0.001052, 0.070035, 0.061971, 0.093218, -0.071907, -0.033816, 0.082891, -0.024186, 0.084745, -0.124512, 0.013877, 0.202212, 0.128792, 0.124245, 0.287174, 0.057177, 0.043146, -0.040154, -0.062469, -0.060884, 0.134622, 0.025079, -0.053580, 0.059029, -0.023265, -0.100413, 0.055573, -0.003478, 0.091121, 0.082520, 0.158140, -0.180733, 0.028871, 0.164288, 0.092223, 0.186131, -0.201414, -0.074739, -0.162935, -0.109906, 0.028409, 0.213189, -0.079666, -0.056879, -0.040601, 0.037887, 0.077717, -0.033187, 0.190778, 0.120256, 0.037914, 0.057598, 0.173817, 0.071009, -0.139111, 0.192792, 0.120044, 0.029586, -0.174195, -0.009986, 0.066319, 0.072774, 0.049888, -0.147240, -0.163171, 0.023373, 0.061223, -0.010741, -0.014952, 0.012563, -0.109611, 0.090918, -0.015335, -0.029050, 0.152093, 0.249135, 0.240801, 0.031035, 0.033047, 0.233633, -0.112404, 0.253334, -0.031392, -0.067453, 0.197420, 0.050337, -0.033944, 0.035287, -0.158347, 0.046397, 0.149886, 0.054937, 0.062599, -0.040568, 0.244792, 0.067088, 0.141399, 0.184046, 0.120979, 0.250494, -0.218787, -0.070602, 0.044059, 0.021129, 0.258392, 0.063654, -0.155757, -0.003734, 0.095128, -0.104762, 0.001679, -0.112604, -0.076150, -0.008702, -0.125901, 0.071021, -0.065644, 0.004857, -0.092196, 0.136993, 0.012631, -0.002682, 0.090758, -0.042902, 0.101918, -0.112649, 0.196874, 0.038229, 0.055396, -0.198831, -0.135106, -0.042774, 0.210153, -0.029556, -0.058915, -0.014812, 0.009482, -0.043071, -0.085723, -0.127129, -0.207713, 0.034919, 0.138957, -0.083674, -0.089914, -0.052204, -0.030720, -0.096836, -0.085798, -0.089712, 0.153862, 0.049536, 0.014785, -0.112126, 0.018498, 0.043507, 0.013283, 0.012198, 0.141919, 0.049739, 0.160277, -0.111520, -0.168455, 0.181696, -0.018177, 0.109641, -0.089901, -0.118418, -0.011943, -0.084271, 0.021456, -0.087226, 0.177892, -0.030741, 0.243999, -0.075033, -0.020499, 0.055324, 0.137765, -0.011017, 0.146454, 0.011781, 0.128187, 0.143372, 0.085641, -0.000651, 0.029821, -0.055970, 0.320331, 0.032316, 0.246119, -0.003016, 0.173536, 0.177019, -0.236940, -0.030086, -0.067826, 0.102534, 0.151161, 0.143740, -0.314757, -0.041177, -0.009837, -0.043724, -0.051048, 0.106648, 0.062630, -0.083478, -0.144934, -0.007327, 0.128109, 0.050658, 0.012015, -0.123964, -0.085350, -0.210598, -0.016234, -0.008985, 0.111213, 0.289762, -0.079845, -0.060631, -0.143687, 0.058986, 0.258001, 0.017948, -0.170311, -0.036017, -0.281229, -0.037502, 0.030651, 0.053727, -0.015157, 0.031848, 0.197643, -0.076682, 0.147866, 0.091620, 0.010469, -0.022063, 0.121123, -0.044519, 0.029344, -0.040105, 0.008751, 0.228987, -0.006061, -0.035863, -0.049249, 0.012485, -0.141073, -0.071344, -0.007134, 0.014437, -0.106016, 0.072107, 0.054664, 0.171306, -0.008081, 0.038239, -0.062358, -0.178937, 0.093613, 0.291363, 0.120594, -0.025590, -0.074339, 0.002971, -0.126016, -0.000430, 0.186754, 0.039686, 0.314529, -0.168779, 0.069289, -0.004005, 0.029438, -0.159766, -0.041094, -0.154944, -0.039844, -0.014207, -0.047337, 0.042144, 0.292951, 0.027788, -0.141261, 0.059804, 0.125348, 0.067586, 0.122900, -0.005909, 0.058285, -0.072197, 0.121427, 0.062438, 0.103960, -0.081816, -0.060206, -0.011519, -0.035718, -0.055592, 0.012698, 0.063059, -0.088402, -0.025765, -0.067729, -0.016673, 0.064933, 0.104038, 0.111319, 0.142344, -0.294939, -0.214517, 0.238365, 0.093979, -0.153223, -0.071974, 0.095369, -0.064221, 0.234829, 0.017882, -0.049392, -0.234771, -0.126509, 0.006284, -0.097620, -0.288275, -0.187293, 0.223545, 0.003326, -0.010193, -0.035163, -0.082743, -0.253963, -0.007749, -0.032779, -0.060881, -0.135655, -0.065691, 0.077278, 0.074890, -0.178736, 0.030240, 0.076246, -0.022836, -0.185769, -0.017247, -0.016754, 0.039540, -0.195466, 0.028722, 0.269801, 0.087187, 0.193792, -0.061969, -0.050711, -0.118732, -0.107274, 0.037256, 0.134875, -0.161844, 0.130758, -0.285867, -0.134011, 0.183126, -0.127082, -0.057675, 0.130213, -0.234743, 0.210663, 0.098262, -0.186049, -0.231360, 0.367205, 0.014090, 0.016563, -0.021435, -0.151791, 0.070357, 0.084521, -0.085336, -0.159792, 0.011530, -0.048046, 0.207041, -0.005513, -0.015953, 0.080552, 0.004694, -0.081844, -0.004488, -0.331610, 0.129100, 0.109888, 0.095419, 0.010742, -0.099897, 0.147448, 0.069212, -0.083763, -0.157308, 0.016750, 0.027406, -0.090571, -0.025962, 0.200593, 0.064245, 0.013116, -0.118007, 0.071978, 0.070755, 0.011826, -0.085527, -0.104672, -0.195798, 0.127815, 0.066417, 0.088514, 0.106561, -0.047494, 0.098516, -0.052047, -0.007031, -0.013809, 0.015400, 0.072705, -0.097172, -0.242241, 0.019885, 0.080779, 0.208655, 0.044165, 0.147134, -0.012464, 0.018565, 0.074675, 0.055552, 0.069012, -0.083580, -0.184136, -0.131197, -0.119245, 0.011399, -0.177450, -0.064545, 0.025499, 0.002794, -0.029259, 0.071484, 0.010397, 0.187859, 0.044148, -0.097698, -0.150435, 0.079696, 0.104866, -0.059467, -0.131139, 0.005829, 0.182196, -0.083767, 0.035994, 0.145219, -0.090928, 0.164920, 0.074151, -0.012059, 0.240563, -0.058225, -0.004866, -0.063123, 0.033720, -0.147618, 0.222604, 0.133621, -0.137760, -0.058611, -0.049121, -0.014049, -0.004856, 0.034527, 0.016666, 0.112849, -0.013593, -0.064121, 0.171331, 0.126329, -0.099395, 0.114748, -0.215957, 0.035218, 0.110324, 0.054444, -0.092961, -0.036247, 0.023425, 0.048418, 0.129912, 0.136716, -0.160493, 0.195579, 0.078323, -0.170536, -0.021072, -0.200051, 0.146162, -0.030021, 0.194899, -0.118187, -0.203141, 0.016488, 0.104420, 0.072562, 0.017174, -0.022137, 0.092113, 0.022245, -0.073322, -0.146478, -0.004710, -0.044877, -0.025238, 0.055962, 0.251022, -0.131031, -0.029769, -0.068826, -0.010855, 0.030337, -0.095970, 0.030825, -0.045332, 0.066592, 0.148139, -0.028795, -0.020884, -0.051785, 0.051238, -0.028007, -0.033749, 0.066396, 0.162212, -0.354382, -0.072475, 0.067574, -0.045190, -0.045621, -0.054598, -0.211977, 0.216768, -0.201562, 0.316518, 0.175812, 0.080707, -0.127428, -0.122822, -0.212679, -0.051422, -0.210969, -0.169104, -0.258416, 0.002257, -0.058245, -0.270568, -0.011929, -0.286570, 0.020681, 0.037493, -0.197968, 0.371700, 0.159091, 0.137763, 0.152365, 0.005718, -0.087994, 0.189004, -0.073964, -0.045985, -0.050378, -0.021394, -0.063828, 0.013302, -0.137468, -0.018470, 0.167316, 0.015736, 0.114944, 0.064647, 0.122872, -0.002027, 0.103578, -0.171605, -0.019468, 0.144232, -0.142233, -0.253626, 0.112360, 0.150978, -0.065645, -0.099540, -0.007915, -0.117979, 0.113238, 0.123570, 0.237431, 0.182059, 0.094267, -0.060213, 0.138383, -0.160635, -0.005292, 0.145834, -0.111030, -0.020681, -0.064839, 0.237416, 0.054291, -0.054372, 0.063578, 0.061953, 0.109225, -0.222384, -0.003894, 0.083548, 0.097660, -0.150767, 0.070756, -0.379519, -0.036687, -0.050753, -0.090461, -0.002994, 0.004377, -0.020799, 0.000769, -0.092743, 0.014095, 0.106777, -0.061946, 0.004521, -0.019494, -0.076678, 0.170373, 0.046914, 0.234570, 0.048474, -0.064191, 0.225750, 0.059275, -0.055956, 0.229461, -0.045972, 0.121480, 0.196662, 0.005945, 0.155753, -0.091603, -0.030251, -0.091101, -0.080415, -0.028157, -0.021513, 0.249430, -0.010869, -0.027878, 0.073046, -0.059790, -0.161435, 0.047063, -0.042103, -0.024769, 0.216107, 0.018966, 0.138409, -0.012718, -0.218322, 0.000547, 0.006434, -0.056203, -0.221136, 0.032391, -0.105963, 0.082793, -0.027001, -0.049883, -0.084736, -0.011280, 0.137202, 0.330011, -0.151895, -0.097206, -0.123479, 0.016147, 0.207840, -0.133737, -0.251508, 0.049696, -0.154563, 0.236675, 0.098044, -0.072983, -0.006454, 0.077398, 0.265030, -0.007189, 0.082962, 0.083825, 0.026767, -0.004600, 0.234029, 0.121740, 0.124096, 0.057016, -0.084206, 0.175727, -0.059761, 0.001904, 0.063574, -0.011564, -0.326991, -0.093204, -0.077011, 0.017602, -0.018840, 0.018545, 0.062020, 0.023581, -0.121800, -0.105201, 0.029062, -0.066323, 0.237779, 0.177479, 0.059722, 0.061489, -0.001749, 0.129520, -0.341171, -0.020907, 0.197478, 0.007057, 0.204336, -0.213161, 0.057090, 0.216079, -0.111539, -0.065367, 0.172424, 0.060548, -0.178420, -0.065304, -0.097598, -0.000119, -0.021217, -0.056791, -0.075026, 0.049628, 0.102096, -0.127926, -0.013877, -0.159603, -0.009649, 0.072874, 0.179698, -0.011016, 0.164774, -0.018072, 0.173892, -0.009661, -0.090001, 0.039806, 0.052231, -0.058969, -0.259609, 0.018948, 0.057695, 0.152473, 0.008451, 0.118178, -0.086853, 0.109297, -0.060463, -0.150467, -0.098891, 0.089031, 0.008015, 0.087507, 0.066682, 0.011473, 0.055430, 0.047389, -0.078642, 0.198904, -0.019789, -0.100531, 0.064051, 0.040609, 0.155647, -0.101624, 0.155268, 0.001469, -0.052315, -0.057225, -0.022392, 0.152199, -0.120856, 0.197899, 0.019226, 0.029749, 0.002210, -0.039540, 0.060836, -0.040435, -0.079280, -0.085659, -0.141902, -0.100277, -0.144056, -0.088825, 0.049174, 0.014630, -0.102511, 0.006260, 0.062279, 0.061827, 0.030811, 0.084667, -0.027518, 0.041197, 0.071693, 0.116522, -0.212437, 0.087901, -0.096756, 0.015217, -0.023995, 0.029298, -0.010015, 0.181510, 0.041761, 0.141274, 0.220138, 0.092608, 0.184382, 0.021339, -0.028187, -0.104385, -0.050162, -0.019833, 0.125287, 0.124864, -0.155269, 0.021713, -0.115401, -0.051397, -0.064413, 0.004433, 0.009545, -0.011167, 0.184433, -0.011360, 0.077133, 0.000672, 0.011454, 0.150734, -0.139727, 0.032431, 0.083372, -0.057118, 0.064817, 0.100693, -0.043800, 0.102893, -0.056821, -0.155246, 0.096547, 0.010646, -0.027148, -0.103744, 0.019761, 0.193684, -0.104960, 0.071103, -0.107997, -0.237350, -0.083958, 0.157061, 0.004253, 0.038376, 0.082360, 0.005945, 0.061248, -0.058687, 0.073942, 0.079844, 0.055396, -0.094319, -0.037057, -0.046510, 0.071053, 0.185149, 0.009143, 0.137471, -0.109149, -0.097022, 0.107997, 0.134820, -0.017168, -0.141048, -0.228593, 0.020139, -0.181979, -0.081703, -0.072845, -0.051301, -0.044286, 0.037001, 0.033137, -0.002373, 0.042075, 0.176449, 0.154823, -0.085721, -0.020632, 0.090519, 0.101503, 0.046233, -0.019640, -0.115453, 0.063948, 0.101569, 0.044367, 0.174274, -0.017332, -0.001981, 0.259031, 0.037013, 0.114169, -0.023004, 0.236804, 0.012535, 0.254989, -0.019054, 0.220565, 0.140240, -0.089029, -0.062478, 0.041504, -0.068355, 0.183184, -0.015764, -0.012730, -0.043730, -0.080302, -0.040269, 0.078865, -0.053127, -0.145535, -0.027757, -0.183133, 0.065191, 0.121266, -0.046112, -0.103062, -0.056710, -0.085711, -0.160341, 0.096184, -0.039462, 0.125386, 0.206803, -0.110636, 0.049876, 0.018473, -0.007274, 0.080282, 0.024293, -0.086942, -0.136995, -0.027542, 0.100992, 0.156265, -0.071338, 0.078340, 0.190350, -0.002981, -0.398681, 0.034878, 0.039009, -0.034138, 0.045808, 0.031433, -0.074041, -0.150097, 0.023966, 0.072110, 0.014841, -0.010897, 0.035764, 0.192963, -0.282216, -0.026263, 0.083295, 0.079819, -0.011615, 0.041104, 0.020589, -0.113285, 0.148391, -0.194307, -0.168288, -0.198723, -0.078707, 0.098221, -0.021377, 0.109835, -0.072966, 0.052035, 0.179715, -0.229483, 0.104831, -0.073694, -0.092490, 0.178521, -0.080195, 0.024374, 0.353622, -0.123867, -0.157046, 0.177800, -0.034457, -0.101815, -0.121872, -0.321681, 0.035992, 0.182869, -0.085877, -0.130965, 0.058256, -0.110463, -0.189500, 0.006871, 0.038915, 0.050901, -0.111388, 0.091249, 0.104552, 0.084121, 0.003443, 0.058511, -0.001295, -0.137702, -0.066630, -0.236324, 0.164575, 0.026617, -0.154640, 0.039333, -0.023576, -0.026994, 0.089921, 0.055980, -0.081972, -0.302410, -0.038228, 0.146756, -0.107094, -0.028708, 0.053167, -0.114880, -0.076640, 0.199523, 0.042095, -0.231428, -0.211841, -0.267361, -0.036322, 0.077155, -0.242902, 0.232760, -0.163141, -0.138361, 0.214650, -0.016660, 0.009021, -0.252841, 0.098007, 0.042953, -0.008680, 0.079996, 0.065271, 0.013428, -0.059268, -0.106194, -0.135920, 0.059936, -0.062659, -0.063062, 0.058267, -0.063582, -0.034393, 0.185778, 0.116679, 0.104575, 0.095743, -0.010208, -0.010491, 0.001913, 0.253689, -0.233363, -0.036978, 0.095871, -0.100474, -0.190821, -0.175322, -0.270109, 0.149234, -0.146763, 0.090694, -0.102710, -0.221408, -0.066506, 0.083223, 0.011811, 0.020689, -0.005570, 0.064724, 0.404107, 0.083476, -0.033943, -0.058423, 0.178767, -0.108545, -0.102826, 0.066366, -0.201154, -0.012795, 0.096921, 0.228991, 0.047778, -0.063687, -0.095040, -0.084373, -0.115956, 0.093053, 0.222306, 0.086183, 0.159754, -0.090724, 0.053397, 0.030602, -0.044140, -0.219122, -0.083140, -0.121716, 0.221967, 0.022302, 0.065979, 0.026873, 0.050609, -0.056223, 0.151934, 0.039569, 0.104283, -0.004735, -0.094468, 0.153163, -0.049163, 0.057359, -0.085313, 0.057892, 0.005257, -0.045976, 0.180995, 0.116724, -0.034357, 0.166070, -0.010681, -0.035404, -0.126299, -0.072654, 0.073057, 0.011013, 0.030899, -0.027241, 0.001575, -0.075058, -0.110333, 0.083774, -0.076274, 0.139094, -0.073257, -0.109062, 0.011101, -0.039463, -0.084527, 0.028391, -0.000707, 0.087446, 0.021176, 0.140775, 0.046913, 0.130990, 0.022546, -0.048129, 0.074566, 0.099835, 0.003059, -0.143095, 0.058282, 0.038261, -0.085626, -0.078197, -0.003834, -0.043078, 0.087437, 0.035514, 0.013433, 0.119285, 0.109633, 0.020260, 0.044261, -0.008098, -0.087428, -0.044560, 0.038831, -0.226677, 0.006940, 0.009142, -0.033776, -0.007323, -0.032602, -0.160340, -0.010591, -0.113244, -0.014018, -0.034213, -0.020396, 0.109579, 0.039845, -0.054613, -0.023917, 0.036236, -0.026141, 0.117942, 0.078216, 0.019105, 0.058719, -0.012009, 0.105471, 0.196679, -0.056740, -0.058610, 0.035204, 0.016613, 0.003809, -0.421868, -0.077638, 0.066224, 0.183962, 0.012620, 0.119970, 0.010186, -0.122808, -0.055940, -0.088311, 0.022520, -0.082959, -0.081435, -0.026793, -0.076856, 0.161618, -0.098334, -0.027226, 0.011174, 0.090936, -0.197184, 0.064851, -0.256515, 0.032104, -0.064212, 0.118524, 0.052428, -0.093458, 0.080499, 0.191514, -0.044048, 0.205859, 0.030034, -0.120642, 0.083789, -0.157521, 0.041342, -0.052353, -0.105694, 0.138725, -0.141365, 0.065711, -0.067309, 0.067014, -0.243387, -0.026988, 0.100871, -0.025401, 0.008415, 0.047643, -0.032597, -0.088878, -0.116433, -0.043283, -0.358364, -0.163361, 0.080537, -0.199002, -0.001847, -0.076557, -0.005516, 0.327055, 0.055275, -0.044063, 0.046651, 0.051836, 0.023434, 0.096934, 0.260219, 0.226062, -0.139880, -0.145588, 0.107874, -0.064199, 0.005703, -0.316822, -0.180365, -0.123212, -0.169510, 0.061828, 0.172847, -0.181461, -0.090055, 0.018358, 0.019667, -0.023121, 0.133717, 0.124100, 0.079567, 0.194746, -0.055357, -0.064353, 0.168997, 0.102193, -0.118655, 0.133593, 0.052335, -0.029036, -0.008009, -0.051711, 0.227035, 0.181314, 0.081694, -0.096299, 0.137640, 0.052290, 0.014838, 0.245421, -0.011154, -0.086324, -0.010162, 0.142757, -0.099573, -0.058867, -0.148669, -0.050758, -0.058385, -0.079757, -0.042982, 0.023971, -0.075498, -0.167491, 0.126789, -0.111222, 0.059901, -0.111575, -0.080613, -0.025811, 0.078239, -0.094946, 0.007874, -0.075747, 0.112686, 0.105935, -0.113857, 0.037473, 0.051480, -0.060118, 0.235730, 0.089153, 0.122439, 0.109130, 0.017439, 0.150611, -0.084902, -0.000000, 0.163694, -0.076931, 0.155626, 0.036496, 0.118367, 0.030569, -0.107503, -0.179334, -0.079454, -0.120758, -0.028082, 0.031600, 0.088671, 0.037071, -0.210481, 0.253322, -0.012186, -0.034450, -0.154432, -0.033096, -0.058826, 0.044462, -0.047986, 0.058021, 0.131544, -0.150170, -0.115750, -0.107968, 0.022278, -0.157286, -0.101572, 0.051043, 0.107903, -0.110402, 0.086067, -0.165724, 0.029112, 0.013662, 0.277628, -0.195477, 0.060862, 0.211301, -0.019421, -0.025293, -0.006288, -0.079911, 0.018013, -0.092913, 0.043914, 0.138036, -0.101801, -0.095003, 0.015309, 0.028001, -0.283691, 0.193654, 0.068624, -0.233703, 0.039612, 0.017849, -0.046803, -0.237112, 0.045107, 0.058395, 0.035882, -0.042192, -0.043552, 0.205085, -0.278777, -0.197192, 0.129954, 0.012117, 0.021075, -0.149265, -0.049432, -0.039567, 0.182804, -0.093697, 0.021259, -0.218316, -0.024122, 0.084269, 0.022749, 0.030668, -0.019796, 0.095006, 0.184148, -0.155145, 0.116345, -0.057767, -0.134182, 0.303698, -0.215861, 0.064277, 0.263596, -0.097040, -0.112814, 0.075578, 0.174200, -0.033966, -0.055934, -0.235309, -0.049346, 0.153458, -0.094550, -0.243358, 0.126249, -0.101967, -0.091357, 0.037899, -0.012532, -0.158420, -0.015049, 0.132987, -0.070295, -0.051853, -0.051336, 0.065739, 0.018488, -0.191766, -0.001527, -0.116484, 0.062087, -0.155718, -0.015616, -0.017609, -0.009296, 0.072959, 0.138785, 0.163676, -0.021847, -0.091343, -0.116795, -0.034174, 0.077579, 0.016019, 0.025015, 0.063436, -0.106682, 0.065591, 0.164814, -0.127533, 0.152578, -0.089146, 0.053930, -0.019825, -0.026844, -0.005649, -0.019113, 0.152509, 0.059687, -0.015034, -0.103267, -0.035623, 0.061811, -0.039602, 0.007786, -0.104540, 0.082862, 0.066630, 0.003011, 0.137251, -0.029545, 0.073553, 0.027110, -0.250980, -0.014762, -0.126044, -0.011502, 0.140954, 0.024792, 0.092121, 0.076907, -0.106145, 0.141554, 0.019359, 0.038623, 0.031183, 0.074510, 0.122154, 0.191756, -0.059183, -0.051808, -0.097485, 0.058360, 0.100959, -0.010522, -0.025857, 0.080007, 0.071639, -0.132013, 0.118814, 0.081252, 0.015058, 0.112932, 0.049979, -0.113432, -0.137338, 0.040589, -0.240584, -0.041974, -0.121315, 0.019628, -0.122872, -0.092894, -0.183838, 0.031753, 0.005647, -0.055538, -0.071253, -0.011959, -0.069553, 0.031628, 0.102118, 0.015122, 0.031600, -0.140550, -0.089741, 0.035132, 0.075447, 0.196525, -0.067120, 0.014766, -0.084723, -0.142973, -0.063493, 0.027187, 0.107275, -0.067295, -0.016426, 0.031553, 0.028037, -0.116730, -0.138543, 0.128861, -0.028839, -0.096811, -0.074142, -0.101184, -0.109477, -0.077287, 0.153030, 0.063838, 0.012750, 0.060887, -0.128799, -0.055387, -0.058797, 0.023377, 0.149940, 0.109469, 0.140355, 0.041995, 0.084744, -0.000463, -0.037673, 0.073466, -0.183895, 0.112794, -0.252580, -0.072993, -0.015957, 0.003531, 0.080324, 0.045371, 0.153834, 0.071147, 0.022146, 0.027708, -0.050387, 0.079329, 0.040803, -0.071577, -0.005253, 0.044716, 0.012132, -0.106137, 0.014368, 0.189165, -0.039085, -0.059317, 0.002318, -0.005754, -0.086072, 0.117686, -0.100042, 0.058708, 0.061984, 0.075776, 0.166151, -0.098343, -0.035959, -0.035993, -0.001994, -0.196717, -0.094372, -0.019612, -0.058646, -0.029662, 0.072093, 0.015193, 0.193390, 0.006359, 0.122856, 0.035460, 0.176063, 0.054372, 0.172169, -0.019931, 0.049034, -0.010937, 0.180008, 0.181498, 0.040624, -0.038067, -0.047149, 0.076271, 0.252403, -0.092169, 0.014539, 0.330699, -0.177986, 0.084051, 0.114030, 0.040176, -0.064940, -0.083522, -0.080128, -0.058658, -0.069481, -0.036912, -0.034692, 0.206305, 0.036144, -0.012576, -0.029928, -0.396860, 0.196313, 0.101684, -0.186766, -0.019587, -0.223848, -0.012633, -0.020845, 0.128073, 0.142815, -0.120380, 0.101776, -0.070263, -0.019432, -0.131017, 0.077206, 0.112867, -0.154570, -0.063784, 0.069499, -0.062394, -0.107509, 0.089343, -0.003344, 0.156896, -0.146421, 0.008840, 0.023966, -0.032259, 0.092717, -0.055627, 0.074214, 0.149379, 0.275938, 0.003625, -0.174511, -0.057330, 0.060024, 0.017461, 0.099688, 0.136982, 0.108118, -0.041629, -0.043909, 0.097856, 0.203621, 0.107933, -0.272846, 0.100677, 0.140740, 0.084110, -0.069835, 0.184524, -0.202443, 0.080290, -0.235672, -0.014175, -0.093746, 0.000244, -0.019950, -0.055163, -0.097848, -0.028311, -0.016005, -0.007646, 0.149214, 0.032706, -0.050812, -0.143647, 0.056969, -0.009976, 0.006948, -0.106745, 0.027735, -0.004363, 0.151057, 0.305216, -0.125475, 0.204451, 0.167280, 0.178297, 0.072756, 0.120605, -0.155155, 0.083465, 0.270095, 0.049292, -0.096268, -0.152501, -0.134683, 0.078309, -0.043076, -0.045796, 0.014747, -0.122224, -0.119768, 0.317959, 0.020618, -0.003900, -0.102142, 0.005915, -0.042332, 0.014405, -0.065728, -0.129246, 0.068595, 0.062485, 0.053776, -0.229785, 0.213282, 0.073596, -0.208171, -0.069809, 0.053644, -0.099828, 0.093898, -0.069212, -0.021279, 0.151617, 0.046773, 0.090300, 0.138650, 0.028897, -0.107084, -0.005752, 0.168085, -0.054119, 0.000245, -0.019429, -0.126555, 0.106151, -0.141588, -0.119779, -0.043256, -0.049529, -0.040800, -0.002970, -0.060151, 0.083121, 0.169536, 0.129941, 0.210150, 0.077857, 0.064961, 0.068544, -0.093544, -0.096040, 0.020680, 0.216233, -0.100962, 0.042834, -0.017943, -0.086963, -0.009473, -0.123945, -0.204556, 0.064447, 0.053865, -0.071336, -0.005519, 0.016263, 0.064506, -0.131522, 0.226659, 0.070781, 0.027570, 0.048727, -0.006058, -0.019591, 0.279071, 0.032533, -0.058073, 0.116547, 0.009261, 0.008558, 0.010447, 0.122532, 0.123244, -0.026575, -0.056303, 0.068534, -0.088095, -0.088236, -0.178519, -0.027154, 0.010750, -0.109975, -0.005950, 0.118824, -0.052894, 0.120466, -0.083745, 0.059213, -0.136144, 0.013076, -0.038824, -0.117814, -0.035575, -0.135110, -0.075696, 0.000461, -0.122170, 0.045849, -0.097897, 0.017900, -0.071541, -0.077235, -0.153655, -0.023136, 0.118599, 0.102769, 0.050509, 0.147154, -0.062694, 0.014548, 0.054899, 0.099558, -0.292380, -0.023687, 0.096557, -0.216083, -0.121452, -0.162759, -0.147090, 0.129402, 0.027304, -0.011379, -0.228382, -0.124779, -0.122582, -0.072641, -0.173088, 0.111864, 0.070283, 0.071429, 0.193547, 0.011164, -0.019914, -0.018607, -0.188938, -0.141608, -0.026407, 0.088710, -0.085437, -0.095529, 0.137084, -0.020482, 0.107012, 0.020300, -0.030950, 0.062326, -0.114967, 0.120984, 0.139640, 0.006459, 0.021230, -0.092640, -0.246110, -0.070051, -0.044121, 0.068048, 0.077332, 0.214613, 0.155411, 0.072113, -0.022146, 0.315941, -0.096264, -0.064450, -0.134360, -0.380057, -0.121203, -0.084824, 0.103748, 0.209123, -0.069908, -0.102709, 0.074925, 0.064829, 0.084922, 0.155477, -0.053670, -0.109075, 0.053230, 0.058124, -0.029159, -0.014629, -0.213648, 0.017864, 0.121354, -0.139422, 0.104958, -0.256541, 0.164424, -0.108601, -0.127312, -0.067194, 0.055643, 0.022279, 0.274597, -0.142182, 0.248277, -0.071123, -0.112190, 0.073917, -0.228239, 0.026145, 0.018550, -0.158087, -0.021908, -0.169427, 0.097821, -0.007033, 0.047598, -0.232774, 0.129416, 0.051203, -0.100769, 0.096090, 0.133655, -0.040498, -0.030543, 0.003810, 0.228178, -0.154807, -0.177197, 0.122356, -0.000617, -0.029173, -0.070919, 0.094195, 0.103128, 0.043957, -0.056834, -0.089260, 0.179156, 0.049419, 0.030645, 0.262411, -0.060326, 0.142134, -0.102251, 0.081587, -0.056650, 0.071404, -0.116046, 0.105696, -0.132523, -0.242672, -0.001258, 0.122727, 0.117555, 0.149105, -0.052095, 0.036287, 0.030642, 0.169105, 0.248218, 0.139664, 0.089013, 0.049481, -0.117176, 0.092004, 0.049899, -0.073348, 0.130300, -0.028011, 0.041873, 0.001924, -0.051243, 0.112855, 0.060540, -0.013709, -0.027265, 0.101603, -0.003455, -0.028834, 0.118840, 0.021610, 0.033742, -0.048205, 0.080598, 0.026776, -0.104958, -0.010111, -0.029100, -0.131248, -0.084822, 0.023054, 0.005275, 0.082856, 0.005147, -0.049082, 0.120601, 0.022242, -0.058811, 0.019981, -0.063688, 0.050354, -0.099412, -0.009924, 0.018003, 0.055279, 0.140018, -0.063468, -0.104281, -0.053130, 0.054549, -0.034718, -0.104236, 0.080282, 0.045107, -0.022439, 0.017203, -0.069194, -0.140647, 0.098170, 0.001070, -0.037414, -0.050266, 0.096433, 0.012662, -0.038261, -0.020271, -0.025603, -0.068535, -0.102759, -0.078172, -0.085330, -0.009795, -0.104670, 0.224520, -0.017684, 0.004184, -0.132075, 0.050294, 0.045493, -0.017043, 0.075422, -0.151069, 0.003374, -0.068587, -0.035623, 0.054350, 0.124734, -0.187530, -0.072314, 0.005799, 0.031209, -0.043433, 0.057961, -0.037150, -0.153527, -0.002910, 0.194760, -0.156116, 0.073097, 0.080367, -0.007353, -0.049044, 0.003950, -0.050676, 0.060250, 0.035686, -0.014366, 0.007518, 0.072562, 0.058939, -0.206821, -0.077628, -0.311083, 0.196685, 0.146965, -0.342869, -0.106383, -0.111102, -0.105146, -0.164544, -0.051538, 0.063434, -0.176297, 0.032159, -0.022674, -0.001752, -0.164463, 0.005012, 0.117797, -0.045983, 0.148403, -0.095455, -0.112307, -0.146695, 0.006237, 0.003936, 0.099872, -0.301753, 0.173324, 0.127666, -0.026508, 0.044079, -0.015383, 0.118239, 0.239081, 0.247219, -0.022120, -0.254246, 0.041492, 0.187565, -0.010751, -0.005880, 0.218023, 0.008859, -0.005547, 0.027017, 0.174805, 0.193599, 0.076590, -0.055451, 0.149336, 0.136263, -0.124277, -0.126120, 0.092183, -0.095441, -0.001034, -0.160812, 0.050744, -0.134625, 0.140972, -0.042233, -0.102629, -0.119836, 0.022723, 0.082186, -0.068531, 0.085497, 0.021181, -0.117649, -0.174814, 0.085453, 0.050877, 0.079099, -0.032953, -0.065008, -0.027282, 0.212574, 0.041239, -0.173659, 0.138129, -0.016075, 0.051565, -0.003081, 0.074666, 0.073170, 0.013176, -0.009914, 0.085988, 0.019174, 0.062171, -0.002330, 0.112143, -0.080163, -0.132722, 0.108877, -0.239728, 0.023025, -0.043419, -0.193226, -0.011378, -0.063429, -0.047133, -0.095034, -0.042538, -0.138290, 0.046066, 0.010327, -0.031133, -0.044625, -0.247360, 0.031887, -0.026493, 0.094698, 0.023150, -0.036126, -0.022703, 0.128329, 0.112043, 0.170632, 0.166269, 0.017505, 0.026345, 0.091852, -0.114212, -0.106174, -0.036497, 0.046033, -0.072118, 0.032337, -0.134177, -0.099916, 0.062045, 0.073875, 0.109245, 0.038822, -0.170808, -0.093431, -0.084573, 0.024002, 0.035305, 0.067525, 0.161812, 0.009026, 0.075947, -0.099229, 0.002809, 0.033870, -0.049855, -0.204149, -0.004504, -0.157189, 0.025984, -0.032725, 0.132508, 0.006903, 0.072108, -0.084474, 0.084171, 0.078943, 0.112656, 0.182192, -0.069378, 0.035295, -0.283933, 0.069052, -0.026548, -0.022996, -0.120853, -0.010228, -0.029650, -0.197876, -0.005406, -0.142041, 0.010760, -0.032508, -0.101913, 0.046906, 0.074002, 0.088925, 0.015025, 0.031134, 0.125528, -0.118482, -0.099676, -0.166348, -0.015303, 0.003839, -0.012763, -0.010300, 0.129180, 0.021136, 0.042045, 0.077786, 0.058415, -0.043454, 0.091759, -0.040184, -0.188874, -0.133896, -0.117351, 0.055743, -0.013379, -0.152211, 0.092862, -0.168244, 0.034773, -0.109285, -0.000958, -0.035895, -0.081222, 0.093939, -0.041994, -0.032495, 0.029548, 0.070881, 0.032744, 0.025161, 0.074284, -0.188316, 0.008857, -0.012082, -0.190345, -0.055022, -0.131743, -0.047056, 0.224554, -0.086540, -0.009507, 0.043523, -0.241611, 0.016685, -0.057211, -0.069675, 0.034035, 0.086426, 0.086539, 0.157345, 0.029465, -0.001098, -0.167592, -0.168773, -0.155726, 0.028011, -0.092102, 0.059257, 0.059767, -0.036330, -0.144093, 0.161070, -0.089760, 0.020862, -0.047323, 0.033856, 0.040550, 0.131868, 0.069134, 0.136135, -0.041016, -0.181706, -0.106538, -0.105692, 0.177196, 0.054818, 0.138169, 0.126805, -0.218478, 0.013559, 0.083094, -0.027704, -0.008350, -0.071144, 0.020173, -0.140404, -0.116834, -0.144099, -0.091220, -0.020485, 0.040944, 0.063432, 0.269287, -0.104058, -0.185877, 0.117563, -0.309706, 0.128841, 0.251883, -0.165675, 0.074866, -0.084843, 0.056243, -0.087962, 0.123729, 0.093343, 0.092990, 0.094263, -0.076130, -0.106772, -0.062199, -0.009154, -0.059358, -0.155956, -0.091189, -0.014897, 0.019661, -0.033201, 0.036226, 0.153713, 0.157572, -0.141448, 0.073652, 0.085466, -0.070416, -0.078140, 0.085407, -0.116249, 0.026977, 0.209104, -0.130828, -0.160180, 0.028605, 0.216732, 0.260179, -0.024561, -0.021379, -0.135524, 0.024975, 0.029536, 0.116515, 0.122680, 0.070652, -0.058300, -0.061842, 0.000620, 0.008023, 0.252751, 0.236094, -0.204982, -0.022272, -0.237283, 0.124307, -0.035315, 0.353234, -0.104004, -0.134319, -0.122487, -0.071085, 0.127541, -0.048651, 0.174804, 0.067044, -0.043785, -0.329982, -0.125422, 0.043665, -0.068759, -0.188984, 0.040355, -0.163155, 0.063919, 0.047951, 0.003296, 0.143567, 0.194419, 0.048194, -0.006105, 0.118237, -0.017834, 0.019997, 0.032269, -0.086406, -0.198811, -0.196355, -0.058756, 0.085157, -0.106989, -0.116636, -0.105990, -0.228238, -0.172417, -0.051451, 0.153380, -0.042151, -0.312925, 0.043206, -0.208362, 0.047491, -0.043602, -0.107216, 0.006959, -0.100438, -0.114955, -0.039810, -0.071413, -0.069772, -0.154509, -0.091193, -0.120410, 0.035992, -0.006346, -0.021564, 0.146211, 0.171627, 0.087938, 0.150371, 0.030718, 0.244342, -0.002755, -0.090841, 0.068210, -0.177875, 0.210135, -0.326918, -0.195248, 0.394562, -0.146391, -0.007570, -0.042660, -0.051422, -0.143843, 0.096358, -0.245807, 0.095533, 0.534819, 0.044031, 0.446179, 0.006530, 0.085044, -0.120750, 0.136673, -0.023366, -0.169261, 0.100036, -0.182047, 0.077274, 0.159592, 0.016267, 0.187110, 0.102068, -0.251630, 0.079013, 0.133856, 0.105077, 0.233774, 0.028605, -0.128819, -0.234108, 0.079190, 0.155430, 0.098668, 0.143145, 0.025881, 0.198685, 0.220497, 0.168848, 0.003556, 0.276519, 0.028473, -0.095216, 0.026740, -0.075486, 0.024705, -0.070807, 0.008469, -0.138469, -0.282007, 0.059513, 0.052948, 0.006269, -0.069842, 0.121633, -0.099140, -0.172953, -0.040237, 0.066350, 0.009464, -0.078039, 0.003687, 0.078247, 0.046304, -0.103434, 0.076558, -0.087911, 0.055013, -0.052876, -0.014294, -0.194284, 0.009360, -0.036114, 0.219605, 0.024849, 0.102596, -0.066161, 0.122821, 0.097380, -0.193911, 0.073475, 0.106249, -0.037584, -0.009875, -0.101721, -0.085992, -0.040648, 0.028902, -0.143510, -0.205157, -0.085570, -0.017119, 0.145713, -0.091658, -0.049552, -0.126582, 0.158166, -0.069105, -0.126434, -0.025039, 0.159186, 0.088512, 0.087518, -0.060605, -0.070329, -0.269903, 0.085341, -0.229675, -0.139466, 0.060983, -0.002283, 0.101577, -0.036784, 0.102155, 0.002306, 0.120712, -0.023245, -0.067300, -0.081736, -0.000406, 0.073890, -0.047703, -0.058879, -0.024904, 0.042293, -0.046948, 0.000593, -0.026485, 0.209671, 0.036516, 0.190945, -0.201047, -0.332844, -0.143087, 0.101573, 0.027095, -0.058253, -0.087287, -0.011623, -0.093779, -0.017237, -0.052451, 0.102618, 0.109578, -0.351413, 0.129226, 0.089109, -0.093911, -0.160073, 0.045082, -0.053430, 0.179725, 0.328965, -0.226188, -0.041097, -0.050006, -0.053727, 0.024818, -0.044936, -0.151469, 0.218605, -0.012992, -0.090661, -0.350326, -0.015253, 0.118697, 0.186384, 0.082495, -0.051381, 0.036216, -0.022252, -0.068803, 0.072319, 0.228937, 0.169052, -0.057270, -0.135005, 0.098857, -0.053623, -0.073626, -0.036768, -0.452076, 0.113055, 0.163902, -0.309774, -0.185714, 0.112305, 0.440088, 0.151457, 0.175789, 0.030554, 0.177693, 0.256174, -0.158123, -0.037932, 0.084221, 0.050132, -0.098529, 0.023640, -0.024623, -0.111981, 0.240559, 0.073413, 0.056850, 0.083241, -0.227395, 0.253257, -0.280046, 0.201727, 0.028511, 0.068717, -0.047031, 0.078488, 0.022140, 0.090814, 0.315710, -0.092059, 0.301820, -0.232651, -0.027142, -0.093660, 0.067813, -0.491934, -0.074717, 0.050205, 0.200271, 0.062202, 0.126284, 0.276344, -0.041455, -0.098256, -0.039051, -0.066269, 0.115917, 0.001681, -0.007454, -0.061180, -0.103593, 0.135070, 0.085336, 0.120548, -0.067045, 0.113275, -0.071138, -0.084330, -0.055529, 0.031488, 0.101659, 0.050943, -0.056720, 0.033651, -0.028734, -0.080936, -0.001741, -0.118864, -0.092709, -0.060149, -0.064093, -0.047032, -0.061969, -0.039141, 0.178820, 0.081517, -0.003540, -0.048814, 0.054899, 0.050555, -0.213044, -0.004623, 0.062793, -0.009477, 0.125463, -0.118386, -0.001112, -0.059230, -0.016989, -0.163551, -0.062188, -0.071077, -0.001348, 0.025353, -0.046160, -0.026761, -0.002549, 0.016799, -0.129255, -0.045650, -0.107410, 0.122300, 0.121381, -0.015324, -0.005961, -0.044828, -0.015315, 0.071760, -0.254753, 0.044431, 0.228749, 0.035846, 0.234004, 0.041556, -0.057492, -0.083696, -0.075885, -0.036737, 0.049636, -0.060262, 0.090146, 0.006978, -0.193834, -0.045127, -0.016156, 0.178792, 0.003650, 0.071850, 0.054325, 0.173199, -0.045664, 0.174969, -0.029390, -0.331088, -0.059395, -0.162711, -0.102338, -0.112352, -0.082620, -0.028182, -0.156954, 0.002581, -0.120626, 0.149515, 0.031098, 0.052467, -0.085787, 0.141455, -0.042598, -0.359809, 0.082009, -0.237499, 0.238099, 0.326498, -0.393437, -0.033539, 0.222733, 0.172653, -0.176860, 0.043905, 0.043831, 0.196845, 0.031762, 0.014036, -0.136159, -0.245333, 0.067732, -0.019109, 0.054223, 0.153056, 0.012135, 0.079218, 0.094440, -0.012646, 0.151177, 0.270183, -0.019206, -0.046349, 0.235047, -0.360743, -0.017179, -0.073633, -0.224294, 0.138444, 0.109796, -0.236298, -0.266584, -0.103304, 0.169442, 0.325249, 0.097597, 0.044369, 0.096808, 0.247865, 0.053288, 0.045056, 0.212812, 0.069402, -0.127039, 0.016440, -0.155509, 0.184441, 0.383339, 0.213902, -0.196700, 0.166702, -0.115945, -0.020278, -0.078841, 0.266325, -0.206902, -0.256052, -0.062976, 0.076295, 0.069827, -0.035833, 0.230692, -0.080535, 0.242500, -0.322693, -0.093368, -0.018652, 0.017922, -0.130758, 0.084007, -0.290363, -0.177056, 0.088585, 0.011241, -0.166293, 0.062167, -0.009085, 0.133698, -0.141247, 0.008125, 0.068047, 0.126739, -0.037505, 0.155329, 0.013624, -0.082258, 0.150710, 0.065592, 0.043305, -0.111712, -0.147754, -0.009687, 0.040150, -0.122767, 0.039300, -0.015942, 0.029242, -0.108343, -0.181883, -0.106386, -0.162608, 0.019945, 0.054542, -0.142936, -0.073877, 0.122292, 0.114686, 0.276158, -0.025964, 0.228018, -0.058034, 0.238175, -0.039154, 0.009381, 0.124232, -0.137223, -0.006654, 0.048416, -0.248337, -0.244151, -0.061908, -0.203965, -0.059097, -0.000983, -0.019939, -0.078241, -0.066912, 0.072168, 0.036016, 0.042834, -0.086053, 0.222316, 0.005250, -0.096413, 0.020396, -0.059036, 0.133708, -0.067569, -0.011715, -0.133224, 0.193315, -0.044686, -0.181859, 0.011545, 0.106412, 0.083801, -0.055485, -0.152026, 0.040560, -0.027693, -0.070114, -0.150168, -0.010424, -0.108602, 0.018150, -0.030575, -0.134201, -0.078942, -0.040749, 0.139686, 0.021450, -0.098688, -0.017640, 0.043372, 0.016240, -0.114923, 0.081226, -0.116656, 0.209536, 0.020064, 0.051152, -0.108323, -0.062350, -0.018595, 0.004390, 0.129323, 0.012823, -0.214612, 0.058250, 0.014474, 0.035264, 0.030556, 0.146079, -0.016624, -0.228281, -0.001563, 0.002727, -0.020889, -0.057013, -0.039052, 0.005267, -0.049392, -0.088468, -0.044432, -0.092760, -0.114563, -0.096225, 0.050573, -0.079114, 0.107518, -0.027503, 0.149768, -0.127128, 0.005174, -0.068521, 0.034134, -0.016030, -0.004481, 0.073303, 0.095548, -0.073761, -0.015555, 0.031945, -0.204631, -0.089758, -0.146772, -0.180519, -0.196593, -0.181819, -0.034755, 0.167656, 0.009409, 0.070271, -0.145343, 0.065781, 0.064961, 0.053039, -0.111541, 0.059940, 0.168658, 0.057865, 0.015512, 0.089519, -0.099728, 0.023827, -0.330073, -0.118456, 0.126399, 0.069275, -0.026169, -0.083272, 0.026678, 0.035177, 0.182575, -0.075488, -0.027523, -0.083470, 0.081370, 0.145818, 0.024539, -0.065311, -0.072484, -0.021232, -0.087348, -0.000204, 0.019963, 0.118139, -0.034056, 0.065548, -0.140558, 0.012898, 0.024490, 0.162575, 0.202241, -0.046352, 0.063931, -0.048156, -0.026230, -0.100412, -0.021307, 0.007049, -0.125241, -0.142957, 0.053539, -0.040957, -0.060662, 0.001004, 0.085784, 0.101035, 0.046833, -0.055653, -0.077429, -0.014029, -0.023046, -0.010335, 0.092310, -0.002778, -0.008816, 0.014231, -0.032164, 0.017041, -0.079584, -0.077026, -0.075289, -0.105458, 0.030931, -0.098293, -0.031587, -0.076321, -0.062732, 0.068306, 0.073096, 0.129369, -0.170866, -0.001733, -0.003363, -0.119259, -0.111052, 0.026646, -0.015637, -0.044894, 0.132812, -0.102461, -0.117713, -0.083875, 0.130949, -0.147368, -0.219921, 0.105658, 0.116236, 0.154186, 0.035922, 0.042684, 0.112758, -0.033103, 0.271099, -0.031391, -0.116951, 0.096803, 0.034343, -0.024260, 0.102191, 0.163961, -0.015014, 0.183757, 0.173322, 0.112326, -0.064979, -0.018156, 0.130389, -0.049203, -0.034047, 0.148138, 0.081925, 0.019092, 0.040762, 0.050817, 0.023931, 0.010276, 0.100668, -0.071972, -0.076322, -0.048852, 0.051404, 0.234175, -0.120083, -0.078717, 0.047708, 0.017647, -0.090142, 0.121129, 0.078782, -0.017900, 0.083453, 0.031918, -0.069777, 0.050812, -0.029097, -0.084461, -0.035817, -0.086023, -0.077317, 0.058314, -0.034562, -0.045718, 0.082764, 0.008275, 0.096787, 0.047490, -0.115470, 0.114943, -0.012469, -0.107550, 0.041403, -0.103864, -0.037980, 0.160091, -0.116558, -0.064205, -0.034260, -0.136505, 0.011935, -0.084162, 0.025635, 0.090811, 0.002804, -0.046980, -0.104568, -0.028784, 0.007427, -0.125765, 0.025312, -0.062296, -0.013792, -0.092323, -0.032273, -0.031816, -0.214825, 0.038513, 0.094332, 0.176597, 0.048124, -0.036241, 0.159692, 0.094756, -0.024154, -0.017577, -0.074075, 0.125535, 0.062245, 0.049035, -0.007639, 0.134216, -0.256969, 0.018603, -0.001161, 0.000453, -0.027889, -0.092122, 0.091662, -0.038876, -0.064512, 0.034448, 0.139158, -0.028274, 0.052660, -0.084018, 0.072571, 0.065946, 0.083288, -0.018151, 0.051003, 0.001004, 0.076857, 0.035961, -0.110756, 0.061626, -0.135931, -0.066794, -0.011603, -0.118846, -0.113110, 0.015704, 0.075405, 0.076095, 0.019833, 0.045400, 0.136042, 0.037546, -0.137498, 0.029742, -0.159402, -0.046333, 0.038307, -0.004336, 0.093098, -0.182109, 0.155994, 0.127599, 0.050802, -0.080311, 0.058626, 0.018230, -0.107748, -0.062348, -0.159916, 0.172260, 0.010834, 0.017578, 0.161391, 0.049110, 0.103027, 0.201238, 0.239970, -0.117155, -0.111193, -0.095591, 0.195586, -0.078143, 0.070380, 0.063610, 0.018273, 0.031081, -0.023349, 0.032690, 0.202220, 0.014993, -0.169557, 0.192675, 0.016231, -0.125842, -0.139164, -0.150417, 0.184170, -0.089971, 0.035519, 0.013835, 0.100689, 0.119801, -0.023912, -0.054174, -0.120159, 0.045239, -0.099824, -0.076374, -0.006587, -0.050937, -0.236696, -0.089736, -0.143629, 0.095787, -0.133974, -0.053387, -0.149308, 0.092688, 0.170223, -0.110691, 0.008538, 0.089999, -0.050722, 0.134763, 0.060716, -0.030051, 0.187720, 0.074219, -0.115955, -0.067577, 0.006205, 0.060652, -0.022856, -0.100707, -0.019099, 0.133985, -0.015911, -0.003091, 0.240459, -0.056984, -0.040199, 0.031550, -0.075480, -0.063041, 0.085254, 0.171656, -0.200066, -0.008539, 0.088829, -0.035130, -0.082015, -0.137201, 0.082680, 0.172671, -0.048125, -0.150827, 0.104042, 0.089285, 0.121251, 0.064212, -0.053768, -0.049998, -0.129468, -0.065837, 0.117153, 0.042691, -0.057277, 0.075609, -0.107643, -0.106213, -0.011641, -0.169042, 0.123580, -0.108097, -0.020692, 0.091159, -0.173281, -0.005523, -0.066332, -0.027281, 0.006136, -0.157951, 0.136901, 0.016204, -0.014685, -0.039767, -0.018034, -0.070712, -0.139716, 0.111467, 0.145691, -0.050264, -0.207788, -0.051453, 0.015446, 0.077204, 0.028094, -0.056501, 0.063692, 0.098722, 0.180747, 0.057502, -0.202955, 0.082510, -0.311100, 0.048431, 0.015456, -0.011252, -0.043702, 0.040527, 0.014538, 0.000734, -0.104506, -0.039797, 0.117554, -0.090233, 0.030710, 0.024695, -0.112562, 0.000784, 0.170953, -0.003438, -0.145883, 0.092433, -0.031049, 0.095656, -0.033458, -0.024013, -0.105252, -0.225403, 0.032884, 0.045018, 0.088751, 0.176131, -0.145057, 0.105746, -0.115458, 0.014405, -0.178620, 0.002695, 0.037460, 0.200989, -0.069129, 0.013308, 0.010795, -0.092479, 0.248481, -0.210075, 0.109076, -0.092098, -0.109705, 0.086971, 0.275070, -0.151644, 0.062546, 0.117849, -0.084249, 0.122506, -0.291292, -0.089868, 0.099344, 0.051288, 0.150187, 0.047499, -0.144450, 0.031027, -0.140029, -0.049179, 0.058182, 0.093840, -0.088586, -0.086318, -0.035520, -0.145505, -0.032185, -0.172100, 0.082971, -0.078441, -0.147577, 0.156931, -0.134341, 0.145271, 0.157659, -0.302423, 0.124374, 0.100960, 0.087591, -0.092304, 0.052342, 0.223372, 0.324515, -0.183234, 0.002976, -0.074226, -0.177496, -0.042305, 0.072980, 0.111377, -0.023737, -0.031255, 0.073812, 0.104543, -0.097619, 0.097836, 0.030905, 0.098428, -0.053703, -0.044586, 0.046211, -0.087603, -0.002340, -0.093111, -0.045639, -0.179961, 0.039409, -0.020596, 0.113740, -0.116248, -0.053123, -0.186201, 0.079469, -0.115054, -0.163650, 0.046150, -0.086697, -0.012345, 0.213232, -0.023396, -0.113650, 0.020539, 0.052997, 0.100817, -0.006272, 0.175027, -0.064121, 0.077816, -0.032535, -0.152780, -0.061600, -0.053142, 0.026345, 0.197909, 0.034697, 0.042988, -0.042774, -0.069873, 0.099352, 0.125876, 0.027945, -0.003422, -0.110371, 0.136672, -0.021522, -0.010467, -0.078735, 0.056414, -0.032887, -0.114743, 0.118461, -0.083875, 0.077642, -0.080807, 0.151079, 0.164870, 0.011307, 0.037732, 0.007615, -0.011775, -0.108481, -0.141874, 0.028026, -0.066250, 0.024358, -0.189736, 0.149975, -0.071727, -0.286958, -0.021160, 0.113452, -0.001218, -0.049979, -0.104881, 0.037330, 0.194342, -0.078273, 0.024084, 0.016467, 0.039335, 0.087485, -0.101334, -0.107729, 0.139795, -0.384633, -0.079996, 0.200791, 0.191250, 0.072930, 0.171466, -0.064186, 0.095617, 0.078576, 0.105011, 0.062461, 0.029315, -0.214507, 0.137827, -0.096901, -0.219590, 0.226861, 0.132740, -0.027947, -0.056803, -0.013687, -0.093132, -0.107451, 0.098792, -0.055530, -0.011159, -0.056696, -0.117835, 0.085355, 0.165242, 0.148173, -0.083779, -0.195155, 0.010998, 0.053942, 0.154596, -0.037878, 0.016506, 0.041447, -0.098793, 0.009123, -0.157168, 0.066459, -0.000943, 0.041033, -0.134687, -0.266949, 0.013368, 0.034379, 0.172993, -0.026852, 0.076100, 0.026439, -0.035381, 0.134020, -0.055342, 0.023123, 0.023420, -0.012815, 0.109374, 0.030980, -0.205822, -0.050714, -0.077074, -0.025579, 0.232254, 0.030058, 0.027866, -0.065248, 0.043678, -0.037828, -0.074661, 0.103397, 0.053506, 0.067053, -0.009415, -0.009598, -0.021076, -0.250981, 0.114694, 0.100132, 0.187064, 0.030395, 0.040579, 0.198632, 0.023190, -0.006615, -0.040123, -0.050894, 0.153493, 0.127208, 0.039580, -0.120911, 0.043247, -0.137736, 0.018675, -0.128943, -0.120173, -0.142849, 0.115333, 0.059943, 0.159022, -0.139350, -0.051532, 0.089422, 0.050599, 0.010355, 0.101169, 0.134349, 0.018828, 0.226362, 0.087181, 0.031153, 0.030433, 0.015890, -0.068731, -0.028041, 0.023630, 0.041940, -0.002417, -0.092198, -0.125816, -0.051673, 0.127518, -0.063149, 0.068062, 0.053679, 0.089060, 0.079117, 0.083691, -0.107616, 0.007536, -0.115343, -0.017089, -0.059510, 0.011607, 0.092379, -0.034200, 0.138564, -0.031613, -0.027644, -0.032671, 0.049708, 0.097456, -0.086026, 0.070226, -0.142206, 0.043955, -0.050474, 0.057459, -0.004703, -0.035033, 0.025795, 0.048513, 0.013401, -0.042317, -0.108340, 0.058669, 0.099878, -0.030427, -0.073942, 0.083969, 0.048562, -0.107827, -0.058288, -0.132593, -0.030368, 0.010005, -0.050977, 0.095843, 0.050594, -0.026114, 0.022026, -0.157909, 0.125149, 0.057345, 0.083827, -0.103071, 0.102227, 0.034131, 0.161902, -0.019333, 0.059936, 0.097652, 0.092787, 0.033937, 0.003365, -0.120301, -0.179720, -0.005981, -0.028335, 0.155070, -0.148107, -0.036051, -0.070599, 0.134193, 0.106153, -0.079804, 0.076698, 0.084004, -0.080959, 0.011906, -0.022143, -0.144749, 0.078571, -0.115434, 0.059484, 0.000974, 0.083272, -0.002160, 0.010416, -0.052626, -0.060346, 0.038476, -0.032167, 0.213284, 0.234822, -0.170016, 0.040545, -0.026839, 0.036473, -0.073201, -0.129770, 0.131195, -0.050936, -0.106219, 0.173162, 0.082935, 0.070220, 0.089407, 0.222574, -0.122096, -0.026383, 0.008304, 0.095391, 0.036736, 0.037845, 0.050563, 0.136738, 0.019072, -0.280757, 0.107111, 0.112907, 0.046304, -0.149612, -0.007370, 0.062866, 0.015908, 0.107714, -0.041243, -0.109747, -0.006408, -0.021036, 0.057262, 0.061041, -0.045731, 0.006289, 0.222337, -0.089824, -0.000826, 0.081611, -0.029253, -0.239034, -0.107712, 0.188344, -0.018614, 0.048618, -0.037363, 0.210451, -0.187763, 0.081824, 0.005059, 0.148656, -0.008298, -0.009549, 0.189685, -0.053410, -0.078817, 0.020753, 0.014073, -0.067128, -0.070430, -0.055360, -0.011855, 0.024532, -0.008397, 0.106209, 0.004481, 0.016292, -0.099050, -0.001435, 0.252949, 0.092646, -0.086335, -0.175907, 0.132749, -0.127993, -0.141901, 0.157876, 0.112996, 0.014364, -0.085866, -0.003847, -0.100162, -0.047334, 0.144519, 0.259919, -0.010957, 0.067171, -0.077911, -0.151491, 0.060923, -0.140530, 0.143539, -0.090023, -0.107451, 0.026043, -0.067052, 0.190684, 0.103615, -0.095107, 0.083041, 0.070333, -0.007820, -0.069325, -0.183240, 0.074573, -0.005711, -0.090323, 0.026431, 0.029932, 0.042476, -0.228196, 0.125312, 0.047134, -0.012352, -0.055058, 0.037309, -0.014672, -0.117072, 0.056131, -0.084012, -0.048600, 0.023423, 0.058468, 0.018836, -0.161925, 0.017854, 0.156431, -0.251130, 0.041861, -0.069460, 0.033748, -0.306508, 0.003952, -0.058118, 0.003709, 0.045521, -0.000250, -0.059679, -0.170303, 0.026710, -0.019869, -0.067250, -0.003248, 0.176899, -0.045894, -0.062155, 0.086452, 0.062505, -0.121066, 0.033996, 0.011299, -0.093150, 0.020515, 0.182345, -0.015148, 0.184450, -0.068549, -0.119748, -0.081232, -0.040538, 0.188237, 0.080639, -0.063951, 0.033503, -0.115648, 0.052000, 0.106685, -0.048266, 0.142016, -0.024616, -0.152862, 0.022872, 0.136599, -0.001767, -0.075696, 0.046923, -0.003950, -0.043020, -0.058390, 0.197346, 0.062410, -0.198554, -0.062632, 0.136003, -0.010785, 0.133380, -0.045459, -0.086314, 0.087532, 0.072114, -0.196442, -0.074294, -0.034167, -0.008211, 0.043890, -0.195480, -0.025629, -0.027616, -0.053905, -0.177189, 0.085574, 0.078466, -0.123268, 0.077732, -0.229358, 0.155873, 0.105495, -0.012529, 0.167355, -0.012109, 0.131655, -0.182957, -0.150176, -0.061998, 0.044952, -0.068651, 0.143092, 0.028656, 0.010179, 0.017568, -0.018865, -0.092436, -0.052061, -0.015620, 0.076241, -0.089493, 0.035239, 0.012495, 0.032379, 0.055701, -0.043261, 0.021305, -0.345944, 0.027931, 0.115766, 0.046163, 0.045279, -0.017092, 0.012996, -0.086509, 0.078577, 0.004463, 0.048752, 0.060832, 0.039863, 0.094604, -0.099952, 0.023499, -0.294062, -0.011315, -0.282294, -0.024564, -0.086015, 0.040728, 0.086402, -0.020959, -0.039488, 0.033632, 0.023383, -0.026358, 0.039703, -0.003830, -0.030081, 0.086569, 0.001802, -0.074420, -0.197700, -0.076628, -0.057320, 0.099324, 0.045058, 0.024546, -0.078336, 0.127977, 0.025941, -0.285413, 0.320945, -0.130190, 0.121091, -0.021451, -0.014720, 0.017124, -0.021414, -0.046463, -0.112771, 0.103081, 0.037511, 0.019734, -0.033620, 0.048122, -0.008097, 0.096074, -0.042129, 0.128847, 0.084636, -0.071433, 0.008778, 0.061699, 0.004077, -0.042034, -0.099838, -0.025292, -0.079268, -0.074847, 0.013963, 0.096090, -0.011597, 0.004587, 0.095778, -0.028984, 0.051451, -0.077538, 0.077626, 0.097349, 0.008503, 0.084580, -0.106688, 0.097156, -0.012869, -0.000752, 0.107365, -0.090259, -0.063503, -0.038037, 0.084009, -0.020251, -0.042685, 0.073041, 0.178967, -0.257211, 0.042460, 0.107492, -0.006149, 0.086546, -0.069102, -0.108714, -0.070444, -0.039037, 0.122253, 0.081063, -0.178825, -0.017628, -0.122012, 0.098497, -0.108577, 0.141504, 0.090392, -0.128016, -0.145625, 0.002672, -0.141902, -0.004936, 0.017165, -0.041254, 0.063483, -0.038929, 0.006219, -0.054192, 0.026343, -0.017652, -0.029375, -0.150061, -0.077148, 0.090024, -0.092623, -0.019677, -0.016224, 0.076147, -0.063536, -0.129959, 0.050999, 0.097955, -0.124962, -0.002594, -0.056607, -0.008458, -0.218930, 0.060546, -0.036039, 0.083873, -0.146495, 0.016675, -0.044221, 0.092792, 0.199215, 0.012981, -0.035169, -0.119130, -0.035013, -0.095711, 0.050404, 0.106304, 0.126923, 0.102433, -0.041986, 0.020525, 0.022636, 0.051798, 0.002483, -0.142515, 0.030876, -0.195155, -0.119956, 0.002639, -0.056923, 0.056373, 0.006900, -0.062291, -0.192024, 0.009450, 0.155776, -0.018622, 0.018929, -0.141134, 0.193530, 0.010335, -0.052962, -0.046177, -0.017509, -0.018300, -0.040788, 0.062045, -0.023138, 0.042070, -0.061462, -0.138787, -0.085152, 0.106276, 0.081136, 0.065534, -0.022112, 0.017398, 0.020466, 0.048729, 0.058161, 0.072517, -0.242369, -0.054413, 0.141994, 0.122785, -0.024407, -0.078774, 0.112514, 0.020157, 0.072226, -0.029695, -0.052806, 0.017667, -0.019817, 0.078151, -0.063775, 0.020751, -0.014476, 0.029742, -0.124857, -0.123681, 0.070276, 0.104469, 0.043006, -0.096785, -0.214657, -0.078213, 0.085388, -0.138320, 0.321813, -0.178281, 0.033887, -0.148446, 0.150733, 0.018989, -0.178530, 0.080947, 0.113439, -0.165083, 0.042618, -0.069893, -0.038050, 0.120357, 0.056884, 0.122003, -0.205088, -0.027081, -0.036839, -0.103910, -0.051709, 0.040308, 0.145403, -0.096607, -0.159950, -0.081756, -0.023518, -0.024599, -0.116298, -0.026481, -0.059745, -0.028010, 0.205770, 0.006419, 0.005378, -0.026187, -0.042394, 0.080587, 0.128049, 0.022456, 0.130626, 0.109719, -0.110044, 0.027024, 0.120671, -0.090795, 0.009651, -0.175240, 0.264540, -0.184477, -0.123096, 0.000073, 0.050022, -0.257294, -0.039984, 0.098756, 0.039382, 0.122238, -0.121283, 0.085081, -0.023988, -0.075932, 0.114377, -0.129886, -0.044321, -0.035894, -0.344487, -0.061228, 0.066679, 0.015234, 0.105550, -0.014136, 0.107225, 0.073229, 0.145829, 0.164183, -0.143574, -0.039648, -0.073051, 0.068605, -0.029717, -0.202026, 0.116229, 0.216262, 0.156676, 0.026902, -0.005935, -0.143697, -0.033063, -0.004699, 0.164723, -0.052920, 0.043979, -0.237610, 0.003140, 0.035005, -0.021876, -0.032984, -0.058259, 0.036024, 0.052267, -0.127718, 0.081336, 0.147799, -0.001420, 0.000468, 0.061450, -0.163972, -0.021071, -0.180703, 0.056204, 0.012448, -0.231879, 0.007016, -0.007274, 0.019853, -0.206782, 0.194149, 0.319696, -0.047935, 0.176850, -0.042211, 0.161637, -0.175954, -0.247568, 0.089041, 0.125140, -0.004095, 0.149203, -0.100255, -0.238458, 0.113603, 0.119101, -0.136107, -0.246297, -0.062842, 0.047471, -0.299364, 0.086593, 0.059669, 0.170400, 0.048220, 0.012931, 0.174401, -0.368524, 0.072441, 0.086253, -0.018178, 0.125382, -0.043443, 0.076349, 0.095968, 0.101983, 0.063526, 0.023156, 0.174786, 0.088396, 0.069876, -0.011059, 0.274931, 0.004134, 0.177926, -0.197609, -0.215386, -0.186333, 0.052433, 0.226888, 0.224779, -0.281780, -0.095634, 0.084178, 0.030934, 0.107742, 0.126417, 0.031740, 0.184137, -0.094807, 0.045421, 0.012750, 0.049764, -0.001177, 0.110383, -0.016683, -0.088626, -0.049271, -0.038262, -0.047581, -0.165251, -0.141983, -0.010032, 0.181940, 0.081400, -0.027253, 0.041353, 0.102172, 0.046943, -0.106208, 0.031450, -0.037373, -0.012575, -0.078498, -0.122906, 0.051029, -0.056121, 0.116587, -0.165446, -0.105497, -0.045936, 0.016310, 0.041748, -0.102735, 0.235989, 0.004410, 0.105793, 0.014267, 0.042673, -0.009754, -0.036881, -0.127952, -0.057712, 0.019019, -0.090331, 0.092138, -0.089079, -0.065383, 0.098336, 0.214611, -0.108490, -0.131580, 0.048083, 0.028294, -0.056536, 0.012918, 0.036915, 0.070245, 0.063996, 0.130583, -0.122670, -0.287945, 0.116760, 0.279334, 0.001936, 0.119053, -0.038791, 0.044344, 0.088880, 0.090187, -0.068152, 0.099799, 0.078670, -0.064288, -0.095257, -0.022559, 0.088049, -0.099341, 0.122730, -0.208134, -0.155533, -0.139045, -0.036861, 0.077640, 0.102400, 0.027227, 0.133644, 0.245145, 0.003978, 0.065640, 0.162928, 0.079735, 0.214932, 0.032439, -0.086308, -0.010406, 0.029571, 0.011183, -0.144882, -0.031479, -0.000165, -0.034699, -0.024768, -0.085505, 0.046639, -0.142231, -0.171180, -0.193736, 0.078272, 0.053878, -0.100355, -0.128490, 0.147342, 0.072420, -0.091547, 0.081090, -0.020758, 0.053505, 0.128021, 0.272530, -0.031167, -0.203340, 0.014389, 0.075120, 0.032653, -0.074398, 0.043328, 0.176708, 0.039760, -0.275661, 0.116761, 0.128827, 0.037625, -0.186419, 0.010215, -0.045268, 0.004170, 0.081171, -0.000780, -0.108000, -0.041699, 0.183021, -0.127524, 0.131584, 0.036876, 0.084904, 0.062734, -0.188852, 0.149053, 0.172396, -0.076279, -0.117332, -0.025024, 0.252123, -0.097892, 0.172252, 0.001642, 0.096805, -0.154950, 0.038879, -0.083596, -0.002843, -0.083917, -0.048646, -0.078448, -0.207361, 0.087812, -0.058850, -0.021819, 0.122401, -0.038118, -0.327840, 0.012213, -0.030544, -0.129450, 0.145321, -0.175097, 0.163684, 0.071663, 0.166067, 0.293283, 0.114870, -0.107036, -0.117597, 0.112885, -0.036522, 0.062590, 0.094397, 0.161227, -0.080061, -0.006463, -0.052522, -0.248827, 0.086817, 0.090128, 0.214392, 0.167219, 0.077493, -0.016809, -0.083740, 0.344178, 0.284127, 0.093686, -0.332756, -0.037041, 0.092339, -0.175302, 0.142661, 0.046207, 0.005995, -0.222285, 0.052322, 0.050792, -0.151130, -0.145891, 0.300680, -0.030071, -0.115225, -0.020059, 0.018723, 0.011647, -0.308573, -0.083042, 0.090149, -0.200103, -0.072828, -0.035887, 0.232999, -0.171570, 0.071632, 0.063516, 0.044334, -0.108101, 0.159706, -0.122915, -0.043727, 0.223289, -0.115728, -0.062141, -0.078593, 0.150504, 0.063872, -0.065309, -0.059709, 0.036720, 0.077776, 0.191606, -0.115926, 0.134782, -0.228691, -0.222989, 0.009986, 0.030048, 0.091393, 0.093606, -0.035500, -0.051801, 0.109649, 0.179292, -0.129298, 0.139201, 0.261789, -0.111108, 0.171467, 0.003140, 0.054288, 0.122840, -0.277366, -0.132552, -0.034586, 0.141741, 0.066245, 0.053200, -0.033497, 0.014685, 0.021788, -0.055214, 0.147387, 0.087999, -0.122106, 0.117201, -0.047839, -0.195994, 0.024124, 0.049058, -0.068152, -0.058679, -0.032059, -0.036392, 0.043928, -0.052400, 0.115017, -0.304823, 0.080115, 0.024660, 0.011414, 0.040717, -0.153600, -0.121930, 0.158479, 0.038273, 0.044569, 0.004887, -0.247322, -0.088693, -0.099083, -0.227468, -0.095903, -0.021116, 0.026752, 0.014136, -0.101939, 0.011531, -0.015882, 0.138321, -0.277606, 0.044732, 0.110439, 0.071552, 0.153327, 0.032926, 0.137672, -0.163877, 0.037588, 0.150928, 0.062504, 0.001339, 0.162135, 0.061113, -0.184991, -0.046145, 0.224628, -0.040993, -0.034531, 0.017781, 0.157883, -0.231941, 0.076094, 0.078087, 0.162907, 0.076978, 0.015758, 0.067804, -0.275251, 0.033718, 0.169202, 0.007756, 0.105434, 0.020943, 0.120453, 0.043925, 0.136146, -0.027632, 0.000501, 0.084837, 0.242911, -0.039225, 0.081404, 0.024545, 0.045778, 0.059571, -0.316260, -0.076629, -0.294246, 0.022072, 0.127929, 0.170625, -0.056977, -0.095312, -0.073532, -0.038944, 0.132436, 0.114020, 0.285202, -0.042406, -0.112077, -0.071183, 0.028535, 0.099944, -0.031920, -0.101838, 0.030945, -0.110806, 0.126816, 0.268002, -0.160818, -0.163027, 0.045681, -0.169933, 0.101730, -0.017410, 0.091769, 0.088398, -0.206117, 0.236409, -0.197080, 0.133049, 0.036874, 0.059582, -0.092006, 0.139871, -0.085912, 0.105752, -0.061051, -0.066142, 0.038170, 0.075133, -0.043525, 0.233647, 0.025653, -0.061403, -0.076472, -0.071664, -0.017209, -0.056158, -0.018478, 0.192295, -0.147555, -0.030209, 0.078461, 0.011567, 0.030819, 0.023868, 0.166486, -0.166327, -0.301753, 0.232742, 0.114151, -0.039216, 0.081617, 0.007784, 0.058583, 0.061664, -0.026498, -0.133045, -0.045226, -0.015153, 0.177062, 0.103622, 0.003035, -0.302495, -0.093833, -0.146937, -0.026723, 0.168135, -0.003698, 0.038746, -0.109215, -0.043622, -0.012387, -0.002458, 0.179577, -0.047517, -0.032157, -0.011636, -0.131870, -0.049368, 0.126698, 0.007813, -0.272885, -0.145573, 0.018386, -0.026364, 0.161611, -0.080341, -0.016883, -0.004899, -0.161968, -0.088683, 0.040840, -0.021516, -0.096870, -0.033990, -0.090727, 0.273495, 0.021546, 0.055954, 0.016193, -0.011870, -0.159864, -0.186778, 0.177401, -0.075682, -0.199506, -0.041528, 0.009457, -0.011086, -0.051852, -0.064555, 0.007003, -0.053506, -0.047510, -0.016805, -0.107191, -0.089200, 0.061851, 0.032344, -0.193286, -0.090458, 0.076405, 0.089350, -0.101981, 0.132269, 0.102578, -0.008974, -0.032583, -0.047299, 0.083783, 0.015844, -0.023130, -0.106179, 0.046185, -0.070289, 0.077921, -0.078802, -0.148165, -0.053550, 0.169741, -0.161805, 0.035096, -0.137941, 0.239790, 0.179779, 0.085609, -0.167709, -0.086149, -0.083684, 0.094132, -0.088541, -0.056483, -0.187656, -0.085026, -0.059869, -0.022641, -0.108592, -0.034993, 0.034845, -0.074921, -0.038981, -0.004435, 0.025783, -0.032456, 0.082198, 0.012043, -0.031194, -0.161243, 0.113658, -0.219559, -0.014850, 0.048381, 0.032618, -0.002012, -0.179528, -0.006603, 0.106017, 0.145905, -0.125327, 0.059925, -0.096466, 0.078887, 0.037036, 0.034072, -0.046198, 0.149280, 0.055426, -0.029381, -0.014700, 0.081683, 0.038594, 0.075926, 0.002812, -0.066368, -0.096539, -0.065979, -0.183975, -0.102050, -0.152739, -0.289059, 0.089663, 0.195290, 0.010202, -0.307047, 0.126022, 0.029381, -0.134823, -0.022143, -0.020812, 0.056959, 0.176705, 0.156074, 0.129350, -0.239049, 0.008443, 0.041055, -0.127096, -0.101749, 0.087859, 0.178837, 0.085149, -0.184711, 0.013321, -0.010191, 0.023521, -0.148686, -0.097577, -0.195562, 0.024874, 0.160172, -0.033475, 0.075981, -0.084328, 0.056016, -0.010426, 0.096666, 0.051821, 0.030145, -0.013809, -0.120916, 0.019153, 0.213163, -0.101016, -0.110779, -0.058845, 0.196541, -0.121365, 0.058097, 0.206359, 0.060601, -0.260697, -0.119147, 0.018230, 0.014842, 0.011700, -0.126104, -0.052038, -0.115171, 0.099074, -0.091256, -0.084110, -0.009650, -0.009845, -0.366300, 0.026335, 0.004902, -0.073847, 0.121770, -0.089090, 0.099089, -0.050402, 0.034329, 0.166842, 0.146953, -0.079902, 0.024098, 0.104006, 0.063029, -0.013832, 0.137094, 0.212349, 0.030781, 0.016049, 0.027547, -0.082544, 0.074183, 0.209103, 0.058188, 0.032404, 0.093593, -0.030843, -0.136449, 0.092231, 0.117014, 0.120982, -0.297596, -0.105130, -0.091348, -0.203019, 0.061449, 0.228201, 0.061272, -0.001277, -0.012372, -0.111623, -0.056936, -0.242300, 0.275323, 0.134319, -0.197757, -0.030162, -0.020855, -0.019041, -0.210245, 0.179335, 0.250234, 0.128090, -0.065003, 0.065556, 0.111133, -0.186424, -0.132201, 0.047459, -0.057834, -0.155163, 0.038435, -0.035338, -0.143490, 0.114888, 0.196911, 0.038744, -0.167200, -0.001357, -0.019098, -0.042150, 0.144659, -0.056543, 0.088684, 0.262553, -0.065729, 0.180260, -0.281104, 0.034444, 0.008922, 0.129197, 0.052051, 0.121999, -0.016703, -0.068967, 0.276143, 0.212588, 0.045212, 0.151791, 0.144089, 0.014176, 0.119401, 0.210495, 0.063402, 0.295374, -0.297187, -0.256433, -0.281994, -0.043534, 0.227966, 0.096216, -0.175834, -0.066295, 0.018241, 0.066044, 0.254055, -0.006810, -0.036607, 0.093205, -0.278147, 0.027219, 0.010486, 0.047097, 0.033880, -0.031329, -0.032928, -0.128277, -0.079978, 0.030874, 0.100264, -0.305707, 0.106263, 0.089005, 0.016351, 0.076932, -0.249670, -0.101814, 0.199239, 0.068956, -0.039697, -0.041813, -0.046653, -0.083739, 0.089655, -0.211713, -0.042996, -0.062641, 0.273751, 0.059821, -0.164483, -0.027049, -0.075017, -0.059118, -0.291388, 0.038843, 0.240197, 0.082288, 0.043298, -0.089001, 0.125886, -0.158942, -0.076525, 0.103227, 0.059444, 0.046179, 0.240895, -0.051177, -0.162355, 0.079891, 0.281626, 0.069173, -0.050380, -0.092331, 0.025808, -0.109091, -0.010326, 0.017799, 0.226803, 0.037278, -0.046979, 0.046614, -0.442984, 0.036785, 0.253793, -0.052015, 0.103595, 0.049981, 0.151937, 0.038808, 0.085284, -0.092943, -0.073360, 0.060657, 0.198047, 0.040180, -0.067318, 0.061830, 0.154021, 0.198478, -0.344399, -0.115626, -0.192171, -0.019388, 0.178197, 0.241009, -0.227837, -0.059102, 0.017345, 0.019659, 0.063261, -0.027571, 0.241856, 0.114244, -0.114005, -0.066138, 0.090597, 0.020969, -0.083844, -0.110228, -0.037723, -0.040410, -0.052038, -0.121756, -0.057458, -0.006602, -0.199841, -0.165497, -0.309681, 0.101570, 0.099974, -0.002339, -0.351481, 0.195098, 0.027623, -0.065044, -0.183828, 0.055748, 0.089936, -0.029141, 0.338655, -0.101708, -0.122870, 0.081410, 0.083326, 0.014265, 0.141089, 0.126200, 0.062040, -0.000685, -0.117281, 0.082813, -0.008370, -0.031252, -0.043435, 0.114006, -0.003964, 0.065756, -0.061726, 0.158092, -0.112444, -0.088800, 0.181934, -0.102780, 0.018717, 0.211111, 0.043822, -0.156074, 0.002296, 0.271829, 0.290596, 0.075993, -0.142877, -0.074962, 0.155865, -0.111676, 0.066623, 0.086189, 0.152187, -0.019011, 0.019456, -0.047541, -0.029073, 0.146091, -0.090500, -0.229809, -0.145023, 0.013495, 0.071493, -0.097062, 0.106227, -0.090332, -0.243221, 0.011190, -0.009823, -0.074237, 0.094622, -0.258114, 0.035825, 0.287389, 0.125212, 0.159922, 0.128190, -0.045244, 0.013700, -0.010432, 0.092814, 0.073601, 0.185865, 0.009430, 0.010661, 0.013343, 0.001551, -0.154818, -0.061880, 0.006960, 0.200678, 0.087486, 0.013169, -0.030267, 0.148148, 0.044313, 0.175749, 0.003611, -0.035694, -0.093439, 0.200674, -0.064436, 0.089986, -0.082198, 0.041552, -0.117633, -0.068503, 0.117510, -0.222733, -0.017027, 0.096483, -0.111942, 0.106552, -0.006598, -0.138263, 0.051298, 0.040431, 0.078046, 0.110032, -0.227543, 0.215443, 0.067176, 0.020716, -0.071132, 0.060766, -0.022575, -0.310327, -0.102859, 0.011103, -0.063430, -0.143091, 0.067556, 0.072376, 0.060305, -0.131683, 0.230913, 0.008546, 0.005450, -0.190354, -0.140757, 0.198245, -0.052987, 0.097104, 0.063679, -0.226337, -0.075552, 0.085615, 0.021799, 0.082061, 0.029221, 0.055686, 0.043936, 0.061160, 0.005166, 0.290256, -0.005368, 0.154184, 0.039151, 0.063775, 0.057348, 0.173921, 0.069670, -0.189104, -0.157487, 0.047825, 0.175933, 0.084921, 0.060952, -0.043587, 0.032057, -0.035659, -0.064817, 0.057520, -0.002494, -0.084402, 0.125365, -0.314251, 0.236606, 0.062447, 0.025887, 0.068216, 0.036402, -0.069148, -0.060596, 0.256815, 0.042951, 0.023928, -0.165215, -0.004462, 0.159010, 0.070379, 0.137576, -0.341798, 0.037094, -0.072743, 0.016368, 0.061617, 0.214147, 0.129661, 0.021262, 0.022125, -0.049594, -0.042544, -0.117495, 0.220232, -0.039129, -0.097867, 0.043192, -0.163881, 0.097430, -0.004902, 0.173101, 0.168716, 0.030477, -0.065251, -0.028128, 0.144554, -0.097192, -0.004128, -0.091390, -0.080912, -0.038682, 0.183459, 0.023067, -0.013154, 0.041416, -0.067504, 0.091135, 0.051080, 0.061285, 0.172562, 0.002292, 0.118896, -0.108338, 0.231372, 0.157023, -0.180950, 0.064663, -0.201344, -0.041441, 0.136224, 0.035244, 0.076164, 0.073808, 0.002161, -0.081505, 0.081116, 0.145141, 0.037853, 0.165519, 0.032287, 0.075711, 0.280158, 0.033892, 0.294000, 0.241403, -0.267058, -0.094890, -0.149469, -0.021444, 0.194460, 0.066598, -0.130998, -0.193620, 0.009480, 0.003947, 0.092243, -0.152784, 0.126707, 0.019259, -0.085265, 0.054441, -0.002930, 0.041060, 0.035119, 0.084436, -0.108610, -0.194252, 0.171396, -0.030250, 0.316120, -0.030480, -0.074284, -0.191825, 0.130670, -0.013788, 0.133452, 0.005279, -0.142383, 0.187720, 0.014311, 0.053526, -0.103131, 0.144682, -0.058210, 0.208268, 0.096921, -0.020114, -0.003766, 0.179009, 0.019019, -0.049528, 0.033261, -0.001139, 0.190654, -0.172867, -0.004670, -0.084969, -0.053324, -0.071819, 0.170355, 0.227889, 0.254636, -0.002926, -0.125038, -0.022603, -0.213309, -0.079525, 0.006506, 0.099237, -0.323444, 0.141576, 0.024426, -0.022448, -0.054886, 0.241286, 0.065327, 0.060135, -0.292229, -0.041927, 0.376028, 0.253059, 0.168670, -0.144416, 0.135067, -0.228715, -0.123325, -0.086575, -0.037379, 0.291438, -0.001385, -0.040083, 0.155088, -0.309231, -0.129755, -0.013185, 0.226429, -0.231715, 0.077246, -0.139654, 0.142384, 0.136693, 0.101233, 0.132511, -0.076702, 0.115289, 0.043584, -0.122197, -0.008220, -0.005346, 0.032589, -0.083846, -0.152845, -0.150746, -0.075567, 0.167286, -0.102564, 0.181653, 0.048209, -0.023890, -0.061610, 0.002020, 0.012328, 0.071513, -0.027693, -0.256393, 0.039824, 0.190784, -0.026156, -0.036903, -0.129340, 0.032611, -0.019819, 0.087632, -0.036116, 0.168082, -0.052169, -0.119376, 0.029139, 0.019071, 0.009289, -0.054513, -0.058221, -0.012604, -0.149719, -0.022060, 0.072436, 0.092833, -0.042727, 0.081933, -0.050107, -0.053698, 0.083321, -0.110040, -0.008688, -0.009376, 0.058506, 0.102202, 0.221667, -0.094286, 0.011178, 0.009871, -0.082163, -0.108608, -0.153921, 0.141993, 0.055999, -0.056238, 0.213018, -0.278581, 0.040116, -0.010291, 0.066456, -0.012866, -0.037708, -0.083735, -0.011823, 0.068861, -0.034199, 0.050125, -0.002578, -0.093516, 0.122583, -0.021764, 0.011280, -0.031048, -0.162834, 0.031746, -0.199258, -0.030472, -0.043277, 0.120602, -0.020994, 0.138292, 0.064130, 0.038783, -0.021175, -0.090133, -0.118435, 0.114687, -0.051137, -0.068630, 0.001481, 0.058406, -0.060233, -0.009049, 0.064768, 0.000031, 0.178222, -0.071720, -0.124748, -0.062112, 0.063759, 0.152464, -0.043293, -0.018282, -0.117575, -0.028777, -0.051813, -0.238464, -0.362731, 0.019032, -0.260772, 0.143575, 0.166019, -0.064970, -0.272160, 0.234468, -0.086497, 0.069307, 0.049473, 0.088907, -0.068021, 0.182286, 0.218555, -0.089465, -0.040224, 0.088426, 0.088270, 0.041307, -0.007292, 0.157835, 0.061546, -0.064259, -0.186944, 0.099000, -0.080825, -0.063373, -0.025831, 0.069006, -0.329011, 0.042417, -0.007805, 0.070759, -0.128123, -0.115717, 0.181573, -0.122798, -0.146095, 0.128395, 0.123728, -0.036410, 0.026496, 0.177917, 0.104752, -0.049197, 0.028992, -0.082211, -0.131601, -0.045881, 0.169739, 0.058882, -0.062917, -0.201374, -0.120227, 0.001174, -0.125218, -0.053437, -0.060976, -0.174846, -0.080852, 0.121038, -0.132730, -0.073737, -0.068725, 0.055811, -0.207202, -0.001967, -0.041918, -0.128042, -0.045390, -0.223083, 0.030143, 0.150602, 0.183384, 0.133823, 0.058245, -0.101849, 0.043950, 0.013021, -0.168832, -0.083046, 0.129095, 0.092483, -0.155073, -0.069880, 0.079157, 0.063337, -0.015333, 0.133191, -0.145091, 0.007503, 0.088343, -0.125340, 0.056338, 0.141130, 0.066335, 0.158518, -0.210531, -0.058095, -0.083842, -0.193631, 0.217843, -0.006351, 0.022203, -0.044057, 0.069044, -0.054373, -0.040974, -0.077675, 0.216015, 0.059881, 0.023621, -0.121669, 0.102146, 0.054369, -0.001860, 0.049624, 0.022140, 0.047063, -0.149594, 0.051743, 0.053821, -0.043038, -0.007562, -0.010031, -0.260779, -0.027485, -0.122884, -0.069197, -0.072348, 0.018812, 0.044703, -0.089112, -0.165289, 0.059806, 0.045764, -0.053585, -0.061800, 0.020513, 0.054249, 0.142910, -0.128239, 0.010873, -0.074278, 0.031065, 0.122397, 0.005275, 0.011975, 0.112883, -0.027451, 0.120692, 0.089990, 0.201830, 0.097136, 0.114838, 0.193104, -0.112791, -0.020430, 0.041118, 0.156391, 0.204698, -0.190907, 0.066013, -0.063649, -0.052899, -0.050465, 0.065523, -0.141548, 0.026662, -0.001159, -0.021249, -0.001630, -0.190625, -0.031735, 0.149485, -0.236950, -0.055705, -0.013634, -0.093998, -0.012843, 0.089773, -0.112305, -0.089438, 0.023640, -0.115108, 0.034655, 0.006963, 0.051289, 0.141237, 0.100493, -0.059162, -0.217918, 0.044390, -0.099316, -0.152072, 0.189703, 0.073689, -0.052047, -0.045700, -0.076193, -0.163248, -0.102625, -0.077744, 0.258752, -0.000722, -0.063105, -0.074880, 0.029078, 0.016697, -0.043313, -0.000278, 0.265099, 0.142402, -0.013034, 0.035684, -0.001497, -0.045441, 0.007182, -0.042788, -0.108341, -0.029731, 0.087434, -0.086034, -0.117155, 0.011542, 0.191855, 0.079402, -0.106339, 0.091635, 0.024700, 0.085702, -0.035663, 0.039240, 0.031241, 0.256883, -0.044296, -0.025990, -0.224684, -0.024207, 0.122898, -0.161046, 0.056161, -0.002892, 0.046159, 0.015839, 0.146379, 0.261024, -0.010329, 0.084604, 0.031813, -0.024312, 0.126850, 0.104320, 0.247325, 0.186101, -0.235867, -0.181437, -0.221891, 0.019546, 0.121062, 0.203483, -0.098620, -0.008387, -0.074642, -0.109519, 0.015680, 0.016691, 0.043546, -0.070308, -0.055265, -0.070970, 0.142158, 0.125676, 0.042257, 0.028982, -0.048955, -0.113998, 0.197286, -0.052297, -0.024320, 0.186107, 0.037621, -0.067857, -0.192128, 0.025564, 0.020066, -0.078611, -0.036694, 0.145784, -0.187109, -0.008406, 0.090529, 0.051337, -0.088850, -0.043253, 0.023653, -0.075055, 0.074922, 0.085055, -0.043188, -0.054071, -0.000920, 0.024775, 0.188730, -0.124489, -0.100505, -0.014235, 0.058071, -0.008472, 0.020515, -0.056520, -0.114001, 0.143082, -0.040048, 0.116135, -0.159600, 0.002068, 0.066889, 0.179650, -0.085006, 0.065351, -0.032370, -0.108188, -0.088920, 0.234238, 0.057920, -0.080954, 0.137300, -0.025878, -0.040206, -0.130277, 0.042378, -0.069726, 0.210407, -0.188658, 0.059845, 0.008159, -0.026460, 0.056694, 0.034906, 0.164705, -0.304654, -0.014419, 0.197762, -0.162618, 0.199102, -0.112330, -0.167639, 0.030241, 0.028293, -0.146348, -0.012755, -0.072487, -0.130289, 0.231013, 0.142543, -0.018726, -0.052680, 0.083604, 0.081036, 0.036093, 0.028890, -0.029819, 0.055465, -0.076511, 0.099090, 0.014196, -0.051154, -0.064551, -0.037397, 0.180143, 0.190461, 0.093188, -0.040358, 0.065942, 0.036238, -0.003389, -0.002142, 0.083954, -0.122850, -0.106549, 0.140880, 0.021065, -0.053982, -0.044850, -0.115538, 0.026885, -0.031801, -0.167496, -0.007772, 0.052172, -0.092291, 0.035020, 0.020881, 0.002750, -0.089325, 0.105551, -0.035087, 0.073538, -0.006546, -0.009713, 0.249702, -0.115304, -0.049081, 0.109222, 0.013394, -0.099295, -0.112383, -0.062794, 0.020732, -0.110915, 0.023029, 0.062378, 0.244250, -0.085223, 0.156834, 0.114620, 0.031363, 0.143592, 0.020101, -0.089396, 0.048377, -0.185232, -0.160062, -0.120992, 0.047123, 0.091570, 0.028895, 0.044246, 0.102370, -0.186246, 0.098187, -0.005369, 0.007019, -0.025244, 0.174760, 0.139627, 0.087775, -0.136328, 0.059151, 0.199591, 0.156023, 0.055938, -0.087340, -0.012895, 0.089035, -0.048519, 0.157594, 0.023954, -0.018951, 0.087837, 0.002189, 0.015689, -0.098216, -0.064640, 0.175352, 0.005633, 0.170256, 0.078617, -0.051656, 0.048558, 0.084687, 0.135028, -0.105701, -0.012868, 0.001227, -0.042023, 0.094286, 0.000278, -0.059432, -0.119503, 0.002390, -0.084226, 0.081444, 0.051915, -0.092611, 0.100356, 0.098215, -0.003810, 0.197201, -0.022926, 0.032382, 0.091408, 0.121339, -0.044295, 0.125849, 0.054603, -0.155748, -0.050148, -0.023892, 0.015590, 0.011170, 0.059834, 0.005348, 0.116854, -0.042386, 0.020109, -0.057412, -0.033159, -0.013298, 0.067260, -0.288225, -0.143901, -0.255464, -0.111917, -0.084316, 0.115523, -0.037032, -0.068010, -0.139690, 0.026384, -0.006371, 0.022469, -0.089999, -0.116357, -0.100799, 0.099694, 0.065467, 0.040257, -0.006847, -0.010981, 0.050162, 0.026789, -0.105642, 0.088529, -0.078079, 0.138874, 0.161155, 0.049206, 0.094752, -0.093390, 0.000526, -0.037320, -0.036885, -0.121024, 0.090048, 0.176932, -0.059926, 0.028729, -0.038366, -0.009231, -0.050080, 0.006926, 0.004672, -0.027266, 0.175846, 0.086936, 0.160352, 0.181632, -0.029981, 0.129542, -0.069573, 0.060519, 0.076117, 0.167258, -0.040948, -0.049188, 0.021238, 0.035211, 0.187669, 0.096551, 0.099796, 0.193904, -0.369548, 0.032786, -0.079053, -0.082244, 0.222266, 0.038865, 0.192781, 0.180328, 0.086668, -0.022799, 0.054928, 0.068458, -0.083128, 0.137403, 0.067795, 0.022978, -0.029542, 0.016674, 0.104461, -0.031329, 0.069960, 0.022523, -0.012984, 0.006012, -0.083571, -0.051377, 0.072328, -0.054080, -0.099780, 0.218505, -0.121738, -0.060207, 0.010044, 0.154219, 0.040796, 0.020905, -0.062492, 0.035517, -0.055878, 0.143007, -0.002794, -0.039750, -0.094839, 0.118788, 0.157641, 0.026200, 0.133592, -0.092036, 0.098836, -0.025139, 0.215028, 0.083292, 0.167744, -0.113479, 0.005038, 0.042073, -0.026886, 0.192159, 0.072606, -0.044396, 0.071674, -0.086262, -0.169123, -0.082631, 0.004373, 0.033622, -0.085131, -0.060948, 0.202352, -0.081011, 0.023056, -0.014100, 0.166269, 0.088733, 0.061290, 0.091301, 0.061359, 0.004185, 0.001863, 0.046250, -0.059638, -0.094861, 0.046402, -0.042894, -0.086086, 0.191926, -0.057239, -0.002166, -0.079703, 0.018217, -0.185875, -0.088231, 0.232386, -0.288661, -0.032634, -0.053991, 0.084234, -0.050772, -0.042379, -0.067635, -0.172630, -0.025152, 0.222012, 0.152164, 0.050237, 0.041373, 0.078901, 0.034701, -0.030973, -0.075434, 0.094624, 0.073208, -0.075576, -0.051643, 0.103012, -0.024856, -0.063947, 0.085028, -0.081445, 0.042829, -0.168418, 0.043108, 0.266259, -0.028242, 0.005923, -0.004465, 0.073503, -0.098071, -0.021777, -0.018310, 0.029443, 0.005594, -0.105416, -0.060851, 0.006108, -0.168883, -0.039203, -0.012915, 0.060200, 0.053014, -0.024868, 0.188509, 0.045390, 0.218034, 0.074667, -0.154054, 0.196509, 0.091493, -0.093862, -0.023319, -0.029368, 0.153999, 0.190180, -0.214168, -0.026026, -0.111331, -0.076499, -0.154665, -0.171017, 0.034671, 0.072268, 0.242153, -0.088964, 0.075682, 0.157404, 0.052785, 0.095590, 0.040380, -0.091628, -0.097438, -0.073134, 0.024787, 0.054955, -0.034238, -0.121540, -0.129892, -0.024549, -0.006277, -0.228764, -0.028877, -0.058584, 0.093830, 0.050213, -0.096512, -0.343547, 0.058460, 0.099258, -0.054468, 0.002515, 0.100873, -0.023162, -0.007422, 0.051517, 0.001121, -0.144450, 0.199146, 0.105397, 0.114571, 0.026452, 0.087690, 0.024922, 0.075701, 0.103762, -0.120567, 0.120027, 0.022269, -0.153807, 0.005450, -0.024738, 0.065269, -0.016298, -0.011340, -0.078637, 0.017430, -0.116567, 0.037649, 0.128301, -0.149870, -0.304367, 0.097885, -0.023653, 0.096203, -0.063075, 0.020730, 0.136673, 0.007663, 0.035618, 0.155687, -0.166341, 0.003269, 0.044002, 0.046921, 0.098313, 0.047909, 0.136947, 0.124342, -0.182145, -0.049241, 0.028354, 0.060213, 0.128880, -0.058986, -0.121916, -0.019421, -0.026082, -0.111263, -0.049170, 0.001380, -0.132338, 0.087122, -0.166249, -0.069955, 0.021137, 0.100936, -0.160843, 0.081433, -0.194981, -0.188330, 0.050381, -0.158499, -0.177397, 0.193610, 0.116725, -0.043749, 0.078132, 0.074996, 0.101102, 0.034757, 0.021759, 0.071483, 0.064870, 0.052354, -0.068876, -0.099003, 0.058966, 0.006305, -0.051679, 0.103280, 0.115803, 0.076697, 0.006204, -0.154638, 0.156813, 0.190901, -0.030367, -0.012672, 0.058158, 0.008234, -0.023821, 0.090146, -0.028866, -0.068224, -0.083416, -0.085651, -0.019476, -0.156597, -0.071768, 0.005854, -0.093864, -0.019912, 0.054669, -0.097517, 0.070464, 0.079260, -0.070996, -0.141769, -0.075263, -0.096135, -0.019905, -0.105552, 0.064389, -0.006570, -0.056914, 0.201691, -0.191941, 0.046402, -0.073995, -0.050951, -0.050685, -0.036729, 0.081870, 0.015743, 0.035982, -0.004277, 0.030990, 0.024789, -0.053834, -0.025003, 0.036548, 0.018389, 0.031031, -0.034827, -0.078583, -0.011510, -0.054800, 0.065724, 0.045798, -0.124307, 0.096573, -0.022435, -0.020842, -0.067853, 0.085202, -0.028040, 0.032841, 0.050894, -0.391505, 0.075970, -0.055570, -0.140900, -0.004955, 0.126214, -0.001835, 0.072527, -0.099952, -0.079349, 0.017886, -0.006967, -0.107940, 0.060748, -0.151598, 0.007937, 0.116852, 0.027229, 0.076891, -0.135519, -0.074200, -0.073529, -0.088538, -0.029569, -0.022945, 0.036416, -0.012824, -0.040412, -0.034323, -0.083947, 0.139390, 0.043915, 0.047708, 0.010729, -0.008145, -0.019747, -0.044401, -0.073174, -0.061490, 0.021941, 0.039008, -0.001187, 0.015188, -0.003797, 0.104206, -0.040464, 0.110745, 0.028540, -0.082252, -0.042363, -0.043454, -0.103623, -0.035032, -0.020091, 0.118742, 0.114835, -0.024436, -0.087528, 0.029048, 0.135935, 0.061876, 0.040456, -0.354197, 0.020704, -0.196296, -0.047657, -0.091177, -0.040763, 0.080580, -0.016533, 0.030955, 0.012974, -0.130038, 0.156141, -0.046257, 0.078472, -0.101968, 0.177633, 0.085265, 0.106135, -0.061708, 0.069966, 0.092486, -0.053751, 0.045958, -0.004095, -0.010998, 0.171417, 0.178154, 0.002933, 0.035253, 0.011482, 0.168968, -0.015201, 0.077388, -0.073060, -0.013026, 0.119044, 0.017886, -0.035195, -0.105839, 0.105104, 0.076053, -0.093496, -0.106093, 0.014965, 0.054235, -0.105255, 0.128627, -0.025157, -0.068456, 0.050471, -0.135041, -0.117978, 0.108596, -0.073186, 0.014569, -0.131957, 0.033104, -0.027422, 0.262840, -0.074020, -0.051118, 0.031936, -0.027232, 0.267891, -0.077784, -0.162487, -0.000131, 0.018619, -0.058961, 0.046108, 0.001051, 0.017742, -0.021989, 0.061214, 0.084425, -0.092535, -0.016038, -0.114057, 0.109572, 0.210927, -0.107244, 0.020917, 0.211950, -0.020072, 0.013974, -0.273439, -0.031881, 0.021764, -0.173227, 0.055218, 0.013829, -0.134578, -0.102376, 0.341168, -0.036719, 0.166277, 0.012819, -0.004965, 0.046537, -0.062135, -0.048423, 0.176295, -0.117674, 0.038451, 0.052821, -0.012978, -0.061235, 0.063907, 0.055527, 0.215447, 0.202360, -0.148975, -0.000803, 0.126711, 0.176292, -0.046009, 0.040333, 0.049747, 0.118064, 0.028106, -0.071554, -0.032190, 0.119140, -0.065981, -0.071471, 0.135417, 0.144020, -0.137813, -0.211569, -0.068416, -0.058181, -0.088561, -0.095912, 0.032324, -0.296221, 0.080800, 0.119961, -0.127271, 0.003130, 0.000471, 0.010782, -0.027250, 0.105639, -0.059051, -0.121350, -0.124082, 0.111183, -0.044691, 0.032415, -0.008570, -0.068123, 0.166570, 0.139976, 0.196073, -0.120865, -0.036470, -0.049655, -0.079299, -0.013586, -0.038639, 0.043637, 0.026194, 0.291309, 0.012832, -0.090863, 0.028757, -0.026635, -0.246727, 0.058865, -0.104025, -0.040162, -0.005893, 0.052068, 0.040672, 0.160695, 0.003749, -0.078074, 0.128727, -0.003518, 0.026245, 0.048689, -0.031219, 0.092375, 0.009979, -0.044516, 0.033174, 0.030812, -0.028468, 0.176109, 0.006784, 0.085216, 0.053918, 0.059661, -0.015967, 0.034586, -0.194700, 0.139698, 0.128705, 0.111336, 0.160552, -0.269999, -0.052177, -0.001484, -0.141627, -0.212705, -0.098180, 0.032037, 0.053968, 0.057696, -0.157090, 0.018034, -0.107581, -0.144899, -0.108445, -0.031710, 0.121549, -0.078336, -0.143156, 0.384438, 0.040067, -0.127476, -0.061684, -0.041942, -0.199133, 0.043630, -0.041494, 0.078588, 0.113552, -0.051322, 0.000226, 0.063030, -0.052251, 0.052193, -0.030240, -0.110161, -0.056401, 0.064669, 0.111259, 0.082625, 0.020611, -0.027773, 0.119220, 0.058545, 0.121168, -0.105190, 0.125672, 0.193457, 0.121255, 0.024533, -0.036414, -0.043265, 0.038639, 0.133682, 0.031483, 0.091310, -0.031002, -0.082419, 0.113137, -0.061000, -0.090508, 0.102252, 0.037087, -0.099068, 0.077526, -0.036445, 0.147195, 0.001708, 0.079274, 0.034745, -0.052481, 0.104004, -0.044714, -0.051842, -0.151775, 0.007413, -0.007235, 0.081733, 0.070827, 0.092045, 0.022666, 0.007002, 0.089066, -0.094405, 0.078562, 0.025567, 0.061636, -0.049929, 0.007638, 0.010061, -0.009047, 0.002373, 0.124974, 0.012894, 0.000756, -0.072221, 0.033783, 0.028343, -0.014815, 0.080658, -0.028760, 0.143350, 0.167851, 0.011500, 0.009346, 0.102348, 0.016183, 0.036096, 0.027498, -0.100278, 0.114740, 0.154041, -0.095551, 0.108861, -0.099698, -0.242744, -0.101562, -0.030112, 0.023657, -0.021864, -0.030341, 0.046189, -0.007667, 0.001157, -0.194144, 0.119244, 0.083092, 0.035254, 0.044548, 0.039273, 0.125240, 0.004646, 0.078346, 0.060929, -0.125736, -0.059920, -0.058253, -0.100720, 0.160488, -0.073193, 0.059699, -0.027536, 0.025601, 0.160960, -0.200668, -0.489087, -0.146981, -0.056463, -0.153592, 0.049279, 0.002962, -0.042927, -0.069799, 0.147188, 0.248201, -0.057596, -0.075626, -0.037221, 0.086492, -0.057090, -0.235359, 0.019700, -0.085729, 0.181199, -0.017839, 0.081577, 0.050979, -0.072452, 0.030866, 0.115052, -0.041216, -0.025349, -0.016807, 0.109438, 0.051428, -0.159418, -0.089854, 0.068701, -0.011020, 0.240595, 0.042481, -0.174955, -0.029332, -0.074659, -0.009274, -0.077890, -0.026837, 0.086469, -0.022408, 0.127999, 0.021079, 0.013621, -0.171641, -0.180887, 0.233817, 0.160190, 0.079813, 0.012312, -0.177006, 0.006245, 0.013015, -0.020672, -0.272877, 0.141696, 0.164783, -0.209625, -0.083895, -0.117630, 0.010041, 0.219886, -0.011853, 0.028635, 0.071447, -0.154319, -0.283293, 0.134556, -0.001534, 0.081265, -0.024403, -0.147369, 0.025661, 0.122794, -0.001737, -0.078732, -0.186192, -0.166632, -0.116823, 0.063250, 0.144518, -0.163180, -0.235458, -0.046402, 0.106286, 0.008435, 0.176726, -0.079226, 0.102895, 0.120142, -0.128169, -0.232586, 0.119463, 0.232058, -0.016728, 0.002792, -0.003926, -0.056487, 0.121739, 0.139886, 0.057765, 0.116830, -0.130642, 0.044040, 0.045559, -0.048997, -0.021607, 0.136312, -0.148869, 0.092032, -0.036195, 0.115871, -0.055980, -0.034378, -0.037716, 0.024184, -0.019328, -0.157081, -0.069594, 0.184741, 0.099908, -0.054016, 0.039151, -0.178393, -0.089673, 0.072240, -0.040410, -0.123354, -0.011307, -0.119551, -0.010459, 0.031777, 0.114206, 0.110219, -0.072253, 0.108523, -0.031688, -0.003556, 0.002832, -0.109051, 0.104248, 0.110133, -0.085424, 0.117694, -0.118694, -0.019881, 0.041947, 0.085751, 0.034629, 0.109959, -0.109412, -0.059064, 0.015094, -0.093470, -0.086612, -0.034737, -0.049631, -0.032593, 0.165676, 0.002103, -0.087243, 0.106696, 0.020170, -0.026541, 0.024359, 0.017128, 0.083210, 0.162722, -0.069016, 0.095770, -0.000184, -0.032461, -0.057198, 0.006694, -0.023010, -0.085509, 0.097904, -0.031433, 0.120905, -0.052554, 0.096260, -0.246687, 0.026535, 0.177938, -0.127129, -0.041764, 0.313543, 0.054348, -0.164414, 0.108071, -0.000381, 0.083297, -0.009498, -0.069998, -0.045801, 0.097507, 0.089362, 0.059984, -0.070471, -0.050783, -0.158871, 0.268954, 0.010871, -0.255195, -0.089948, 0.026230, -0.089941, -0.134348, -0.202990, 0.052041, -0.179631, -0.080666, 0.014379, 0.208886, -0.295927, -0.068823, 0.264736, 0.132088, 0.152572, -0.063870, -0.017197, -0.010593, 0.065799, -0.013593, 0.129790, -0.346764, 0.005983, 0.071977, -0.196142, 0.100581, 0.063369, 0.018163, 0.259332, 0.267400, 0.054088, -0.007102, 0.099791, 0.166705, -0.068621, 0.070726, 0.030602, 0.120426, 0.041056, -0.027277, 0.027414, 0.104621, -0.035507, -0.052172, 0.030089, -0.023921, -0.085080, -0.364315, -0.051703, -0.036663, -0.180056, 0.029351, 0.080351, -0.130620, 0.094477, 0.056047, -0.057072, 0.009696, -0.071556, -0.003908, 0.068708, -0.007868, 0.030026, -0.024299, -0.027879, 0.001183, -0.102819, 0.055780, 0.091918, 0.033336, 0.081071, 0.055141, 0.134185, -0.033834, 0.015476, 0.085188, 0.020917, 0.042320, 0.042077, 0.013439, -0.046175, 0.146142, -0.051866, -0.140437, -0.116380, -0.065022, -0.133664, -0.069829, -0.039761, 0.160019, -0.021621, 0.095824, 0.060345, 0.010018, -0.097566, 0.021387, -0.076672, -0.012919, -0.090422, -0.089771, -0.007446, -0.036609, 0.037643, 0.147134, 0.010431, -0.034292, 0.077396, 0.092290, 0.040159, -0.023646, 0.026599, 0.233705, 0.082803, -0.015469, -0.110971, 0.027969, -0.043132, -0.049124, -0.041734, -0.171417, -0.031911, -0.045905, 0.058625, -0.055867, -0.092039, -0.074627, 0.055826, 0.032663, 0.002273, 0.079792, -0.100058, -0.082242, -0.144707, 0.001036, -0.051197, -0.073997, 0.064419, 0.123034, -0.043843, -0.024664, -0.114762, 0.021918, -0.080746, -0.036493, -0.089530, 0.015698, 0.050939, 0.039786, -0.086183, 0.093727, -0.055445, -0.266368, -0.066025, -0.153249, 0.052459, 0.009274, -0.001222, 0.129773, 0.107576, -0.176464, -0.037036, -0.022920, -0.021989, -0.108435, 0.122706, 0.091911, 0.098200, 0.085802, -0.103365, 0.012526, 0.096499, -0.061610, 0.038275, 0.075238, -0.004468, 0.007491, 0.182424, -0.065650, 0.007286, -0.066837, -0.027193, -0.097059, -0.009582, 0.061472, 0.121549, -0.002982, 0.048986, -0.079975, 0.043486, 0.002577, 0.044775, -0.094519, 0.044307, -0.022243, -0.075792, -0.082416, -0.028954, -0.108471, 0.051680, -0.022707, 0.157995, -0.036875, -0.076001, -0.078944, -0.005345, -0.040522, -0.002818, 0.075441, 0.136960, -0.070089, 0.038234, 0.081511, -0.025247, 0.029623, 0.018959, -0.004659, -0.080336, 0.189339, -0.131868, 0.003248, 0.144018, -0.002122, -0.044195, -0.035311, -0.047060, 0.107789, 0.073168, -0.100574, -0.018873, -0.007490, 0.104706, 0.019261, -0.146604, -0.366675, 0.060436, -0.036299, -0.155599, 0.080251, -0.046856, -0.094968, -0.005437, -0.032724, -0.062149, 0.178433, 0.031235, 0.148570, 0.051638, 0.164758, 0.002242, 0.112933, -0.027257, 0.012667, -0.184626, 0.034526, 0.117761, -0.054108, 0.061653, -0.036263, 0.153954, -0.076323, -0.086516, 0.005377, -0.038126, -0.113842, 0.075420, 0.063147, -0.115256, -0.107723, 0.068382, 0.002255, 0.016409, 0.041204, -0.147089, -0.106277, 0.090610, -0.052584, -0.317854, 0.002617, -0.232956, 0.134004, 0.173286, -0.220447, -0.047462, -0.060957, 0.027929, -0.216295, -0.187590, -0.140913, -0.110082, -0.009910, 0.051053, -0.071261, -0.216893, -0.035651, 0.194270, 0.126542, 0.078551, -0.090537, -0.091767, -0.099947, -0.011289, 0.063429, 0.125259, -0.165766, 0.154900, 0.088396, -0.121506, -0.012988, 0.060775, -0.161436, 0.143670, 0.249643, -0.328321, -0.319716, 0.124288, 0.096598, -0.019024, -0.001036, -0.036382, 0.133053, 0.246621, -0.149626, 0.033539, 0.152519, 0.073559, 0.016932, 0.002057, 0.063454, -0.210462, -0.100534, -0.052715, -0.034960, 0.002368, -0.212411, 0.119810, -0.085750, 0.288444, -0.011800, 0.011862, -0.094871, 0.056866, 0.091399, 0.093780, 0.297506, -0.024974, 0.033531, -0.127399, 0.059032, 0.028948, 0.019250, -0.213003, 0.019311, -0.066701, 0.094219, 0.181731, 0.136787, -0.116957, 0.184179, 0.062221, 0.029940, -0.030458, 0.103577, -0.047740, 0.092683, 0.061362, -0.245428, 0.002959, -0.110036, -0.197370, -0.037942, -0.032408, -0.077310, 0.132448, -0.034285, 0.057452, 0.047370, 0.065100, 0.075073, -0.067727, -0.124816, -0.243434, -0.061323, -0.175587, 0.019185, -0.010218, 0.180782, -0.002312, 0.030889, 0.119259, -0.010154, 0.052324, 0.022065, 0.061812, 0.130096, 0.009141, -0.060439, -0.195986, -0.066535, 0.161735, 0.114029, -0.087302, 0.146104, -0.027278, 0.151589, -0.016969, -0.061244, 0.155997, 0.028903, 0.190529, 0.027525, -0.221314, 0.156032, 0.066434, -0.093409, -0.158183, -0.225227, 0.162130, 0.225466, -0.016328, 0.152241, -0.053793, 0.007099, 0.000955, -0.251531, -0.226064, -0.013142, -0.084715, 0.036280, 0.060994, 0.027712, -0.147416, 0.160928, 0.074567, -0.094707, -0.089331, 0.038463, 0.038870, -0.056698, 0.143058, -0.097666, 0.013560, 0.082793, -0.153785, 0.057771, 0.321259, -0.099940, 0.289380, 0.333186, 0.102714, -0.056389, -0.107685, 0.011586, -0.100301, 0.071284, 0.071280, 0.096320, -0.103560, 0.144696, 0.027102, 0.031425, 0.061526, -0.001884, -0.132591, 0.078221, 0.124000, 0.097196, 0.135155, -0.124955, 0.037461, 0.195615, -0.090623, 0.018056, -0.042185, -0.010924, -0.011779, -0.096165, -0.073415, 0.011158, 0.060946, 0.099647, 0.181925, -0.038964, -0.077562, 0.146574, -0.003868, -0.023587, -0.061383, 0.154510, -0.062797, 0.052061, 0.020928, -0.030052, 0.157802, 0.062426, -0.004220, -0.199776, -0.071791, -0.068016, -0.030473, -0.231448, 0.013386, -0.044695, 0.144628, 0.099536, 0.021496, -0.130186, -0.002016, -0.037994, -0.108045, -0.141362, 0.004208, -0.052167, 0.041271, 0.057015, -0.046768, -0.088185, -0.142043, 0.063978, -0.094450, 0.015297, -0.044707, 0.216577, -0.026868, -0.009333, -0.015638, 0.196838, -0.001559, -0.122937, -0.104616, -0.091119, 0.029784, -0.017180, -0.025389, 0.006117, 0.097454, -0.245395, -0.227712, -0.008444, 0.127034, 0.036139, 0.041713, 0.065852, -0.317038, 0.243585, -0.176696, -0.400504, -0.048149, -0.075580, -0.062644, -0.128486, -0.109713, -0.049387, 0.070678, 0.264156, 0.218790, 0.146710, 0.093580, -0.100372, 0.077707, 0.085943, -0.155682, 0.051734, -0.030761, 0.046351, -0.089312, 0.062952, 0.066866, -0.036867, -0.006002, 0.121874, -0.098675, -0.001920, -0.155905, 0.035203, -0.151747, -0.100049, -0.205974, 0.046206, 0.136017, -0.049156, -0.029304, -0.096038, -0.184824, 0.006309, 0.114885, 0.047123, 0.074239, -0.018364, -0.188925, 0.165578, 0.099984, -0.074878, 0.170819, 0.050833, 0.348674, -0.149647, -0.036108, 0.015397, 0.068353, -0.054352, 0.105830, 0.057278, 0.063361, 0.246025, 0.060816, 0.055505, -0.016794, -0.090609, 0.025074, 0.082653, 0.086120, 0.000038, -0.039090, -0.012588, 0.048660, -0.015297, 0.043778, -0.217354, 0.169873, -0.291240, 0.027752, 0.008402, 0.064094, 0.067611, 0.150480, -0.064848, 0.079116, 0.022483, 0.125504, -0.150321, 0.069344, -0.118746, -0.135269, -0.014206, -0.184606, -0.065793, -0.004012, 0.177837, -0.118765, -0.183687, -0.021163, -0.018795, -0.061561, 0.008763, 0.079646, 0.005102, -0.014045, -0.044107, -0.010661, 0.055614, 0.030802, -0.094361, 0.139126, 0.073729, 0.016873, 0.089611, -0.008122, -0.009781, 0.063146, 0.030208, -0.015030, 0.077461, -0.009541, -0.023503, -0.032392, -0.179259, -0.101505, 0.055823, 0.034461, -0.129677, 0.034506, 0.039215, 0.079024, -0.044736, -0.056328, 0.098411, -0.014809, 0.066030, -0.132228, 0.001167, 0.032501, 0.105128, 0.032809, 0.017395, 0.062868, -0.046062, 0.041890, -0.148607, 0.199757, 0.009005, -0.045552, 0.090496, 0.050433, 0.088874, -0.020902, -0.017474, -0.100777, -0.012605, 0.006164, 0.052847, -0.170535, -0.062877, 0.092749, 0.016806, 0.023728, -0.052594, -0.087374, -0.058844, -0.057699, 0.170679, 0.014406, -0.097109, 0.069188, -0.019372, 0.002584, 0.119594, -0.016662, -0.075761, -0.075155, -0.076087, -0.173220, 0.103778, 0.044778, -0.141195, -0.219408, 0.072770, 0.045337, 0.029134, 0.106746, -0.028330, -0.289692, 0.112699, -0.158378, 0.000040, 0.043829, -0.101691, -0.188964, 0.099166, 0.073785, -0.004604, 0.045295, 0.118499, -0.236115, 0.000323, 0.189211, -0.024031, -0.147684, 0.152419, -0.269223, 0.163457, 0.166777, -0.263477, 0.051881, -0.031903, -0.001798, -0.224129, -0.218263, -0.008636, 0.080188, -0.079479, -0.062803, -0.181961, -0.164614, 0.034899, 0.226645, 0.152875, 0.042468, -0.113625, -0.010794, 0.068556, 0.015685, 0.251388, 0.012771, -0.202286, 0.015002, -0.144086, -0.104157, -0.018517, 0.048608, -0.272049, 0.327283, 0.314608, -0.341716, -0.210738, 0.099947, 0.112341, -0.056058, 0.023146, 0.153575, 0.140262, 0.095933, -0.022995, -0.065692, -0.034098, 0.068273, -0.073228, 0.065605, 0.068047, -0.144828, 0.072600, -0.129483, -0.078687, -0.105524, -0.093710, 0.082156, -0.106405, 0.168143, 0.036497, 0.135416, -0.031172, -0.019403, 0.064538, 0.143058, 0.240482, 0.030049, 0.005196, -0.102964, 0.232924, -0.119169, 0.041771, -0.142709, -0.016437, -0.032053, 0.069635, 0.149808, -0.041690, 0.165725, -0.059699, 0.033068, -0.134010, -0.071210, -0.061065, -0.044070, 0.155000, -0.023335, -0.113115, -0.021960, 0.027951, 0.071874, -0.034046, -0.027249, 0.045017, -0.024769, -0.045506, 0.003082, 0.175621, 0.077440, -0.150293, -0.029400, 0.032947, 0.029989, 0.085142, -0.073915, -0.091770, -0.054797, 0.112365, 0.002034, 0.127495, 0.050350, 0.152173, -0.166631, 0.123947, -0.094767, 0.100133, -0.146796, -0.035342, 0.080967, 0.136217, 0.075560, -0.079650, -0.155328, -0.092619, -0.076667, 0.100910, 0.028325, -0.050101, -0.053048, 0.022069, -0.016051, -0.097593, -0.109284, 0.079983, -0.053263, 0.185815, -0.040628, -0.116905, -0.056693, 0.035635, 0.050650, -0.226048, -0.004345, -0.002575, -0.000104, 0.062890, -0.168550, 0.050461, -0.119241, 0.031474, 0.114100, -0.028585, 0.097425, 0.064562, 0.076412, -0.076737, -0.079017, 0.064773, 0.110450, -0.006546, -0.064751, -0.053726, 0.149986, 0.129306, 0.017150, -0.047801, 0.104346, 0.005209, 0.032632, -0.058921, 0.106971, -0.007631, -0.109580, 0.022316, -0.002294, 0.195560, -0.066529, 0.103049, -0.093435, 0.143508, 0.152928, -0.081230, -0.131953, -0.036519, 0.009390, -0.065087, 0.093467, -0.011025, 0.135287, 0.097218, 0.001385, -0.027653, -0.080098, -0.088386, -0.129935, 0.035947, -0.075654, 0.044799, -0.041110, -0.033043, -0.013172, -0.077888, 0.130947, -0.084995, 0.052445, 0.116595, -0.030955, -0.114504, 0.020080, -0.018567, 0.143640, -0.059723, -0.038771, -0.100350, 0.136350, 0.058747, -0.056780, -0.216776, -0.043743, 0.035511, -0.080595, -0.153443, -0.060694, -0.024582, 0.095751, 0.019555, -0.112080, -0.042282, -0.116868, -0.067410, -0.139615, -0.035191, 0.025770, -0.053762, 0.041124, 0.074973, -0.008941, 0.001651, -0.054527, -0.054845, -0.146097, -0.120428, -0.114977, 0.077850, 0.084165, -0.003236, -0.067230, 0.059165, -0.031082, -0.136372, 0.075140, -0.006284, 0.099459, -0.023566, -0.071317, 0.157975, -0.039396, -0.160558, -0.119102, -0.061534, 0.057390, 0.000271, 0.183827, -0.057158, -0.097768, -0.016739, -0.054997, -0.121324, -0.141811, -0.056992, -0.206057, -0.154018, -0.002851, -0.021424, 0.059206, 0.048792, -0.122236, -0.074095, 0.074086, 0.007253, -0.238422, -0.002960, -0.179775, 0.163485, 0.006513, -0.268904, -0.029019, 0.098762, -0.007259, -0.173182, -0.222131, -0.123330, -0.036270, -0.135783, -0.101171, -0.195949, -0.236292, -0.043170, -0.074042, 0.177804, 0.176994, 0.005263, 0.069416, 0.000568, -0.114964, 0.119666, 0.020499, -0.154315, -0.017942, 0.012279, -0.226145, -0.276816, -0.064033, -0.194776, 0.151497, 0.014048, -0.379806, -0.293262, 0.028928, 0.032488, 0.163438, -0.027414, -0.034346, 0.161484, 0.197463, 0.086202, 0.000181, 0.014840, -0.029129, -0.055688, 0.062993, -0.042477, 0.000611, 0.064864, -0.112024, -0.087874, 0.005353, -0.052421, 0.036790, -0.025818, 0.266477, -0.059456, -0.072016, 0.069269, -0.053306, 0.148972, 0.071980, 0.193212, 0.027583, -0.000134, 0.028844, -0.007088, 0.158451, 0.084165, -0.019609, -0.067899, -0.049466, -0.099822, 0.072741, -0.075635, 0.234221, 0.080428, -0.006504, -0.150055, -0.008630, 0.100890, 0.057654, 0.293289, -0.107484, -0.106767, -0.253351, -0.219696, 0.084234, -0.005434, 0.026832, 0.095081, -0.136198, -0.194404, -0.058088, 0.090327, -0.067639, -0.104361, -0.215021, -0.117486, -0.276373, -0.183195, -0.158265, -0.042179, -0.062964, -0.060992, 0.136188, 0.018094, 0.174472, 0.167192, -0.114049, -0.068380, -0.113154, 0.104189, 0.039844, -0.068493, 0.146414, 0.221592, 0.043110, 0.082262, 0.032058, -0.160797, 0.053807, -0.188875, 0.118209, -0.140674, -0.299168, -0.107868, 0.111676, 0.054002, 0.047786, -0.072125, 0.146568, 0.030173, -0.049716, -0.173937, 0.033757, -0.029705, -0.020632, 0.029498, 0.162411, 0.098737, -0.054272, -0.203592, -0.194950, 0.073759, -0.007344, -0.014707, 0.055380, -0.113400, 0.117282, 0.386836, 0.180136, -0.298518, 0.000249, -0.007788, 0.109804, 0.003827, 0.055146, 0.009276, 0.147684, -0.048486, -0.095404, -0.006927, -0.072147, 0.057169, 0.200907, 0.086880, 0.132211, 0.076561, 0.149580, -0.004155, 0.049942, -0.138647, -0.042653, -0.105865, 0.001980, 0.079602, -0.162859, -0.007501, 0.213983, 0.099603, -0.006504, -0.030690, 0.102638, -0.089236, -0.189107, 0.009097, 0.042530, 0.072390, 0.062981, 0.008814, -0.172524, -0.176579, -0.085423, -0.064744, -0.044657, -0.056417, 0.059868, 0.237692, -0.082356, -0.043938, -0.082517, 0.072276, -0.033516, 0.008540, -0.095342, -0.070212, 0.025483, -0.033735, -0.017473, 0.005641, 0.070088, -0.057931, -0.218822, 0.089183, -0.016990, -0.049855, 0.003054, -0.132737, 0.100355, 0.075530, -0.059918, -0.037386, 0.000087, 0.012968, 0.079087, -0.002077, -0.038683, 0.011082, 0.144315, 0.062632, -0.013598, -0.153047, -0.057983, -0.142460, 0.102567, -0.232061, -0.089590, 0.101947, -0.081875, 0.154632, -0.068985, -0.056619, 0.072427, -0.017650, 0.066680, -0.139275, 0.012230, 0.081604, 0.006472, -0.144914, -0.052572, -0.016690, 0.093188, -0.158922, 0.004724, -0.092039, 0.066508, -0.044372, -0.031171, -0.002619, -0.169665, 0.149498, -0.139271, 0.040245, -0.249566, -0.135495, -0.087698, 0.093276, -0.019798, -0.033678, 0.023975, 0.176976, -0.089824, 0.039261, 0.081389, 0.029024, -0.188860, -0.021828, 0.034393, 0.115526, 0.268763, -0.000829, 0.025062, 0.100407, 0.013276, -0.095175, 0.040673, -0.107268, 0.188305, -0.129374, -0.067762, -0.444511, 0.105229, 0.038664, -0.176010, -0.163587, 0.179217, -0.142380, -0.103122, -0.239904, -0.098304, 0.076739, 0.059017, 0.029906, -0.013008, 0.034849, -0.229513, 0.119263, -0.026064, -0.263381, 0.009226, 0.075080, 0.066901, -0.096972, -0.042745, 0.255668, 0.053570, 0.108592, -0.051087, 0.061530, 0.424218, 0.131426, -0.054054, 0.226680, -0.095973, 0.204225, 0.020501, -0.045797, -0.019568, 0.029015, 0.097334, 0.070217, 0.247662, 0.024035, 0.015566, -0.238757, 0.102865, -0.207632, -0.015536, 0.039183, 0.023714, -0.019901, 0.117072, -0.009776, -0.008405, 0.011504, -0.059806, 0.048204, -0.068673, -0.072827, -0.238129, 0.007856, -0.151912, -0.091951, -0.063180, 0.199406, -0.047295, -0.115587, -0.153320, 0.020725, -0.064591, -0.026632, -0.073326, 0.098596, -0.008731, -0.044924, 0.122464, 0.142365, 0.006629, 0.072220, 0.005957, 0.034620, -0.078143, -0.026209, 0.085357, -0.018664, 0.090083, 0.198208, -0.032898, 0.011976, 0.022762, -0.070559, -0.146528, -0.036006, -0.040262, 0.113845, -0.152299, -0.038004, -0.011026, 0.036955, 0.025635, -0.112830, -0.014129, -0.111066, -0.047448, -0.042623, -0.040821, 0.045571, 0.023018, 0.075110, -0.133883, 0.009874, 0.076865, -0.068450, 0.072479, -0.162903, 0.211552, 0.007214, -0.049880, -0.040672, 0.104515, -0.040296, 0.123260, 0.030053, 0.108326, 0.168584, -0.062224, 0.091182, -0.059818, 0.049342, 0.153915, -0.070980, -0.035711, -0.009037, -0.009367, 0.167851, -0.056243, 0.059968, 0.079860, -0.184192, 0.037018, -0.154051, 0.080453, 0.024103, 0.026852, 0.044023, -0.002208, 0.014289, 0.009156, -0.152826, 0.153617, -0.097150, 0.038550, -0.082913, 0.042727, -0.032645, -0.036051, -0.203756, -0.275580, -0.167692, -0.198696, -0.190903, 0.036397, -0.131449, -0.136921, -0.096985, -0.092095, 0.062123, 0.012504, 0.063617, -0.012055, -0.120767, 0.144281, -0.056454, -0.235753, 0.164287, -0.168410, 0.033836, 0.115922, -0.215206, -0.067466, 0.099096, 0.070115, -0.137762, -0.015594, -0.080804, -0.060113, -0.124584, -0.102930, -0.136765, -0.198881, 0.050848, 0.106732, 0.061123, 0.218723, -0.059405, -0.101019, -0.028324, -0.224155, 0.000211, 0.137103, -0.038887, -0.034946, 0.141483, -0.159784, -0.269351, -0.089043, -0.124463, 0.154641, 0.091982, -0.153718, -0.229236, -0.048152, 0.090233, 0.123935, 0.051814, -0.101105, 0.095306, 0.114469, 0.033829, -0.216332, 0.231083, 0.072462, -0.141977, 0.079279, 0.081003, -0.043180, 0.022378, -0.047356, 0.036461, -0.008349, -0.209631, 0.045850, -0.109867, 0.125777, -0.121357, -0.222017, -0.031689, 0.061298, 0.052774, 0.071907, 0.090185, 0.069224, 0.018004, -0.079852, 0.004560, 0.012264, -0.005602, -0.078109, -0.029215, -0.198562, -0.166993, 0.116538, -0.116681, 0.049936, -0.013640, -0.070240, -0.178304, -0.083267, -0.015417, -0.082429, -0.069271, 0.124829, -0.129226, 0.012562, -0.041021, 0.203624, -0.065419, -0.178126, -0.152681, -0.121921, 0.010424, -0.061069, -0.045522, -0.081961, -0.038193, 0.048081, 0.040521, -0.053135, -0.010299, -0.151332, 0.051430, 0.007881, -0.026389, -0.061977, 0.042726, -0.001636, 0.154032, -0.055132, 0.174247, -0.113436, 0.127001, -0.015461, -0.013731, 0.080707, 0.125363, -0.218400, 0.176374, -0.163005, -0.053329, 0.014511, -0.137441, -0.199424, -0.143102, -0.004720, -0.033159, -0.125554, 0.032205, 0.088542, 0.011577, -0.059797, 0.013934, -0.082217, -0.124746, -0.077371, -0.070539, 0.141840, -0.013337, -0.090686, -0.038126, 0.014043, 0.063507, -0.049063, 0.100849, -0.029695, 0.074381, 0.036039, -0.089465, 0.098246, -0.103617, 0.010862, -0.100567, -0.063674, 0.017611, -0.082104, 0.093620, 0.051846, 0.106692, -0.102702, 0.035794, 0.079814, 0.076076, -0.026809, -0.003969, -0.189373, -0.166980, 0.092144, -0.060902, 0.141691, -0.118265, 0.066789, -0.071899, -0.044499, 0.015715, 0.068497, 0.145944, -0.082709, -0.086324, 0.116012, 0.123943, 0.205431, 0.044629, 0.164547, 0.071385, -0.014289, -0.030620, 0.153956, 0.024388, -0.027986, 0.032549, 0.066125, 0.056496, -0.051106, 0.046519, -0.157452, -0.097516, 0.007601, 0.175692, -0.026457, -0.037260, 0.141978, 0.216382, 0.018166, 0.081468, -0.071298, -0.008457, 0.023549, -0.073318, -0.025420, -0.015817, -0.057203, 0.059605, -0.059949, -0.125354, -0.109441, 0.112108, 0.005922, -0.241571, 0.068686, 0.079765, -0.128358, -0.058127, -0.083068, -0.142616, 0.090083, 0.114926, 0.016830, -0.043209, 0.029990, -0.002212, 0.040553, -0.056438, 0.170869, -0.082159, 0.062676, -0.246568, -0.159491, 0.117007, -0.115923, 0.055486, 0.096848, -0.077720, 0.147717, 0.053109, 0.032301, 0.039066, -0.039649, 0.056450, 0.026219, 0.001782, 0.041298, 0.034160, 0.151168, -0.248227, 0.033262, 0.090652, 0.114506, -0.014502, 0.089146, -0.122690, -0.051364, 0.047249, -0.035752, 0.145942, 0.034333, -0.201134, 0.078383, 0.023138, 0.038010, 0.027407, 0.072126, -0.097899, 0.042106, -0.126437, 0.008227, -0.086433, -0.044143, 0.045962, -0.076303, -0.082230, 0.005103, -0.066327, -0.097733, 0.187590, -0.074138, -0.043682, -0.020233, -0.072734, 0.075808, -0.026074, 0.040236, 0.046962, -0.052594, -0.127655, 0.054929, -0.174695, -0.159802, -0.110943, 0.075695, 0.055970, 0.052951, 0.046044, 0.099562, -0.028884, -0.095575, -0.015861, -0.023163, 0.108923, -0.042652, -0.034484, 0.075491, 0.019639, 0.086008, -0.127960, -0.098241, 0.272676, -0.073607, 0.029411, -0.110213, -0.019670, 0.118208, -0.002909, -0.043011, 0.049608, -0.078871, -0.006592, -0.006034, -0.020496, -0.014066, -0.140052, 0.011243, 0.037067, 0.081176, 0.026168, 0.024658, 0.016705, 0.026029, -0.102482, -0.017717, -0.021640, -0.064495, -0.008074, -0.005751, -0.051301, 0.029332, 0.121409, -0.004425, 0.113211, 0.072097, 0.046715, 0.067667, -0.042813, 0.036891, -0.017269, 0.193847, -0.069404, 0.089259, 0.066979, -0.013069, -0.168189, -0.011661, -0.061056, 0.006840, -0.014218, -0.053211, 0.004704, -0.058555, -0.031531, -0.049713, 0.067566, 0.044234, -0.063194, -0.012869, -0.015744, -0.147971, 0.074194, 0.045813, 0.086318, -0.025987, 0.086665, 0.050808, -0.066361, 0.019127, -0.044554, 0.008699, -0.036249, 0.018263, -0.045525, -0.099569, -0.106785, 0.075713, 0.012823, -0.116690, -0.077777, 0.092638, 0.030991, -0.177887, -0.087283, 0.062161, -0.078554, 0.001517, 0.029287, -0.065015, 0.123973, 0.013664, -0.107310, 0.089107, -0.099392, 0.083771, -0.057648, 0.124859, -0.030161, -0.177813, 0.147802, 0.087697, -0.011141, -0.136781, 0.047088, 0.058994, -0.048258, -0.143877, 0.039361, 0.043112, -0.123979, -0.031650, 0.022926, 0.029946, 0.033023, -0.047627, 0.202706, 0.073826, -0.078332, 0.049195, 0.012575, -0.082452, 0.009752, 0.018366, -0.038433, 0.048685, -0.153904, -0.022053, -0.008376, 0.115343, 0.059187, -0.063729, -0.018663, -0.142129, -0.138010, -0.034605, -0.091614, -0.059616, -0.002999, 0.071606, -0.011871, 0.103322, 0.003679, 0.000245, -0.149867, 0.080565, -0.159835, -0.069348, -0.178249, 0.045078, 0.019301, -0.139501, 0.098108, -0.045635, -0.012710, 0.063482, -0.171384, -0.101519, 0.206043, 0.013191, -0.123474, 0.084016, -0.081727, 0.170622, 0.001418, 0.033317, -0.010377, -0.103685, 0.241801, 0.060904, -0.041520, 0.088808, -0.126176, -0.046700, 0.133641, -0.170606, 0.077738, 0.168932, 0.065050, -0.208965, 0.111353, -0.203498, 0.158845, -0.025458, -0.248965, 0.088929, -0.150451, 0.064731, 0.043013, -0.062238, 0.012161, 0.001974, 0.034035, -0.047313, 0.054109, 0.187620, 0.178442, -0.116772, -0.027446, 0.029887, 0.053550, 0.043252, -0.001812, 0.070151, 0.091483, 0.049976, -0.058536, 0.329778, -0.087125, 0.008057, -0.059820, 0.117320, 0.027206, -0.154162, 0.146322, 0.010483, -0.034585, -0.131826, 0.025270, -0.006076, 0.284628, -0.077154, -0.024641, -0.093538, 0.084421, 0.021008, 0.085015, -0.150227, -0.090459, -0.047670, -0.051939, -0.086912, 0.101789, -0.051847, -0.178720, -0.002922, -0.096095, -0.001559, -0.127530, -0.006918, -0.027034, 0.096414, -0.206648, -0.073967, -0.005848, -0.072838, -0.008034, -0.046667, -0.074156, -0.121475, -0.175920, -0.003455, 0.033568, -0.097311, 0.016146, 0.100700, -0.083786, 0.023546, 0.029520, 0.077583, -0.037232, 0.045709, -0.047271, -0.033673, -0.072012, -0.129296, -0.039997, -0.006493, 0.045877, 0.121733, -0.003604, -0.044926, -0.087808, -0.188695, 0.018089, -0.034138, 0.161419, -0.110861, 0.035167, 0.063062, -0.126077, 0.162763, -0.035193, 0.050728, -0.012208, 0.146768, 0.056025, -0.100385, 0.062247, 0.000406, -0.038229, -0.121747, 0.019925, 0.050494, 0.027844, -0.133277, 0.063393, 0.046470, -0.069264, -0.042642, 0.076289, 0.032495, -0.061738, 0.085916, 0.021802, 0.008965, 0.027936, 0.096383, -0.021362, 0.085869, -0.157406, -0.072858, -0.006385, -0.000320, -0.053224, 0.151374, 0.049637, 0.110024, 0.056505, 0.035671, -0.061666, -0.091000, -0.239801, -0.074591, 0.053214, 0.169874, -0.003968, -0.260848, -0.009985, -0.006712, 0.157140, 0.063952, -0.302999, -0.144246, 0.196503, -0.001933, -0.249155, 0.025244, 0.007658, 0.204228, 0.091609, -0.070520, -0.164253, -0.119367, 0.199290, -0.043040, 0.067669, -0.102740, 0.173500, -0.154559, -0.113979, -0.049844, -0.170190, 0.019922, -0.029095, 0.010588, 0.099421, -0.107201, -0.041019, 0.091751, -0.089266, 0.039066, 0.050122, -0.055515, 0.005102, -0.161509, -0.061638, -0.004256, -0.100684, 0.294261, 0.020570, 0.017071, -0.102789, -0.031042, -0.021652, -0.062493, 0.273613, -0.167184, 0.002517, -0.044609, 0.009891, -0.125621, -0.010111, 0.254132, -0.021773, -0.119041, -0.002633, -0.060210, -0.026542, 0.018917, 0.143902, -0.192507, 0.200340, -0.051844, -0.010397, 0.143906, 0.193635, 0.109098, -0.053972, -0.028562, 0.103950, 0.092177, 0.051700, -0.021497, -0.057719, -0.081142, -0.173765, -0.117446, 0.109157, 0.059440, 0.086761, -0.177195, 0.017413, -0.156583, 0.025263, 0.058823, 0.085873, -0.086533, 0.178756, 0.008235, 0.167046, 0.004173, -0.030157, 0.047109, -0.077421, 0.012635, -0.092338, -0.102140, 0.070045, -0.152179, -0.074107, 0.049082, -0.135589, 0.000433, 0.094533, -0.143031, 0.068869, -0.127229, -0.049543, -0.069295, 0.088730, -0.068046, 0.014796, 0.090047, 0.031139, 0.067232, -0.106787, 0.048927, 0.068070, -0.006702, 0.061902, -0.033560, -0.114813, -0.109130, -0.114821, -0.053479, -0.169834, 0.144353, -0.013134, -0.168303, -0.188574, -0.053438, -0.123841, 0.033172, 0.132824, 0.031765, 0.002871, 0.024820, 0.107839, 0.147357, -0.018950, 0.090581, 0.014459, 0.152700, -0.068852, -0.140944, 0.024041, 0.083672, 0.050906, -0.146353, 0.111841, -0.161621, -0.079214, -0.050344, 0.216466, -0.058759, 0.040571, 0.064299, 0.033691, -0.019733, -0.039084, 0.194990, 0.013103, 0.196333, -0.046380, -0.053328, 0.043267, -0.094328, -0.038813, -0.130752, -0.053465, 0.014611, -0.006825, 0.152278, 0.139402, 0.158104, -0.080612, -0.028349, -0.017237, -0.222059, -0.183180, -0.132288, 0.025412, 0.009444, -0.025433, -0.039935, -0.096743, 0.085032, -0.067242, -0.094118, -0.112333, -0.040093, 0.011291, 0.001062, -0.147190, -0.185693, 0.071456, -0.002986, 0.118385, 0.009168, -0.003027, 0.033060, 0.014177, -0.055287, 0.060697, 0.006157, 0.151360, 0.053796, -0.009988, 0.011786, 0.028136, -0.025728, -0.101745, 0.077143, -0.126731, -0.169934, -0.056285, -0.033490, 0.010097, 0.054343, -0.037539, 0.080712, 0.043571, 0.088214, -0.006115, -0.117650, 0.019942, 0.075808, -0.031937, -0.097069, -0.057179, 0.037267, -0.052148, 0.058174, 0.013560, -0.022497, 0.055367, 0.061082, 0.034976, -0.068781, 0.155545, 0.123394, 0.018567, 0.002863, -0.010997, -0.078039, 0.001524, -0.106377, 0.181468, 0.000438, -0.072737, 0.065050, 0.044965, 0.042329, -0.113072, -0.093757, 0.102917, 0.139786, -0.077948, 0.180074, -0.008623, -0.077898, 0.049333, 0.115818, -0.039146, 0.063792, -0.075225, 0.115963, 0.147061, 0.036255, 0.004733, -0.064580, 0.018692, -0.026999, -0.086974, -0.085196, 0.018300, 0.033549, -0.120460, -0.026375, -0.033882, 0.085217, -0.114757, 0.002639, -0.066289, 0.024299, 0.099660, -0.001831, -0.089930, -0.011841, -0.068111, -0.131732, -0.019464, -0.103852, 0.001829, -0.016784, -0.051327, -0.070483, 0.017700, -0.071907, -0.026589, -0.010298, 0.033401, 0.064762, -0.037489, 0.064334, 0.071131, -0.048774, 0.082105, 0.022632, -0.068042, 0.019963, 0.065727, -0.122370, 0.022580, -0.055875, 0.029214, 0.082736, -0.160613, -0.123089, 0.047788, -0.128190, -0.064332, 0.023806, 0.027137, -0.041362, -0.095341, -0.085685, -0.083182, -0.195118, 0.098967, 0.035068, 0.088064, -0.123562, -0.032347, 0.038973, 0.063776, -0.054346, 0.143691, 0.029104, -0.026969, 0.074661, -0.041129, -0.013312, 0.060408, 0.012772, 0.008687, -0.012324, -0.017214, -0.062375, -0.074907, 0.098423, 0.033054, -0.009812, 0.072896, -0.027358, -0.042356, -0.095328, 0.046483, 0.032473, 0.134261, 0.059660, 0.041967, -0.137784, 0.028949, -0.066171, -0.111407, -0.177660, -0.030424, -0.002237, 0.023572, 0.000679, 0.149391, -0.224755, -0.226147, -0.059886, 0.171342, -0.076117, 0.014061, 0.053348, 0.079399, -0.217939, -0.094372, -0.030335, -0.058449, 0.108549, 0.194152, 0.137591, -0.062485, 0.020058, 0.077131, -0.090944, 0.074486, -0.114454, 0.164976, -0.116886, -0.117764, 0.059832, -0.002398, -0.086923, -0.157368, 0.026115, -0.132244, -0.036315, 0.071634, -0.093396, 0.032660, -0.015619, 0.034891, -0.120018, -0.024926, -0.020737, 0.119879, -0.046740, -0.115495, -0.088589, -0.072789, 0.055684, -0.013412, -0.154645, 0.113831, -0.139053, 0.035471, 0.265471, 0.088366, -0.171443, -0.124240, -0.040013, 0.003685, 0.223277, -0.131892, -0.098942, -0.048748, -0.042990, 0.068892, 0.032586, 0.013843, -0.024626, -0.437503, -0.178781, 0.207378, -0.026368, 0.042021, -0.097872, -0.138768, 0.014868, -0.027407, 0.244511, -0.097739, 0.078625, 0.063103, 0.018572, 0.032076, -0.036079, 0.056841, 0.042423, 0.095823, -0.064990, -0.094252, -0.088040, -0.027667, 0.130164, -0.007962, -0.105752, -0.000011, 0.009268, -0.034350, 0.091434, 0.037270, 0.048386, -0.150351, 0.056246, 0.084999, -0.075691, 0.135817, 0.071054, 0.107264, -0.113028, -0.022329, -0.111891, -0.010825, -0.029330, 0.066262, 0.098715, -0.003303, -0.052010, -0.057607, 0.019779, 0.100070, 0.093655, 0.148198, -0.053440, 0.002117, -0.092602, 0.053785, -0.070407, 0.137471, -0.017511, -0.015956, 0.026090, 0.082283, -0.014265, -0.115681, -0.006042, 0.116407, -0.239126, -0.004642, -0.008214, -0.013581, -0.115588, -0.145573, -0.060678, -0.109993, 0.137029, 0.013220, 0.010655, 0.060909, -0.060759, -0.078961, 0.033621, -0.074243, -0.005634, 0.140436, 0.088891, -0.004844, 0.017935, -0.000706, 0.043314, 0.197167, 0.029768, -0.041401, -0.004733, 0.095386, 0.056941, -0.007228, -0.019396, -0.165853, 0.079119, 0.043729, 0.262148, -0.027076, -0.037528, 0.005748, -0.000276, 0.167572, 0.008308, 0.017816, 0.163626, -0.096248, -0.086915, 0.074996, 0.055605, -0.079797, -0.094347, -0.097147, -0.037885, -0.018912, -0.020819, 0.045954, -0.112866, -0.034687, -0.041036, -0.072076, 0.137646, -0.042881, -0.020256, 0.070498, -0.100157, 0.025909, 0.162346, -0.088668, -0.102354, 0.019767, -0.020184, 0.054737, 0.054906, -0.023342, -0.087889, -0.093945, 0.044678, 0.071419, 0.072439, -0.243281, 0.109934, 0.098867, -0.043132, 0.139443, 0.024671, 0.086927, -0.104649, -0.005300, 0.013884, -0.135588, -0.180767, 0.147227, -0.078093, -0.085445, 0.019623, 0.136638, -0.253972, -0.077369, -0.069016, 0.029671, -0.174944, 0.040456, -0.056086, 0.084514, 0.064824, 0.102920, 0.106402, -0.091304, 0.043584, -0.004780, 0.096393, 0.045848, -0.178567, 0.151036, 0.068462, 0.002860, -0.110935, -0.023233, 0.118101, -0.064914, 0.076092, -0.122845, 0.211694, -0.074314, 0.066229, -0.088982, -0.045078, -0.066465, 0.073641, 0.057268, -0.014593, -0.113694, 0.077138, 0.124438, 0.081295, -0.115272, 0.051301, 0.016167, 0.005585, -0.060668, 0.010506, -0.060808, 0.029700, -0.086520, -0.054580, 0.025635, 0.019749, -0.190429, 0.037803, -0.082698, -0.032278, -0.031889, 0.071191, -0.232118, 0.025140, 0.077376, -0.132617, -0.015028, 0.030224, 0.035145, 0.058897, 0.016948, 0.121755, 0.033737, -0.120822, 0.047022, 0.006048, -0.046495, -0.061877, -0.075188, -0.084725, 0.043885, 0.139829, 0.087549, 0.088570, 0.055230, -0.025843, 0.045683, -0.020003, 0.067083, 0.116937, -0.006109, -0.100949, -0.064761, 0.078523, -0.062970, -0.060478, 0.049422, 0.032748, 0.105429, -0.158301, 0.085707, -0.021980, -0.014296, -0.288800, 0.063534, 0.035274, -0.025767, -0.069314, -0.180574, -0.068868, -0.114408, -0.044493, -0.003889, 0.117418, -0.121697, 0.073664, 0.083954, 0.067014, 0.122460, -0.068453, 0.090728, -0.008861, -0.020218, -0.070161, -0.176257, 0.215523, -0.162084, 0.052631, 0.006097, 0.160337, -0.052444, 0.007362, -0.070827, 0.130445, -0.085264, -0.069042, -0.053724, -0.034720, 0.148213, 0.034452, -0.033519, -0.029318, -0.103812, 0.009470, -0.084162, 0.081702, 0.052554, 0.084221, -0.089023, 0.002190, -0.275248, 0.037944, -0.053210, 0.072708, 0.172856, 0.074575, -0.171140, 0.012173, -0.040253, -0.049980, -0.132958, -0.017479, -0.187976, 0.125208, -0.032143, -0.080350, -0.044853, 0.218890, 0.009717, -0.108144, 0.040851, 0.054504, 0.177586, 0.058318, -0.074325, -0.153451, 0.185923, 0.028510, 0.044906, -0.036151, 0.053293, 0.050790, 0.033569, 0.004950, -0.011926, -0.050720, -0.061218, -0.040896, -0.008265, 0.067484, 0.087698, -0.132412, -0.059150, -0.001677, 0.121228, -0.187279, -0.078870, 0.134976, 0.056747, 0.086196, 0.043635, -0.074666, -0.113058, 0.075398, -0.053408, 0.086025, 0.041757, -0.098033, -0.134218, 0.037072, 0.096069, -0.050009, 0.059521, -0.158508, -0.053076, -0.033957, -0.039801, -0.121554, -0.008512, -0.115715, -0.133353, -0.105844, 0.094231, 0.057630, 0.015077, -0.104212, -0.046013, -0.096243, 0.065907, 0.140946, -0.048846, 0.053135, 0.052063, 0.036016, -0.069280, 0.083412, -0.185211, 0.086699, -0.069540, 0.083137, 0.025541, 0.171457, -0.043930, -0.022933, -0.043473, 0.043231, 0.110385, -0.002702, 0.091825, -0.175053, -0.250885, 0.001017, 0.095649, -0.012976, -0.169857, -0.080503, -0.008452, -0.135209, -0.121756, -0.084550, -0.090877, 0.070256, 0.064827, 0.048431, 0.067370, -0.004764, 0.156439, -0.021428, -0.003333, -0.078883, 0.155271, 0.029303, -0.019217, 0.010263, 0.037022, -0.062021, 0.024798, 0.006701, -0.017456, -0.026121, 0.003367, 0.038791, -0.109592, -0.099506, -0.086082, 0.018874, 0.079806, -0.299804, 0.162297, -0.084322, -0.211911, -0.114867, 0.075019, -0.083285, 0.017136, -0.007992, 0.022939, -0.035361, -0.048983, -0.044980, 0.048887, -0.094015, -0.289345, -0.136716, 0.131077, 0.160369, 0.062358, -0.187372, 0.018620, -0.192349, -0.048336, -0.141417, 0.014861, -0.028028, -0.125835, -0.105972, 0.096928, 0.085992, 0.109962, 0.135533, 0.119568, 0.060162, -0.080149, 0.180644, -0.027015, 0.013274, -0.171859, -0.016784, 0.031194, 0.018439, -0.116273, 0.113622, 0.111018, 0.086763, 0.045708, 0.094184, 0.018872, -0.043914, -0.352062, 0.041179, -0.158410, 0.047050, -0.087245, -0.023897, -0.215958, -0.057002, 0.051495, -0.061703, 0.015544, 0.006956, 0.102395, 0.058733, -0.037351, 0.031293, -0.077722, -0.065174, 0.020646, -0.141911, 0.021726, 0.044601, -0.085657, 0.084910, 0.078757, -0.024514, 0.068030, -0.003840, 0.071031, 0.033202, -0.073843, -0.012053, -0.047096, 0.001252, -0.045398, 0.001926, 0.063750, 0.053470, 0.040883, -0.064394, 0.019704, -0.052906, 0.178232, -0.130912, 0.041047, 0.154927, -0.152720, -0.136702, 0.007536, -0.005563, 0.098661, 0.065713, -0.083178, -0.000094, -0.051246, 0.102822, 0.023602, -0.026754, -0.017857, -0.044901, 0.120879, 0.108778, -0.089246, 0.028034, -0.064565, 0.039955, -0.110506, 0.047543, -0.076648, 0.031219, -0.017711, 0.002490, 0.058990, -0.049363, -0.123123, 0.087206, 0.022465, 0.093604, -0.020178, 0.067214, 0.056440, -0.082928, -0.023279, 0.104116, -0.011030, 0.072072, 0.078904, -0.138151, 0.046205, -0.093587, 0.070643, -0.140617, 0.025021, -0.048961, -0.045162, -0.157028, -0.086141, -0.009258, 0.000826, 0.001025, -0.062394, 0.018924, -0.042088, -0.085253, -0.029341, -0.018205, 0.151312, -0.083672, -0.106792, -0.103375, 0.080944, 0.012647, -0.048150, -0.093505, 0.050522, -0.160685, -0.092736, -0.037885, 0.219522, -0.140931, -0.001106, 0.112025, -0.008090, 0.133041, -0.079876, -0.023960, -0.159851, 0.023774, -0.062508, -0.006494, 0.029999, -0.030286, 0.097258, 0.031042, -0.040518, 0.136239, 0.089720, -0.115317, 0.047307, 0.097075, -0.045704, -0.141184, 0.027633, -0.003912, -0.092887, -0.081261, -0.019303, 0.063439, -0.149571, 0.026066, 0.011198, 0.100363, 0.073535, -0.117712, 0.120562, 0.103865, 0.036016, 0.071050, -0.132710, 0.095210, 0.003501, 0.050996, 0.008895, -0.016155, -0.108628, 0.167434, 0.063320, -0.002073, -0.051856, 0.009268, 0.090813, -0.059591, -0.132580, 0.166672, 0.118040, 0.003364, -0.048095, -0.050006, 0.078908, -0.048872, 0.073196, -0.016305, 0.044592, -0.101902, -0.065961, -0.146035, -0.096311, -0.067187, -0.172420, 0.105184, 0.014309, -0.045330, 0.024618, -0.249883, -0.280459, 0.024758, 0.319136, -0.065392, -0.170822, -0.026532, -0.054952, -0.129735, -0.099635, 0.084325, -0.113667, -0.029742, 0.136285, 0.081093, -0.229387, 0.033088, 0.076909, -0.038515, 0.145171, -0.055404, 0.128365, 0.019424, -0.178273, 0.124763, -0.125421, 0.037433, -0.052423, 0.124258, -0.238575, -0.060502, 0.021324, 0.044659, -0.158311, 0.048370, 0.144553, -0.172034, 0.052283, 0.109793, 0.189353, -0.118026, -0.091715, -0.111535, 0.144563, -0.110415, -0.181634, -0.082972, -0.120115, -0.237121, 0.065283, 0.169469, -0.002495, -0.159004, -0.074408, -0.199979, -0.012740, 0.321675, -0.141055, -0.319656, 0.105974, -0.033866, -0.027939, -0.089712, -0.173395, -0.056923, -0.295193, -0.086107, 0.127217, 0.121093, 0.108753, -0.054800, -0.197204, 0.041230, 0.000424, 0.123335, 0.075308, -0.047761, 0.116883, 0.004887, 0.051921, -0.163013, 0.171363, -0.029783, 0.048117, -0.112017, 0.032672, -0.055977, -0.047119, 0.204936, -0.182024, -0.045131, -0.068938, 0.032387, 0.005975, 0.020161, 0.110863, -0.113129, -0.128568, -0.048711, -0.020105, -0.014757, 0.003397, 0.079304, -0.012106, -0.278337, -0.121818, -0.094327, -0.099474, -0.115283, 0.117476, 0.023248, 0.017822, 0.023827, -0.035667, 0.008202, -0.056773, 0.051635, 0.089627, -0.135962, -0.000537, -0.041893, -0.072927, 0.091388, 0.050992, 0.081456, -0.193170, -0.197480, 0.099188, -0.056155, 0.051203, 0.150760, 0.106905, -0.107336, -0.029382, 0.138636, 0.044051, 0.025509, -0.219289, -0.029341, 0.101713, 0.049218, -0.079099, -0.108427, -0.140084, -0.055253, -0.052675, 0.123674, 0.052602, 0.148968, 0.062123, 0.018168, 0.070021, 0.303094, 0.014427, 0.173589, 0.244161, -0.106581, 0.107285, 0.051021, 0.074299, 0.043237, -0.107203, -0.198272, -0.048238, 0.080307, 0.039846, -0.215283, -0.092373, 0.027200, 0.098986, 0.075756, 0.055076, 0.161402, 0.142071, 0.133891, 0.019632, -0.092872, 0.031231, -0.050218, -0.000710, 0.043114, -0.048560, 0.072984, 0.124062, -0.006733, 0.129298, 0.045660, 0.001049, 0.135899, 0.110237, 0.045178, -0.286910, 0.015111, -0.123187, -0.114996, 0.129832, -0.080012, -0.165989, -0.009836, -0.066595, -0.045782, -0.056765, -0.268818, 0.141297, 0.087202, -0.183723, 0.077622, -0.064229, 0.025821, -0.267983, 0.131400, 0.105292, 0.079477, 0.023476, -0.010815, 0.111265, -0.046203, -0.068324, -0.059017, -0.123819, 0.034918, 0.032813, 0.002586, -0.170113, 0.065614, 0.154065, -0.221393, -0.086478, -0.016256, -0.033798, -0.085924, 0.076604, -0.090297, 0.000169, 0.141628, -0.379363, 0.132798, -0.137688, -0.044530, 0.062583, -0.099081, -0.016813, 0.048774, -0.042033, -0.018897, 0.133669, 0.137543, -0.097553, -0.026991, 0.109240, -0.041743, 0.299836, -0.056356, 0.109000, 0.018932, -0.102694, -0.001973, -0.124394, -0.008690, 0.091491, 0.118306, -0.141602, -0.158167, -0.107487, -0.050766, 0.123477, -0.005565, 0.083334, 0.173071, -0.098114, -0.075485, -0.054316, 0.078889, -0.063887, 0.155475, 0.030254, -0.003044, 0.197063, 0.096788, 0.029686, -0.093878, 0.042516, 0.090347, 0.118332, 0.001527, -0.026224, -0.028466, 0.058712, 0.152698, -0.037141, 0.064964, -0.030582, 0.057588, -0.011114, -0.178398, -0.094071, 0.106442, 0.108197, 0.007768, -0.157465, -0.069505, -0.050352, 0.142999, -0.048090, 0.046701, -0.027292, 0.049520, -0.047881, 0.015710, 0.035739, 0.032275, -0.047449, -0.097746, 0.187986, -0.104460, 0.137146, -0.094259, -0.005017, 0.041120, -0.183278, 0.131147, 0.125044, -0.053527, 0.116571, -0.343847, -0.043443, -0.110003, -0.021616, -0.103668, -0.127815, -0.018727, -0.070899, -0.048569, -0.018161, -0.028860, -0.079545, -0.058408, -0.090933, 0.043478, 0.097287, -0.139839, 0.036563, -0.061636, 0.115529, -0.122424, 0.035345, 0.010579, -0.030145, 0.127724, 0.010585, 0.039395, -0.052839, 0.095322, 0.032889, 0.044645, -0.125142, -0.145873, -0.009143, -0.071406, 0.132953, -0.212559, -0.053783, -0.144394, 0.164432, -0.070716, -0.168929, 0.072738, 0.057908, 0.183654, 0.000190, -0.106767, -0.171578, 0.124714, -0.080817, 0.137924, 0.110386, 0.062942, -0.132168, 0.089363, 0.109729, -0.000358, -0.039913, -0.056495, 0.031397, -0.007392, -0.063874, -0.237476, -0.065673, 0.082539, 0.085916, 0.062118, -0.085483, -0.106310, 0.115413, 0.043855, 0.020804, 0.127005, 0.108362, -0.037417, -0.010987, 0.079548, 0.106932, -0.081554, 0.030498, 0.055475, 0.024196, 0.039552, -0.113083, -0.029306, 0.018848, 0.064146, 0.110741, -0.087940, -0.069836, -0.277873, 0.169378, -0.242077, 0.137535, 0.036128, -0.057259, -0.106707, -0.008413, 0.055384, -0.119283, -0.051026, 0.068515, -0.129009, 0.063532, 0.134293, -0.053230, -0.067212, 0.143259, -0.140640, 0.020240, -0.428964, 0.090573, 0.132843, -0.126722, 0.117354, -0.247451, 0.156731, -0.223416, -0.047764, 0.029880, 0.181444, 0.120019, 0.026089, -0.021023, 0.120520, -0.012431, 0.050959, -0.044238, -0.040707, 0.018834, -0.116448, 0.001606, -0.086545, -0.018038, 0.012457, 0.009798, -0.031418, 0.067299, 0.108154, 0.082103, -0.043547, -0.243030, -0.014983, 0.005523, 0.117098, 0.025216, -0.130981, -0.298110, -0.073178, 0.013483, -0.093322, -0.059268, -0.057236, 0.121758, -0.018241, 0.010210, 0.001340, 0.059084, 0.029355, -0.058673, 0.174411, -0.055124, -0.061310, 0.106655, -0.029442, -0.032255, 0.008110, 0.244245, -0.106611, -0.034928, -0.137262, -0.033053, 0.050135, -0.027491, 0.056990, 0.019844, -0.024885, -0.032024, 0.040262, -0.031079, 0.080052, -0.104458, -0.064960, -0.061005, -0.098813, 0.134115, -0.200876, -0.129107, -0.053516, 0.117189, -0.048735, 0.017384, -0.124103, -0.033646, -0.144288, 0.003557, 0.039178, -0.064486, -0.028513, -0.205116, -0.122212, -0.110210, 0.181863, -0.068461, -0.215825, 0.007346, 0.035569, 0.025367, -0.028058, -0.090111, -0.060584, -0.173889, -0.092338, 0.125206, -0.022568, 0.106615, 0.090209, -0.036435, 0.033814, -0.027473, 0.102432, -0.040060, 0.037284, 0.049852, -0.199044, -0.053877, 0.034225, -0.049833, -0.049887, 0.134871, 0.164598, -0.111719, 0.065957, -0.039489, 0.049098, -0.163527, 0.026492, -0.135529, 0.163503, 0.154304, 0.010432, 0.014494, -0.092751, 0.019669, 0.032037, 0.028362, 0.069033, 0.106477, -0.069122, 0.126721, -0.166506, -0.090671, 0.031654, 0.006539, 0.041787, 0.030038, 0.133330, -0.140630, 0.073214, -0.120057, -0.062491, 0.116199, -0.058286, -0.029801, -0.018625, -0.070044, -0.014089, -0.139356, 0.032438, 0.015729, 0.136755, 0.037648, -0.154405, -0.018863, -0.069236, -0.102369, 0.089474, 0.114117, -0.160361, -0.114024, 0.010634, 0.067946, 0.091552, -0.136845, 0.050178, -0.026752, 0.047208, -0.040137, -0.101240, 0.063442, -0.077829, 0.004136, 0.023800, -0.056689, 0.056647, 0.051856, 0.177677, -0.007602, 0.215836, -0.141024, -0.085638, 0.085236, -0.081096, 0.054977, -0.109058, 0.054385, -0.061257, -0.001603, -0.061792, 0.100118, 0.106183, -0.092708, -0.059431, 0.007905, 0.011533, 0.079281, 0.052768, 0.018641, 0.210978, 0.092246, -0.091254, -0.007800, -0.117808, 0.189730, 0.016979, 0.019228, -0.151260, -0.076436, 0.082465, 0.158477, 0.100259, -0.174519, 0.103843, 0.139301, 0.091218, -0.095808, 0.132153, -0.245398, 0.034160, -0.019790, 0.053491, 0.121622, -0.057688, 0.036328, 0.046124, 0.087069, -0.114045, 0.050477, -0.096515, -0.019385, 0.117219, 0.011591, 0.055023, -0.005517, 0.024109, -0.120772, 0.040264, 0.034871, -0.032458, 0.035686, -0.066211, 0.011838, -0.125443, -0.041309, 0.048312, 0.002813, 0.083716, 0.014113, -0.052520, 0.029299, 0.040438, 0.242080, -0.084049, 0.077655, 0.048544, 0.004851, 0.015365, -0.079222, -0.032500, 0.137690, 0.023051, -0.229518, -0.152237, -0.181520, -0.071368, -0.075746, -0.014500, 0.111318, 0.017263, 0.145434, 0.078260, -0.011633, 0.073437, -0.164323, 0.099196, 0.049517, -0.004084, 0.058800, 0.034334, 0.063593, 0.008165, -0.090579, -0.078556, -0.097841, 0.033377, 0.060612, 0.112370, -0.058408, 0.001814, -0.097159, 0.015795, 0.127609, 0.053378, 0.090196, 0.079961, 0.070095, 0.025860, 0.102524, 0.117483, 0.025451, -0.054367, 0.036882, -0.118785, -0.002671, 0.115773, -0.069394, -0.148380, 0.146282, 0.028106, -0.383535, -0.009029, -0.010777, -0.077156, -0.148562, -0.020780, 0.043503, -0.034808, -0.067062, -0.011357, 0.018155, 0.067555, 0.032839, 0.050151, -0.053136, 0.035393, 0.029376, -0.108187, 0.146166, 0.141883, 0.033653, 0.000502, -0.069363, -0.053849, -0.091107, -0.026227, 0.003788, -0.013148, -0.065408, 0.055404, 0.090365, -0.107817, -0.156687, 0.000384, 0.055987, -0.169566, 0.011376, 0.111240, 0.044550, -0.248423, 0.056858, -0.030003, 0.073236, -0.050555, 0.019033, -0.060554, -0.043875, -0.187906, 0.043203, -0.000431, -0.050524, 0.054649, -0.186489, -0.110846, -0.112903, 0.129709, 0.135460, -0.475357, 0.076875, 0.025122, -0.069083, -0.132611, -0.137463, 0.156745, -0.281497, -0.093832, 0.008520, 0.023455, 0.150533, -0.161586, 0.062209, 0.080605, -0.010028, -0.058378, -0.067945, -0.032041, 0.025432, -0.018625, -0.166112, 0.052722, 0.050916, -0.012345, -0.018030, 0.082439, -0.054318, 0.059233, 0.006987, 0.104160, -0.243686, 0.071821, -0.003885, 0.004035, -0.069013, -0.008064, -0.004499, -0.076189, 0.147609, -0.045413, -0.095716, -0.031945, 0.092043, 0.061797, 0.040459, -0.216894, -0.008640, 0.207003, 0.161042, 0.133693, -0.029346, -0.064949, 0.073505, -0.051224, -0.187287, -0.042415, -0.006081, 0.140043, 0.065964, -0.031794, 0.128985, -0.072269, -0.057301, 0.030083, -0.178103, -0.008863, -0.112528, -0.120753, -0.022458, 0.058903, 0.074023, -0.001536, 0.130959, -0.084112, -0.000221, 0.356500, -0.104367, 0.009763, 0.021847, 0.002435, 0.051582, 0.034478, 0.211468, 0.007090, -0.046953, 0.147320, 0.026021, 0.026827, 0.039505, 0.148335, -0.111551, -0.018667, 0.001601, 0.231739, -0.140316, 0.247460, 0.098079, -0.014480, 0.185978, -0.083523, 0.102923, -0.009068, -0.134494, -0.069343, 0.027650, -0.102702, 0.196771, -0.296256, 0.046595, 0.137018, -0.071367, 0.066408, 0.129826, 0.221131, 0.004534, 0.056307, -0.140853, 0.130241, 0.100327, 0.111505, -0.020261, -0.108455, 0.023391, 0.158798, 0.345349, 0.059748, 0.095910, -0.019112, 0.097946, -0.028295, 0.078166, 0.164151, -0.106482, -0.114192, 0.064677, -0.162937, -0.054577, 0.003418, 0.142774, -0.136560, 0.058535, -0.151189, -0.059242, -0.085100, 0.019032, 0.017949, -0.113091, -0.088953, -0.122452, 0.033029, -0.144222, 0.128392, 0.232152, -0.002602, -0.009376, -0.097244, 0.039955, 0.073597, -0.044069, -0.011926, -0.320398, 0.023006, -0.004887, -0.059316, 0.002604, 0.037476, 0.055601, -0.101095, 0.050458, 0.261723, 0.012672, -0.036791, -0.050163, 0.068812, 0.076816, 0.139628, 0.031924, 0.018506, -0.216280, -0.036201, 0.081955, 0.096686, 0.060936, 0.250801, -0.164758, -0.108632, 0.037186, 0.299005, 0.011048, 0.103918, 0.091383, 0.034223, 0.188127, -0.052562, 0.152243, 0.074981, -0.120867, 0.001685, -0.202476, 0.038878, 0.092744, -0.061578, -0.000884, -0.028023, 0.042238, 0.041150, 0.187436, -0.005341, 0.150855, 0.053706, -0.143585, 0.005716, 0.130083, 0.009091, -0.071373, 0.086678, 0.016031, 0.098546, 0.349104, -0.040729, 0.186675, -0.220972, 0.101510, -0.017274, 0.088738, -0.036738, -0.063576, 0.072163, 0.039440, -0.056146, 0.023332, 0.006497, 0.066938, -0.047444, -0.081589, -0.131530, -0.199832, 0.018190, -0.011657, -0.027885, 0.088046, -0.075023, 0.015262, 0.083530, 0.014272, -0.039099, 0.123386, 0.030463, 0.129539, -0.094859, 0.181472, 0.039115, -0.033714, 0.086292, 0.087949, 0.066634, 0.041560, -0.016237, -0.043878, -0.018309, -0.249839, 0.032451, -0.091891, 0.020312, 0.157809, -0.042503, 0.183881, -0.115722, -0.045935, 0.090905, 0.050168, 0.090634, -0.307178, 0.025014, -0.072138, -0.005201, -0.135261, 0.019868, -0.078463, 0.116824, 0.037293, -0.168171, 0.266267, -0.043784, -0.049187, -0.103485, 0.165929, 0.053393, 0.072240, 0.044798, -0.134985, 0.001455, -0.035197, 0.055648, -0.042501, 0.017333, -0.164634, -0.225511, 0.089629, -0.021333, 0.058854, -0.103448, -0.048809, 0.056324, -0.053927, -0.079081, 0.030987, -0.008313, 0.009603, 0.218096, -0.057200, 0.030656, -0.029282, 0.138532, -0.053170, 0.045746, 0.040613, 0.172694, -0.024216, -0.083115, -0.026041, -0.115329, 0.039100, 0.078993, 0.094886, 0.061219, -0.036891, -0.093862, -0.111162, 0.013984, -0.090473, 0.016445, 0.098240, -0.079743, -0.071619, 0.042201, 0.109756, 0.061620, 0.076871, -0.009767, 0.035663, -0.039352, 0.041164, -0.015673, 0.103020, -0.085618, 0.203541, -0.004004, 0.111136, -0.094389, 0.096088, 0.042566, 0.028263, -0.033160, -0.071111, -0.151183, 0.155377, -0.106352, 0.247255, -0.118267, 0.010562, -0.098667, -0.028705, 0.085733, -0.290688, 0.104183, 0.058475, -0.152482, -0.021276, 0.151780, 0.107898, 0.037997, 0.088718, -0.033766, 0.049556, -0.186666, -0.112944, -0.022632, -0.072101, 0.050325, 0.105344, 0.285680, 0.111093, 0.046030, 0.111690, 0.222436, -0.002661, 0.046874, 0.014159, 0.055774, -0.018663, -0.123617, 0.019890, 0.022926, -0.000808, -0.237182, 0.031113, -0.027830, 0.055545, -0.108347, 0.120062, -0.083748, 0.026529, 0.102858, -0.075706, -0.047314, -0.116413, -0.038613, -0.008528, 0.038268, 0.040521, -0.065617, -0.077318, 0.093540, 0.025812, -0.113775, -0.082303, -0.091450, -0.040001, 0.013259, 0.018654, -0.014489, 0.052905, -0.061370, -0.141975, 0.039863, -0.048700, -0.115000, 0.005656, 0.030284, 0.133751, 0.118768, 0.002134, -0.029276, 0.075080, 0.013114, -0.051666, 0.057633, 0.053535, 0.080188, 0.040347, -0.114507, -0.056764, 0.023487, -0.118517, -0.101646, -0.116044, -0.123019, -0.086179, 0.006597, -0.035235, -0.019600, 0.156354, -0.120578, -0.041230, -0.124169, 0.030506, 0.000514, -0.157778, 0.079328, -0.028733, -0.074090, -0.125331, -0.022987, 0.027645, -0.005201, -0.141101, 0.007370, 0.022873, -0.183156, 0.049956, 0.030955, 0.117352, -0.152039, -0.021164, -0.014735, -0.063554, 0.110503, 0.176686, 0.003766, 0.117146, 0.054783, -0.041610, 0.036697, -0.076280, -0.092346, -0.066430, -0.099074, 0.144471, -0.084535, -0.037376, 0.117629, 0.115904, 0.081183, 0.076693, -0.018258, -0.124579, 0.065297, -0.033600, 0.115984, -0.049342, -0.000067, -0.104207, -0.024238, -0.019842, -0.001386, 0.024455, 0.052784, 0.065268, -0.087987, 0.098075, 0.080213, -0.066897, 0.024155, 0.030608, -0.181388, -0.097604, -0.003769, 0.003489, 0.029049, -0.052824, 0.129098, 0.030842, -0.100794, 0.013344, -0.028802, -0.009823, 0.013258, -0.030511, -0.092843, 0.052124, -0.073969, -0.068790, -0.042599, 0.153573, 0.105210, -0.243554, -0.059948, -0.120601, -0.064107, 0.077745, -0.071686, 0.005824, -0.211556, -0.044511, -0.090756, 0.050399, 0.119634, -0.022209, 0.063660, -0.077187, -0.059073, 0.111161, 0.004351, 0.106012, -0.074113, -0.059411, -0.061027, -0.043825, -0.117689, -0.034229, 0.046766, -0.079414, -0.067683, -0.075266, -0.061104, 0.034603, 0.071323, -0.137898, 0.075133, 0.092761, -0.132571, 0.068706, 0.055176, 0.021897, 0.102843, 0.010635, -0.019466, 0.105647, 0.052858, -0.036499, -0.082546, -0.057995, -0.121348, -0.010299, -0.008428, 0.062091, 0.094780, 0.043895, -0.012543, 0.083108, 0.005909, 0.075322, 0.109572, 0.070446, 0.004492, 0.031032, 0.051238, 0.149147, 0.115561, 0.016514, -0.013865, -0.005545, -0.000905, -0.023536, 0.001522, -0.039856, -0.005350, 0.016399, -0.099405, -0.018078, -0.062181, 0.064673, -0.039125, -0.032503, 0.182325, -0.062005, -0.007529, 0.037243, 0.029889, 0.020887, 0.086410, -0.041951, -0.036420, -0.068973, -0.049355, -0.101261, 0.127804, -0.061326, -0.013737, -0.061244, -0.121525, -0.054302, 0.001553, 0.059088, 0.005023, 0.008530, -0.006451, 0.090183, 0.172823, 0.011832, -0.066622, -0.131172, -0.008597, 0.055628, -0.012482, -0.054746, -0.013535, 0.000302, -0.004248, 0.069529, 0.021282, -0.063817, 0.078581, 0.127839, 0.082652, -0.034333, 0.159704, -0.045934, 0.010576, 0.173729, -0.101109, 0.165454, 0.074613, 0.146147, -0.026381, -0.049350, 0.144137, -0.036109, 0.080273, -0.125903, -0.104425, -0.003655, -0.035616, 0.028726, -0.039617, 0.122247, 0.104682, 0.151885, 0.116112, -0.145783, -0.030480, 0.159023, 0.082984, 0.054444, -0.067577, 0.033078, 0.144017, 0.284393, 0.180302, 0.054171, -0.071892, 0.075006, -0.026073, -0.058558, 0.056160, 0.088416, -0.017046, 0.074768, 0.096895, 0.024940, -0.044598, -0.017607, 0.055083, -0.059177, -0.094200, -0.058371, 0.059260, 0.207589, -0.049770, -0.084202, -0.119368, 0.173616, 0.018223, 0.083870, -0.110548, -0.019498, -0.005147, -0.005252, -0.028588, 0.044246, -0.010297, 0.105001, 0.063474, -0.014335, -0.020283, -0.067719, -0.002743, -0.075156, 0.061347, -0.171343, 0.110690, -0.130421, -0.304660, 0.120836, -0.004934, 0.131133, 0.041951, -0.062190, -0.021514, -0.092249, 0.003308, -0.036377, 0.018485, 0.104922, -0.000771, -0.169891, -0.085696, -0.001993, 0.108739, -0.001353, -0.138177, 0.096997, -0.076249, 0.006537, -0.150024, -0.214855, 0.009142, 0.071804, 0.011832, 0.035852, 0.020689, 0.154538, 0.062116, -0.037044, 0.172811, 0.017992, -0.148062, 0.010267, 0.036312, -0.102426, -0.225528, -0.134702, 0.013152, -0.013844, 0.052950, -0.072464, -0.054930, -0.007410, 0.029899, -0.019609, -0.087294, -0.015885, 0.121594, -0.050533, -0.084482, -0.391163, -0.031402, 0.023516, 0.114574, 0.058407, -0.092977, 0.028216, 0.182674, 0.115148, -0.028133, 0.142554, -0.042974, -0.029142, 0.167489, 0.117692, 0.076741, 0.028261, -0.084333, 0.093986, -0.009467, -0.086354, -0.099759, 0.136910, 0.075584, -0.031656, 0.000137, 0.126425, 0.008168, 0.028316, 0.068575, -0.161696, -0.055585, 0.214122, -0.163036, 0.024282, -0.013291, 0.149297, 0.158869, 0.049267, -0.235417, -0.032050, 0.146493, -0.171382, -0.021546, -0.076852, -0.033369, 0.004402, -0.023416, -0.083473, 0.129880, -0.025072, 0.100384, 0.072250, 0.148124, -0.000153, 0.163869, 0.042966, -0.249931, -0.002666, 0.176990, -0.246736, 0.206977, 0.018855, -0.114298, -0.080521, 0.082337, 0.194696, -0.040960, -0.172036, -0.164393, -0.080639, -0.247035, 0.163749, -0.086306, -0.114659, 0.397850, -0.006352, -0.012290, 0.062986, 0.399821, 0.056508, -0.042312, 0.111665, 0.061080, -0.228860, 0.196316, 0.046073, -0.007215, -0.006343, 0.209880, -0.142385, -0.005066, 0.067775, -0.088822, -0.028514, 0.063870, 0.068873, -0.085252, 0.100490, -0.049342, 0.019617, 0.182569, 0.069926, 0.042649, 0.042046, 0.009118, 0.000033, 0.022963, -0.015114, 0.163485, 0.085864, -0.081516, 0.080989, -0.071706, -0.113199, -0.010544, 0.103521, -0.000454, 0.080050, 0.011559, 0.060595, -0.082318, -0.115279, 0.086423, -0.097540, 0.015127, -0.100221, -0.003667, 0.026541, 0.067490, 0.001689, -0.057114, 0.050002, -0.014568, -0.123445, 0.091815, -0.046233, -0.014761, -0.064885, -0.006438, -0.152935, 0.023338, 0.259175, 0.076669, -0.041779, 0.043528, 0.010919, -0.021179, 0.028864, -0.005062, -0.003644, -0.065706, 0.026078, 0.004453, -0.020746, -0.073847, 0.041127, -0.051986, -0.236248, 0.021077, 0.001927, -0.056444, 0.079129, 0.104765, 0.042666, -0.029022, -0.082257, -0.124801, 0.090824, 0.081241, 0.007394, -0.086651, -0.026357, 0.042059, -0.100012, 0.026839, -0.032963, -0.069052, -0.052896, 0.061818, -0.106392, 0.019731, -0.012696, -0.030857, -0.081113, -0.255066, 0.093866, -0.207954, -0.234518, -0.088046, 0.101561, -0.020084, 0.044015, -0.111744, -0.008346, -0.064180, 0.012467, -0.079693, 0.053538, 0.086500, -0.031557, -0.087149, 0.075763, 0.004328, 0.115589, 0.069476, -0.072990, -0.018508, -0.015681, 0.019927, -0.069261, 0.070070, 0.172472, 0.126558, -0.000400, -0.044961, 0.028751, 0.061911, -0.093278, -0.048733, 0.058655, -0.088618, 0.013130, -0.001479, -0.210945, 0.043777, 0.090821, -0.042551, 0.039136, 0.148750, -0.118085, 0.107815, 0.124338, -0.057693, -0.106809, 0.057700, 0.142086, 0.087457, -0.200525, 0.144648, 0.052496, 0.055381, -0.125197, 0.017360, 0.163994, 0.359510, 0.064371, 0.037134, 0.151250, -0.045287, -0.146636, -0.049682, -0.130078, -0.110510, 0.048228, 0.148907, -0.056508, 0.032750, -0.037019, 0.037734, -0.122913, 0.004794, 0.065940, 0.030136, 0.140496, 0.059456, 0.108139, 0.189926, 0.142137, -0.052386, -0.100024, 0.003693, 0.157835, 0.145460, -0.115891, -0.097634, 0.007117, -0.121526, -0.081190, -0.086213, -0.043130, 0.014672, 0.118712, -0.013875, 0.058736, -0.082932, -0.017200, -0.119376, -0.054609, -0.053331, 0.028190, 0.024085, -0.005901, -0.210942, -0.035134, 0.089283, -0.083778, -0.061766, -0.084531, 0.029887, 0.079572, -0.103980, 0.045098, -0.100301, -0.070580, -0.022634, 0.081683, 0.193048, -0.058314, -0.054995, 0.013036, -0.038303, 0.274129, -0.006663, 0.042636, 0.005506, 0.104910, -0.078292, -0.061315, -0.020532, -0.201937, -0.097442, -0.038579, -0.025125, 0.104004, 0.133559, -0.092715, -0.000736, -0.110697, 0.136713, 0.119377, 0.000766, 0.086949, -0.053498, -0.165425, 0.150801, 0.179300, -0.082177, 0.101253, -0.042537, 0.153541, -0.040303, -0.152454, 0.007115, -0.067458, -0.078824, 0.022910, -0.042192, 0.122149, 0.012552, 0.047547, 0.286310, 0.076809, 0.126865, -0.150173, 0.095857, 0.018143, 0.017095, 0.037953, 0.044999, -0.094476, -0.251594, -0.176621, -0.068964, -0.033655, -0.027247, -0.009630, -0.128153, 0.065050, -0.060283, 0.033551, -0.139330, -0.089759, 0.021054, 0.199019, -0.125117, -0.175519, -0.011434, 0.113062, -0.055683, -0.061169, -0.099412, 0.074437, -0.063670, 0.087531, 0.016603, 0.066929, -0.079479, -0.001721, -0.076697, -0.177842, -0.024173, 0.186682, -0.034698, -0.106153, -0.010378, 0.101070, 0.046976, -0.069039, -0.024755, -0.006797, 0.118723, -0.089822, -0.081862, 0.097867, -0.025851, 0.077854, 0.026591, -0.003718, -0.102986, -0.035192, -0.084856, -0.008360, 0.046457, 0.046338, -0.157226, -0.004051, -0.220088, 0.162007, -0.095128, -0.003793, -0.116414, 0.013215, 0.105526, -0.091707, -0.017590, -0.003836, -0.097395, -0.066835, 0.077729, 0.031767, -0.019931, -0.074412, 0.017253, 0.126600, -0.122430, 0.179796, 0.006724, -0.194185, -0.095191, -0.252643, -0.007759, 0.100718, 0.098307, 0.030404, 0.091696, -0.029618, 0.019562, -0.090591, 0.057367, -0.037997, 0.053249, -0.051364, -0.099826, -0.070069, -0.122633, -0.097969, -0.043329, 0.000922, -0.050304, 0.012591, -0.009251, -0.070254, 0.060722, 0.029225, 0.027542, -0.302238, 0.237934, 0.031179, -0.031412, -0.060938, 0.085064, -0.061329, -0.103863, -0.040989, -0.065032, 0.019461, 0.139732, 0.054520, 0.210204, -0.096539, -0.037420, 0.029669, -0.018710, 0.038683, -0.041758, 0.036551, 0.004227, 0.101531, 0.079646, 0.157258, 0.020793, 0.134662, -0.050264, -0.079370, 0.076127, -0.041466, 0.041208, 0.098435, -0.012178, 0.101220, -0.050385, -0.022695, -0.150471, 0.075442, -0.066158, 0.101605, -0.067203, -0.039178, -0.172919, 0.009528, -0.174999, 0.057469, -0.012193, -0.102062, -0.037252, 0.066492, -0.019088, -0.061383, 0.149244, 0.047929, -0.107034, 0.156004, 0.121579, 0.013386, -0.046176, -0.083867, -0.001902, 0.036368, -0.154860, 0.091331, 0.052141, -0.112574, -0.095554, -0.553801, 0.212320, 0.107499, -0.021343, -0.005205, 0.114853, 0.064059, 0.051988, 0.028820, 0.109549, 0.042494, 0.010384, -0.044435, -0.095436, -0.094116, -0.013297, -0.078519, -0.016103, 0.044707, 0.142339, -0.226783, -0.042325, 0.053642, 0.089199, -0.065958, -0.066821, -0.357948, -0.056936, 0.094720, 0.089010, 0.154533, 0.068711, -0.070885, 0.029788, 0.074900, -0.068265, -0.078107, 0.004924, 0.049185, 0.026785, -0.020906, -0.150307, -0.088370, 0.033402, 0.114496, 0.149644, -0.053494, 0.010797, 0.003108, -0.106994, -0.059322, -0.023484, 0.092990, -0.074224, -0.073531, 0.008803, 0.052428, -0.015297, -0.059432, 0.136131, 0.064392, 0.097499, -0.144383, 0.008070, -0.088329, 0.018590, 0.023414, -0.036406, -0.103150, -0.163221, -0.081645, -0.007640, -0.107516, -0.054586, -0.034376, -0.099787, -0.055747, -0.041346, 0.261495, 0.026749, 0.105598, 0.131172, -0.049711, 0.022465, 0.085709, 0.051670, -0.026218, 0.008015, -0.091903, 0.020335, -0.010068, 0.031308, -0.042875, -0.041585, -0.122979, 0.003545, 0.046943, -0.043476, 0.160286, 0.147006, -0.013326, 0.114975, -0.011162, -0.188812, 0.002347, 0.097756, -0.101899, -0.078712, 0.062561, -0.021973, -0.007543, 0.056941, 0.126516, 0.039705, 0.031277, -0.085772, -0.003029, -0.122899, -0.007974, -0.045650, 0.003415, -0.115361, 0.160337, -0.167412, -0.021781, 0.085561, -0.043250, -0.107215, 0.116065, -0.099023, 0.071998, 0.057305, 0.097646, 0.034494, 0.068843, 0.049161, -0.104933, -0.002748, -0.056823, 0.030121, 0.084669, 0.047719, -0.066587, -0.045232, 0.175181, 0.045595, 0.015311, -0.103056, 0.047635, -0.080191, -0.073135, -0.012976, 0.007802, -0.172040, -0.052494, 0.078227, -0.093472, -0.021762, -0.007942, -0.099126, -0.070802, -0.107537, 0.065097, 0.104938, -0.036450, -0.082319, -0.063520, -0.145547, -0.000505, -0.094953, -0.025453, 0.019542, -0.085026, -0.064029, -0.017031, -0.105728, 0.066078, 0.109109, 0.009301, 0.009416, -0.133174, 0.101542, 0.079473, -0.229489, 0.253656, -0.098248, -0.204124, -0.087684, -0.033020, 0.052897, 0.009207, -0.054481, -0.003855, -0.029519, -0.049292, 0.069904, -0.002834, 0.122108, 0.028472, -0.040936, -0.046893, -0.063299, 0.038482, -0.171100, 0.132397, 0.112668, 0.060340, 0.006622, 0.179229, -0.116962, -0.029045, 0.113264, -0.007897, -0.015691, -0.155677, 0.049676, 0.057488, -0.199410, -0.120931, -0.072267, 0.208104, -0.035651, 0.095056, 0.056003, 0.169623, 0.103208, 0.035253, 0.140503, 0.138706, -0.049894, -0.038885, 0.249983, 0.021216, 0.030371, -0.019863, -0.102239, 0.020104, -0.032346, -0.047132, -0.043551, 0.155001, 0.043258, 0.018320, -0.143724, -0.047228, -0.064444, 0.247091, 0.079461, -0.147013, 0.043316, 0.108408, -0.135416, 0.147076, -0.073521, 0.074382, 0.196425, -0.060946, -0.256408, -0.012038, 0.059085, -0.094582, -0.036106, -0.036767, 0.013673, 0.132066, -0.047272, -0.370648, 0.222727, 0.095239, 0.183756, 0.139090, -0.056880, -0.128276, 0.026199, -0.010682, -0.274759, 0.058379, 0.165999, -0.133979, -0.083402, 0.047746, -0.061234, -0.466866, -0.032046, -0.069819, -0.048729, -0.061013, -0.105559, 0.177454, 0.013182, 0.081769, -0.198084, 0.033867, 0.162828, 0.155491, 0.044847, 0.090568, 0.200923, -0.217900, 0.001504, -0.044781, 0.252397, -0.337717, -0.063402, -0.041446, 0.157741, -0.011091, 0.131840, -0.194663, -0.044398, 0.125680, -0.122740, -0.156484, 0.103116, 0.094760, 0.075740, 0.038085, -0.096670, 0.050128, 0.109181, 0.113079, -0.052340, -0.093651, -0.050727, 0.033363, 0.097262, 0.196514, 0.041274, 0.096255, 0.001593, 0.043225, -0.018673, 0.139550, -0.098493, -0.063260, -0.099005, -0.165680, 0.001291, 0.007229, -0.079768, 0.000448, 0.030834, 0.008825, 0.059523, 0.112077, -0.054620, 0.004166, -0.102766, -0.055071, -0.076041, 0.049820, -0.160683, -0.114347, -0.056491, 0.014520, -0.144236, -0.035877, -0.057601, -0.023148, -0.064634, -0.073801, 0.043574, 0.100195, -0.042212, -0.034428, -0.034630, -0.004104, -0.111685, 0.090072, 0.166369, 0.037419, -0.104689, -0.085517, -0.025159, -0.098629, 0.000040, -0.204276, 0.053559, 0.061586, -0.021826, 0.014681, -0.059073, 0.180301, -0.093667, -0.034336, -0.161945, 0.016953, 0.043513, -0.049302, -0.069038, -0.047142, 0.159650, -0.014350, 0.060433, 0.154333, 0.029380, -0.259906, -0.074259, 0.086063, -0.041092, -0.039260, 0.043284, -0.293147, -0.487728, 0.098207, -0.100733, -0.330902, -0.161184, 0.030054, 0.152448, -0.083844, -0.085844, 0.040054, -0.050068, 0.154820, -0.145854, -0.168876, 0.008127, -0.118322, -0.194810, 0.221085, -0.199970, 0.130478, 0.236607, -0.172521, 0.007355, 0.025376, -0.163460, -0.065426, 0.311350, 0.243815, 0.208517, 0.004592, -0.097174, -0.061881, -0.192899, 0.008875, -0.027810, 0.015533, -0.152174, 0.003091, -0.040361, -0.093165, 0.047463, 0.322558, 0.036720, 0.160231, 0.120073, -0.168905, 0.057662, 0.177658, -0.122410, -0.182660, 0.142927, 0.332543, -0.200784, -0.262535, -0.035645, 0.056228, 0.056058, -0.174491, 0.132703, 0.168353, 0.500038, 0.143622, 0.099604, 0.095133, 0.023983, -0.071055, 0.084700, 0.135373, -0.100811, 0.241656, 0.129493, -0.099570, -0.050535, -0.298947, -0.093669, -0.161119, 0.278192, 0.094065, -0.120400, 0.120152, -0.071296, 0.028363, 0.222808, 0.341560, -0.016410, -0.034715, -0.176494, 0.169720, -0.202702, -0.045836, -0.295422, -0.029485, -0.252995, 0.096311, -0.200618, 0.115626, -0.088763, -0.136208, 0.051979, -0.008573, 0.042286, -0.018338, -0.009047, -0.046642, -0.015172, 0.181941, -0.017339, -0.050066, 0.078704, 0.040925, 0.081997, -0.051832, -0.036073, 0.017306, 0.080998, 0.008820, 0.057283, 0.156713, 0.041216, 0.023347, 0.022156, -0.078232, 0.109195, -0.070259, -0.021000, 0.077760, 0.091436, 0.101338, 0.074580, -0.155688, -0.215900, 0.055200, -0.087880, -0.058132, -0.051831, 0.015144, 0.016523, 0.046439, 0.025402, -0.035370, -0.101218, 0.103791, -0.062344, -0.141049, 0.005575, 0.164269, 0.202304, -0.008453, -0.099716, 0.057934, 0.101284, 0.056822, -0.075368, 0.061589, 0.167701, 0.127136, -0.162591, 0.094499, 0.045762, -0.164644, -0.105570, -0.297033, 0.031711, 0.112438, 0.052556, 0.099231, 0.225281, -0.025603, 0.037879, -0.069181, 0.001769, -0.065045, 0.089561, 0.025223, 0.013534, -0.009939, -0.036024, -0.016607, -0.078650, 0.017220, 0.031931, 0.070946, 0.085571, -0.046615, -0.110411, -0.063822, -0.169280, -0.213415, -0.185483, 0.128194, 0.079383, -0.223579, -0.013802, 0.084863, -0.021901, 0.033343, -0.009230, 0.001966, -0.100765, 0.080603, 0.036791, 0.040365, -0.028568, 0.059076, -0.003875, 0.073006, -0.164598, 0.159780, 0.092091, -0.098463, 0.053274, 0.107308, 0.089594, 0.000838, 0.045210, 0.134562, 0.047383, -0.087417, -0.007790, -0.002341, -0.012279, 0.192928, 0.074048, 0.021588, -0.146556, -0.028252, 0.040937, -0.028411, 0.005494, 0.142446, -0.202284, -0.072501, -0.169693, -0.114490, -0.023491, 0.012094, -0.016676, -0.163346, 0.057860, 0.008155, 0.032152, -0.082758, -0.139905, 0.151897, 0.060788, 0.076812, 0.082255, -0.022249, 0.158361, 0.073201, -0.242991, 0.051978, -0.131872, -0.238808, 0.009450, -0.265180, -0.079113, 0.110900, 0.103427, 0.166386, 0.062857, 0.018647, 0.075956, -0.149675, 0.232663, 0.015218, 0.008428, 0.025974, 0.061639, 0.018091, -0.096392, 0.030128, -0.037845, -0.027219, -0.026381, 0.231517, -0.044252, -0.073139, 0.018545, 0.019876, -0.121496, -0.160598, 0.141080, 0.011875, 0.040040, -0.073128, 0.005700, 0.112678, -0.044686, -0.056335, -0.049703, 0.140497, 0.030965, 0.015637, 0.138511, -0.083601, -0.266502, -0.057236, 0.137925, -0.059215, -0.100453, -0.120897, -0.106876, 0.239871, -0.083994, 0.192135, -0.003863, -0.064407, 0.012431, -0.060252, -0.020187, -0.107318, 0.089599, 0.085079, 0.060485, 0.109895, -0.187256, 0.229527, -0.075390, 0.007177, -0.071168, -0.039238, -0.137887, -0.159133, -0.309982, 0.005321, -0.145857, 0.149747, 0.043682, -0.109454, -0.037778, 0.095989, -0.037139, -0.457946, 0.204058, 0.160835, -0.115358, 0.062218, 0.099981, 0.028294, -0.138936, -0.020011, -0.310708, 0.025025, 0.046598, -0.058602, -0.091240, -0.044851, -0.010404, -0.243125, -0.019113, 0.019406, 0.109022, -0.057317, -0.064220, 0.289402, -0.142254, -0.093742, -0.124907, -0.015097, 0.103225, -0.021611, -0.015647, -0.097898, -0.158082, -0.078131, -0.105445, 0.071915, 0.155064, -0.138630, -0.121138, 0.041223, 0.050581, 0.078606, 0.125782, -0.322520, 0.057928, -0.037657, 0.048059, -0.102707, 0.079508, -0.057907, 0.077837, 0.184322, 0.067415, 0.049068, 0.021650, -0.017205, -0.083499, -0.082574, -0.117676, -0.097243, -0.065205, 0.092420, 0.092778, -0.073075, 0.096469, 0.000778, -0.084523, -0.081459, -0.108365, -0.071303, -0.099853, -0.060266, 0.124842, 0.013102, 0.039233, -0.102880, 0.126414, -0.004883, 0.155839, 0.093732, -0.134986, 0.030064, -0.078272, 0.146173, 0.079560, 0.105537, -0.044489, -0.068738, 0.044528, 0.014603, -0.074145, -0.037707, -0.112767, -0.155481, -0.051959, 0.100515, -0.075110, 0.165124, 0.192410, 0.078884, -0.059786, 0.074222, -0.046282, 0.071382, 0.102903, -0.115102, -0.152793, 0.038750, 0.057994, -0.095538, -0.098151, -0.287207, -0.101188, -0.033779, -0.158277, 0.170858, -0.027565, 0.120276, -0.087996, 0.034195, -0.066638, 0.004238, 0.112530, 0.021752, -0.045420, -0.028692, 0.067966, 0.119340, 0.060637, 0.187332, 0.060205, -0.065000, 0.094654, -0.103237, -0.000093, 0.013107, -0.033193, -0.179067, -0.164548, 0.028019, -0.016147, -0.237130, -0.129278, -0.334657, 0.075828, 0.035381, -0.037217, 0.053120, -0.085138, -0.132919, 0.018039, -0.125627, 0.006541, -0.015134, -0.216626, 0.114286, -0.167222, 0.087859, 0.108617, -0.136090, 0.042213, -0.070729, 0.070681, -0.039125, -0.117252, 0.026367, 0.011709, -0.021378, -0.091988, -0.047746, -0.050879, -0.050086, 0.172953, -0.025028, 0.008289, 0.009190, -0.024056, 0.099776, -0.107319, 0.158241, 0.134394, 0.025223, -0.014220, 0.039797, -0.105449, -0.152675, -0.041989, -0.023286, 0.079797, -0.003431, -0.200370, 0.045709, -0.028262, 0.015029, 0.158204, 0.078458, 0.066567, 0.011567, 0.076338, -0.052126, -0.146904, 0.148374, -0.028623, -0.054264, 0.101180, 0.071223, -0.005032, 0.042655, -0.079246, 0.053512, -0.146754, -0.069154, 0.145709, -0.170334, 0.261658, 0.087015, -0.029797, 0.052529, -0.069568, 0.003043, 0.039878, 0.232853, 0.012762, 0.020366, 0.017417, 0.208021, -0.014611, -0.093601, -0.023035, 0.028719, -0.043308, -0.040115, 0.007084, 0.259619, -0.125691, -0.071435, -0.012055, 0.243514, 0.008686, -0.036627, -0.065875, 0.240930, 0.072337, -0.057968, 0.140553, 0.151512, -0.329309, -0.086917, 0.115503, 0.040406, 0.123162, -0.025908, -0.096194, 0.065239, 0.058916, 0.246759, -0.141858, 0.082030, -0.195342, -0.127886, 0.031690, 0.011038, -0.100533, -0.001229, 0.230670, -0.041147, 0.018058, 0.092336, -0.058302, 0.088848, 0.040482, -0.068442, 0.141594, 0.009844, -0.259067, -0.055010, -0.015164, 0.014496, -0.195834, 0.001005, 0.039771, 0.042761, -0.144395, -0.199865, 0.188119, 0.090505, 0.023517, 0.117263, 0.015880, -0.050797, 0.108221, -0.115299, -0.019325, 0.012437, -0.024219, -0.108306, -0.056933, 0.043906, 0.020878, -0.089650, 0.014782, -0.013289, 0.056411, 0.009944, 0.007944, 0.379959, 0.033866, 0.016069, -0.065612, -0.147916, -0.005002, 0.067544, -0.023492, -0.257780, 0.143311, -0.129525, -0.238855, 0.072704, 0.102936, -0.196833, -0.194484, -0.076044, 0.050436, 0.045209, 0.075356, 0.013019, -0.033606, 0.018196, -0.115307, -0.421267, -0.056604, 0.036048, 0.010700, 0.119801, -0.079208, 0.064416, -0.154725, -0.037351, -0.020658, 0.001185, -0.003132, 0.057700, 0.036461, 0.023991, -0.080553, -0.084504, -0.027091, 0.112886, 0.053940, 0.121683, -0.053819, 0.068637, 0.000536, 0.018519, -0.147916, -0.026834, -0.071005, 0.116118, 0.043194, 0.004539, -0.180189, 0.133828, -0.100230, 0.045834, 0.051799, 0.087745, -0.145127, 0.110390, -0.164537, 0.142661, 0.084237, -0.053332, -0.009303, -0.123256, 0.075869, 0.062448, -0.089766, -0.055613, 0.032053, 0.099265, -0.121051, -0.025640, -0.128541, -0.034256, 0.040927, -0.101930, -0.187971, -0.018030, -0.014997, -0.033868, 0.050532, -0.073262, -0.049889, -0.011762, -0.043276, 0.015555, 0.067597, -0.086382, -0.023075, 0.166518, -0.150833, 0.025694, -0.108937, -0.015894, 0.131743, 0.034442, 0.018374, 0.012263, 0.050027, 0.009057, -0.078980, -0.062184, 0.184557, -0.055639, -0.163876, 0.009414, 0.015440, 0.045523, -0.026388, 0.001731, -0.605290, -0.230180, -0.282592, -0.182063, -0.121452, -0.144013, 0.060044, -0.056304, -0.028019, -0.276352, 0.021820, 0.012640, -0.169183, -0.239671, 0.204299, -0.010554, -0.317623, 0.305788, -0.113483, 0.049376, 0.080669, -0.218939, -0.011005, 0.142498, 0.138050, 0.055076, 0.103129, -0.077253, 0.163772, 0.052957, 0.045457, -0.386566, -0.198316, 0.007153, -0.111185, -0.281387, 0.121374, -0.069932, -0.038704, -0.051810, -0.172719, 0.480949, 0.045554, 0.114911, 0.094399, -0.033573, 0.126799, -0.139154, -0.071233, -0.306698, 0.121007, 0.227464, -0.271912, -0.252252, 0.128094, 0.056182, 0.217028, -0.086049, -0.073893, 0.092105, 0.196092, 0.231661, -0.088052, 0.160872, 0.123375, -0.160871, 0.143450, 0.029638, -0.132955, 0.208842, 0.008390, -0.065010, -0.166118, -0.232277, 0.012996, -0.224015, 0.249758, -0.024526, -0.039607, 0.185717, 0.057845, 0.165584, 0.242786, 0.454283, 0.053718, 0.061312, -0.226740, 0.035833, -0.015762, -0.031441, -0.589529, 0.064606, -0.208734, 0.101343, -0.188335, 0.065307, -0.044338, -0.152999, -0.168432, 0.212307, -0.079285, 0.045730, -0.107009, 0.046631, 0.019359, 0.059427, 0.080982, -0.070306, -0.078653, -0.049041, -0.005195, 0.143078, 0.053324, 0.117242, -0.069207, -0.002792, -0.030468, -0.007702, 0.001032, 0.127914, 0.052833, -0.015748, 0.147334, 0.043545, -0.092658, 0.072905, 0.142244, 0.139660, -0.069428, -0.010801, 0.010861, 0.009419, -0.006465, -0.150234, 0.089366, -0.015259, -0.172969, 0.042099, -0.025691, -0.000831, -0.006152, -0.117824, 0.001467, 0.086458, 0.003277, -0.131871, 0.024646, -0.024476, 0.048604, 0.043599, 0.082236, 0.108271, 0.033816, 0.018162, 0.087299, 0.118791, -0.053292, 0.063579, -0.019762, -0.071710, -0.057683, -0.214428, -0.003938, 0.053489, -0.040459, 0.032234, 0.026557, 0.009461, -0.061568, -0.108096, -0.049502, -0.034188, -0.025461, 0.020537, -0.071879, -0.128449, 0.012458, 0.055233, -0.140526, -0.075788, 0.062282, -0.172915, -0.044459, -0.021044, 0.025228, -0.037568, -0.035577, -0.050119, -0.178069, -0.102948, -0.051672, -0.278643, 0.019225, -0.211073, -0.103198, 0.042083, 0.003483, -0.023209, -0.062290, 0.058306, -0.100944, -0.197077, -0.120175, 0.003936, 0.020088, 0.084070, -0.162055, 0.048910, -0.048758, -0.124173, -0.027601, -0.087041, 0.118282, 0.032594, 0.140844, 0.125398, -0.035043, 0.055936, 0.084972, 0.035746, -0.127661, 0.138701, -0.101581, 0.086662, -0.123942, 0.070336, 0.011648, -0.108355, -0.016824, 0.103914, 0.053513, 0.179944, 0.062547, -0.137802, 0.031275, -0.156342, 0.084315, -0.001096, 0.079777, -0.073364, -0.133995, 0.002192, -0.102286, 0.033252, 0.001362, -0.006968, -0.096282, 0.011930, 0.036215, -0.028279, -0.026471, 0.051952, -0.071586, -0.225898, -0.005870, -0.305674, -0.144850, 0.202738, -0.026124, 0.048964, -0.115028, -0.004189, 0.048915, -0.118016, 0.182116, 0.016899, -0.080360, 0.023776, 0.089368, 0.106878, 0.030264, 0.084959, 0.100857, -0.003153, -0.010181, 0.327464, 0.012544, 0.038358, -0.068991, -0.075340, -0.138301, 0.125349, 0.136800, 0.093078, -0.058180, -0.032014, 0.070380, -0.000965, 0.044294, 0.035050, 0.010291, 0.109066, -0.171247, 0.029644, 0.166414, -0.018700, -0.108238, 0.061105, 0.069509, -0.001070, -0.055795, 0.049011, 0.130697, 0.069782, 0.082908, 0.132741, -0.049108, -0.003172, 0.008505, -0.050309, 0.018046, 0.019868, 0.090266, 0.031226, -0.072566, -0.016298, -0.097034, 0.054284, -0.161348, -0.036432, 0.036648, 0.051903, -0.067108, -0.157637, -0.201884, -0.025273, -0.062285, 0.110569, -0.039118, 0.000128, -0.108182, -0.075717, -0.110994, -0.273415, 0.192925, 0.195568, -0.008978, 0.138910, -0.032220, -0.063897, 0.045677, -0.070342, 0.006883, 0.129053, -0.060233, 0.001265, -0.195868, -0.014814, 0.096648, -0.313331, 0.002540, -0.046100, 0.122171, 0.036209, -0.117632, 0.216949, -0.035927, -0.191551, 0.119514, -0.144291, -0.060688, 0.065934, 0.071523, -0.024116, -0.040967, -0.195992, -0.017109, 0.033924, 0.073949, 0.100045, 0.024363, 0.085530, 0.140732, 0.052287, -0.006794, -0.050685, 0.004534, 0.154509, -0.105902, -0.369459, -0.001227, 0.040392, -0.076837, 0.106739, -0.096184, 0.040251, -0.042272, -0.010394, 0.047757, 0.052278, -0.000103, -0.021103, 0.057289, 0.094303, -0.053411, -0.121187, 0.061328, -0.016994, -0.082923, 0.034792, -0.045253, 0.003386, 0.092362, 0.020434, -0.009015, 0.019981, 0.077238, 0.117311, 0.133177, -0.031707, -0.046604, 0.193921, -0.173956, -0.082165, -0.075593, 0.000045, -0.045518, 0.047807, -0.183117, -0.016425, -0.033981, 0.021466, -0.028128, -0.070420, -0.023012, -0.081781, 0.064439, -0.085643, 0.123754, 0.007386, -0.043321, -0.085962, -0.067528, 0.010244, -0.119660, 0.004119, 0.015675, 0.097781, -0.027035, -0.011083, 0.055957, 0.066314, -0.011085, -0.162127, 0.034671, 0.020026, -0.125587, 0.131055, -0.095162, 0.113900, -0.142810, -0.108875, -0.105939, 0.015190, -0.027907, 0.070635, 0.004540, -0.115845, 0.059297, 0.046453, -0.034335, 0.015353, 0.058317, -0.200898, 0.003148, -0.100188, 0.051018, 0.013734, -0.062007, -0.182439, -0.163471, -0.037312, 0.090361, -0.108271, -0.030931, -0.389251, -0.021297, -0.062556, 0.071636, -0.189281, -0.010339, -0.107973, 0.064835, -0.102831, -0.010604, -0.074527, -0.203251, -0.010579, 0.000227, -0.012615, -0.000456, 0.042205, 0.020468, -0.043383, 0.048852, 0.009856, 0.034125, 0.023109, -0.037253, 0.021415, -0.067716, 0.042115, -0.061701, 0.007892, -0.133052, -0.076440, -0.000600, 0.007326, 0.034325, -0.087355, -0.125872, 0.045103, 0.121167, 0.021552, -0.116173, 0.053929, 0.047213, -0.122189, 0.068358, 0.002814, 0.079490, -0.008037, -0.076849, 0.053007, -0.133925, -0.051437, 0.017028, 0.006583, -0.055358, 0.012766, 0.030674, 0.129679, -0.195369, 0.111945, -0.025413, -0.154998, 0.059372, 0.032613, -0.063556, 0.002761, -0.086379, 0.169401, -0.111734, 0.015755, 0.069395, -0.073517, 0.129618, -0.180756, -0.156285, 0.046599, -0.074954, 0.167134, 0.022669, 0.106451, -0.008817, 0.007262, -0.073100, 0.031695, 0.046597, -0.032956, 0.027653, -0.071463, -0.177770, -0.181448, -0.012027, 0.096266, 0.124113, -0.159134, -0.038520, -0.047757, -0.112549, -0.089294, -0.020025, 0.091297, -0.238387, 0.069267, 0.034478, 0.067207, -0.020915, -0.053680, 0.138347, 0.008602, -0.080538, -0.067923, 0.097858, 0.104751, -0.008364, 0.019812, -0.235184, 0.031834, -0.098634, 0.031487, -0.135686, -0.053503, -0.105236, 0.009327, -0.027710, -0.047279, -0.060214, 0.071257, -0.053010, -0.014096, -0.111315, -0.057915, -0.021265, -0.135560, -0.065405, -0.014500, 0.095238, -0.105637, 0.139548, -0.024948, -0.040114, -0.093455, -0.038569, -0.368979, 0.095402, 0.056446, -0.048680, 0.151478, -0.082250, -0.011048, 0.185485, 0.074822, -0.048410, -0.033026, -0.080007, -0.142266, -0.034834, -0.050667, 0.136246, -0.048537, 0.060848, -0.018794, -0.066767, 0.075545, -0.060895, 0.123717, 0.062911, -0.087718, 0.123422, -0.052811, 0.029782, -0.108911, -0.023724, -0.148592, -0.045619, -0.225218, -0.203479, -0.029394, 0.092719, -0.173876, -0.205349, -0.010133, -0.052555, -0.085892, 0.024194, -0.048821, -0.181162, 0.004342, 0.090057, -0.066474, -0.030134, -0.024066, 0.076458, 0.101548, 0.035677, -0.146557, -0.106359, -0.067208, 0.121836, 0.066257, -0.020631, -0.025554, 0.007266, 0.078023, -0.115835, 0.085501, -0.047652, 0.097108, -0.081265, 0.135743, -0.013331, 0.055317, 0.037968, 0.083999, 0.058746, 0.011707, 0.043397, 0.112524, -0.010745, 0.132566, -0.129600, 0.093333, -0.123434, 0.083590, 0.046078, 0.056181, 0.068736, -0.102428, -0.102222, 0.055938, -0.004075, 0.089823, -0.023140, -0.013020, -0.033213, 0.027317, 0.058347, -0.278713, 0.275656, 0.154993, -0.006382, 0.008301, 0.053088, -0.081700, 0.026725, -0.093673, -0.064674, 0.095017, 0.065032, 0.020799, 0.057762, -0.006780, 0.095191, -0.152404, 0.124295, 0.086076, -0.045203, 0.060906, -0.122528, -0.045831, -0.054992, -0.194448, -0.049494, -0.241436, 0.014751, -0.028666, -0.021899, 0.100405, 0.048416, -0.155445, 0.032897, -0.101419, 0.006199, -0.120147, -0.055646, -0.046101, -0.039201, -0.033024, -0.067766, -0.021506, -0.360329, 0.098081, -0.144560, -0.020672, -0.347303, -0.051130, -0.001257, 0.210448, -0.061240, -0.281442, 0.018637, 0.136281, -0.188542, -0.040021, 0.004993, 0.089917, -0.220550, 0.179053, -0.039095, 0.000496, 0.098605, 0.173650, -0.034944, 0.019187, -0.041570, 0.312155, 0.093144, -0.165535, 0.193455, -0.120843, -0.060387, -0.265223, -0.022562, 0.091667, -0.335809, -0.317156, 0.175118, -0.175498, 0.083890, -0.155994, -0.159792, 0.318310, 0.006165, 0.120602, 0.193509, -0.141817, 0.075249, -0.075781, 0.025187, -0.205965, -0.004067, 0.174595, -0.224659, -0.040628, 0.065489, -0.039143, 0.024433, -0.029855, -0.100959, -0.191365, 0.272472, 0.134093, -0.003161, 0.099763, -0.088523, 0.076278, -0.043790, -0.001299, -0.083700, -0.094970, 0.011261, 0.057485, 0.001342, -0.002862, -0.037101, 0.003763, -0.091092, -0.097694, 0.211229, 0.139806, 0.051103, 0.096869, 0.257976, 0.082738, -0.005633, 0.097833, -0.139184, 0.033322, -0.018558, -0.007445, -0.310383, 0.085318, 0.027469, 0.152739, -0.158376, -0.072161, 0.116350, -0.160466, -0.038458, -0.069792, -0.010839, 0.066356, -0.024121, 0.004914, 0.021877, 0.081606, 0.145743, 0.139228, -0.098068, 0.069966, 0.031303, 0.134941, -0.034358, -0.062097, 0.079457, -0.063871, 0.057784, 0.114036, -0.015344, 0.150636, 0.023167, 0.000426, 0.071819, 0.003436, 0.070611, -0.061088, 0.001234, -0.021803, -0.048309, 0.063051, -0.003863, 0.057940, -0.033118, 0.114295, -0.070888, 0.011898, -0.163159, 0.145893, -0.012763, -0.054982, 0.094183, -0.081336, -0.024427, -0.024877, 0.025237, -0.281410, 0.113330, 0.209181, -0.042065, -0.028568, 0.143491, 0.022816, 0.135855, 0.032951, -0.067461, -0.040808, 0.041521, -0.221785, 0.093070, -0.232162, -0.009754, -0.092265, 0.020752, -0.126628, -0.053979, -0.028060, -0.158104, 0.041201, -0.127177, -0.164285, -0.073541, -0.082793, 0.016933, 0.039493, 0.044327, 0.010228, 0.033937, -0.106044, -0.002276, 0.101676, 0.138557, -0.126187, -0.013445, 0.030180, -0.148434, -0.002769, -0.122141, 0.001810, -0.295475, -0.103163, 0.010452, -0.006139, -0.053642, -0.242357, 0.029262, 0.021032, 0.005122, -0.105422, -0.015456, -0.022402, 0.015449, 0.021482, 0.037431, -0.099416, -0.150432, -0.006502, -0.151859, 0.087439, -0.106599, -0.008969, -0.035300, 0.145460, 0.101268, 0.107661, 0.169501, 0.043396, 0.038488, -0.040640, 0.003094, -0.140555, -0.026035, 0.047382, -0.151829, -0.131393, 0.022932, 0.061804, -0.090556, -0.116086, 0.014779, 0.204630, 0.142669, 0.063871, 0.009800, -0.005188, -0.170572, 0.062226, -0.052239, -0.162295, -0.143496, -0.149239, 0.041293, -0.072815, -0.058518, 0.108534, 0.115455, -0.026211, 0.059290, -0.140968, 0.062461, 0.093189, -0.052432, 0.129280, 0.112399, -0.025671, -0.012271, -0.230439, 0.144274, -0.024004, 0.176571, -0.123063, -0.107125, -0.021367, 0.061615, -0.263526, 0.090599, -0.162326, -0.047087, 0.144636, -0.024510, 0.136717, -0.054838, 0.106442, 0.027025, 0.002846, -0.046203, 0.153228, -0.073342, -0.113172, -0.112236, -0.077091, -0.111636, 0.047240, -0.092290, 0.021937, 0.150343, -0.031062, -0.044722, -0.132022, 0.053894, 0.068152, -0.015899, 0.021502, -0.012245, 0.017470, 0.069463, 0.076261, -0.020172, 0.021096, 0.064882, -0.072822, -0.063232, -0.119791, -0.156349, -0.026651, 0.051939, 0.169832, 0.043258, 0.050118, -0.017684, -0.070422, 0.063804, -0.025203, 0.050614, -0.028680, 0.019537, 0.237919, -0.178883, 0.016370, 0.011909, 0.134155, -0.040473, -0.020111, 0.001978, 0.021174, -0.039568, -0.111870, -0.070701, 0.046106, -0.177329, -0.018322, -0.052327, 0.067441, -0.078723, -0.185715, 0.074839, -0.050112, -0.121368, 0.090071, 0.195498, 0.095051, -0.200129, -0.013061, -0.083850, -0.022433, -0.040521, -0.047230, 0.094402, 0.088193, 0.011692, -0.040420, 0.150799, 0.016789, 0.155072, -0.007372, 0.112955, 0.196717, -0.082925, -0.042578, -0.048393, -0.287685, 0.039951, 0.013075, 0.002722, -0.212603, -0.040176, -0.076862, -0.004343, 0.172132, 0.026208, -0.013213, 0.011672, 0.039365, -0.034539, -0.033945, 0.044166, -0.143642, -0.037456, 0.075661, 0.020674, -0.145881, -0.029762, -0.088016, -0.048513, 0.126281, 0.048674, 0.103852, 0.022982, -0.036271, 0.164449, 0.169492, -0.049774, -0.062786, 0.019954, 0.080027, -0.104208, -0.038674, 0.011898, 0.012512, 0.045193, 0.177334, 0.073770, 0.074737, 0.056955, 0.007601, -0.065871, 0.074155, -0.025421, 0.018445, -0.015800, 0.030722, -0.059468, 0.164312, 0.039513, -0.057655, -0.007076, 0.035361, 0.061860, -0.008173, -0.225683, 0.103011, -0.095464, 0.033830, -0.026889, -0.068015, -0.108976, -0.020818, -0.137150, -0.261274, 0.061569, 0.140727, -0.104268, 0.037010, -0.027505, -0.093311, -0.059920, -0.083327, -0.032192, 0.116347, -0.010396, -0.104628, 0.065620, -0.047279, 0.050394, -0.193178, -0.076279, -0.103765, 0.037084, -0.045851, -0.167317, 0.069053, 0.107673, -0.225257, 0.074917, 0.032014, -0.059153, 0.062595, 0.064128, 0.102105, 0.092437, -0.019550, -0.152622, 0.081819, -0.008524, -0.043214, 0.005426, -0.089031, 0.007484, 0.011635, 0.056886, -0.052913, 0.038698, -0.077894, 0.081081, 0.028176, -0.004870, -0.123663, -0.071106, -0.118107, -0.091227, -0.194510, -0.191863, 0.030770, -0.087152, -0.213555, 0.051184, -0.037262, 0.061836, -0.091694, -0.043283, 0.000208, -0.090709, -0.034043, 0.038837, 0.041709, -0.103238, 0.074704, 0.112305, 0.047690, -0.013431, 0.043658, -0.100624, -0.067459, 0.024887, -0.076836, -0.046355, -0.058083, 0.035663, -0.075635, -0.022685, 0.008450, -0.026386, -0.014846, -0.022804, 0.026092, -0.092161, -0.088429, 0.237881, -0.068318, -0.033331, 0.065641, 0.030263, -0.172893, 0.009452, 0.049198, -0.144971, -0.106169, 0.023181, -0.098237, -0.211334, -0.078230, 0.170105, 0.077514, -0.226427, 0.162667, 0.065141, 0.058789, -0.130110, 0.095494, -0.030599, 0.192839, -0.072453, -0.135030, -0.155372, 0.057134, 0.066291, 0.210811, 0.126968, -0.063648, -0.026145, 0.127003, -0.036178, -0.014374, 0.053438, -0.028767, -0.011882, -0.103013, 0.053371, 0.121294, 0.190047, -0.028970, 0.098798, -0.105856, -0.130134, -0.086033, 0.119361, -0.088005, 0.108142, 0.028421, 0.117874, -0.184954, 0.115244, -0.136643, -0.009186, 0.006050, -0.159292, 0.039867, -0.022681, -0.296969, -0.007924, -0.058691, 0.081591, -0.014125, -0.064178, 0.072863, -0.165071, 0.074563, -0.015789, -0.116537, -0.129399, -0.142031, 0.053135, -0.010912, -0.155767, -0.051919, 0.054368, 0.125044, -0.139961, 0.076209, -0.117237, -0.071593, -0.008630, 0.043066, -0.031061, 0.190232, -0.082807, 0.017480, -0.192692, -0.118681, 0.009959, -0.100963, 0.124992, -0.025441, 0.061648, 0.188967, 0.104997, -0.227961, 0.051007, -0.171282, -0.164783, -0.169373, 0.012918, -0.078659, -0.079003, 0.016501, 0.012657, 0.026554, -0.104919, -0.190165, 0.072572, -0.188741, -0.136696, -0.002493, 0.066046, -0.058115, -0.099929, -0.044929, -0.062794, -0.089679, -0.004469, 0.140729, -0.020357, 0.101305, 0.003864, -0.138537, -0.065746, -0.054184, 0.073411, -0.064056, 0.123070, -0.025530, -0.059614, 0.105051, 0.007196, 0.077557, 0.077782, 0.044016, -0.020354, -0.099117, -0.148127, -0.017345, 0.005426, -0.188878, -0.081784, -0.111215, 0.219833, -0.084443, -0.049135, -0.140786, 0.048377, -0.038852, 0.042478, -0.099175, 0.047517, 0.022189, 0.059187, 0.148598, 0.011624, -0.057245, -0.073478, -0.093111, 0.091407, 0.086621, 0.093968, -0.043577, 0.053499, 0.060314, 0.204225, -0.142411, -0.087013, 0.109992, -0.169471, 0.007078, -0.094305, 0.000495, 0.005659, -0.015189, -0.087522, 0.161467, -0.045939, -0.036469, 0.080520, 0.059048, -0.066119, 0.091885, 0.121921, -0.091682, -0.009299, -0.107940, 0.043090, -0.048170, 0.114033, -0.070626, -0.134228, -0.037705, 0.155584, 0.072238, -0.064808, 0.026917, 0.074665, 0.287038, -0.106206, 0.086892, -0.007246, 0.002666, -0.011318, -0.068300, 0.136211, -0.039441, 0.135805, -0.160772, 0.065951, 0.047991, -0.090001, 0.029903, 0.075862, -0.110611, -0.042591, 0.068867, 0.056738, 0.052695, -0.091903, 0.058009, -0.043929, 0.093106, -0.061381, 0.035611, -0.108590, -0.001580, -0.112258, -0.035519, -0.172512, 0.000990, 0.077988, 0.023264, -0.005116, 0.013576, 0.117292, -0.150106, 0.047598, -0.160380, 0.025659, -0.186040, -0.107413, 0.062096, -0.044995, -0.176497, -0.169290, 0.000346, 0.072126, -0.028514, -0.086048, 0.004529, -0.159484, 0.111640, -0.101058, 0.004892, -0.085534, 0.035330, 0.018619, 0.140969, -0.072492, -0.040137, 0.051322, 0.025530, -0.019661, -0.033690, -0.148920, -0.080378, 0.111883, -0.056284, 0.016179, 0.041273, -0.044388, -0.030968, -0.021226, -0.055791, 0.009038, -0.005554, 0.267270, 0.024582, 0.007107, 0.153611, 0.081179, -0.386797, 0.124934, 0.083919, -0.067740, -0.164141, -0.032291, -0.024439, -0.145202, -0.018321, 0.119718, 0.051576, -0.073436, 0.029937, 0.005437, 0.040718, -0.031809, 0.154568, -0.027742, 0.005090, 0.004412, -0.092211, 0.003626, -0.109177, 0.078769, 0.098396, 0.117500, 0.050712, 0.066986, 0.059758, -0.099717, -0.059669, -0.038461, 0.099466, 0.064219, 0.004705, 0.029676, 0.183160, -0.059774, -0.070692, 0.095401, -0.101442, -0.099566, 0.045958, 0.294687, -0.184528, 0.559157, 0.444578, 0.028460, -0.011124, 0.001062, 0.347954, -0.054344, 0.155467, -0.061088, -0.148669, -0.236888, -0.040474, -0.067887, -0.095712, 0.363313, 0.050331, 0.095162, -0.169816, 0.033033, 0.297816, 0.038919, -0.006849, -0.080147, 0.189199, -0.261081, -0.365737, 0.049376, -0.190459, 0.071511, -0.143920, -0.036010, 0.010599, 0.160597, 0.074969, -0.058555, 0.039200, -0.087593, 0.260898, -0.125138, 0.046794, 0.037529, 0.098181, -0.020904, -0.249486, 0.367226, -0.011009, -0.010316, 0.013999, 0.015414, 0.071494, -0.086678, 0.119243, 0.120680, 0.029949, -0.114636, 0.200534, -0.014189, -0.001129, -0.075482, -0.244094, -0.221359, -0.044969, -0.091073, 0.135889, -0.095465, 0.357473, -0.213121, -0.192984, -0.231870, 0.186878, 0.183605, 0.350866, 0.055351, -0.149136, -0.451960, 0.421934, 0.399557, -0.024429, 0.022072, -0.061644, 0.106234, 0.054808, -0.044214, 0.062302, -0.030053, 0.129130, -0.114245, 0.025172, -0.039828, -0.089923, 0.287022, 0.266763, 0.112952, -0.030213, 0.111094, 0.015312, -0.056004, -0.142400, -0.129303, 0.086716, 0.013763, -0.031112, -0.124200, 0.103049, -0.073435, -0.072380, -0.050643, -0.016653, 0.089603, -0.198610, -0.063158, -0.079806, -0.093806, 0.162719, -0.070496, 0.062556, -0.093128, 0.083956, -0.110442, -0.007801, 0.025925, -0.079498, -0.050429, -0.020300, -0.077494, 0.128830, -0.001959, -0.203218, -0.060085, 0.072446, -0.038988, -0.047360, -0.019267, 0.038794, -0.143152, 0.043562, 0.044215, -0.021342, 0.319886, -0.046150, -0.069404, -0.007371, -0.117943, -0.271608, 0.050282, 0.148046, -0.241381, -0.220591, 0.032930, 0.082274, -0.079877, 0.026507, 0.052230, -0.065157, -0.211469, -0.062415, -0.008796, -0.085164, -0.078079, -0.046340, 0.027436, 0.085798, -0.055812, 0.011577, -0.022349, 0.138875, 0.135000, 0.104293, -0.012080, 0.206431, 0.198546, 0.063140, -0.036680, 0.074546, 0.016501, 0.047220, 0.045598, -0.034875, 0.091482, 0.239278, -0.039609, 0.088049, 0.002970, 0.065939, -0.022074, -0.086467, 0.092630, -0.046438, 0.062915, 0.056218, -0.023155, -0.099065, -0.099577, -0.026973, -0.059077, -0.081746, -0.077750, 0.058143, -0.125152, -0.144407, 0.013128, 0.016303, 0.146554, -0.132679, -0.034697, -0.079982, -0.120764, 0.082198, 0.095982, -0.139042, -0.122993, 0.113108, -0.051606, 0.050679, -0.092844, 0.053235, 0.044548, 0.005822, -0.022862, -0.039139, 0.001211, -0.194035, 0.017086, 0.044004, -0.107546, 0.044174, 0.095105, 0.113351, -0.147005, -0.058740, 0.121814, -0.138900, 0.114346, -0.013159, -0.076168, 0.083635, 0.024967, -0.217633, -0.079776, -0.010901, -0.230246, -0.163354, 0.081051, 0.028353, 0.023719, 0.170813, 0.007011, -0.044000, 0.049307, -0.069520, -0.053586, -0.030513, -0.056079, 0.207355, -0.005796, -0.008210, 0.016432, -0.047378, 0.056600, 0.020488, 0.074220, 0.036874, -0.025080, 0.170364, 0.065194, -0.073197, 0.028937, 0.028148, 0.017008, 0.097049, 0.117308, -0.066785, 0.069743, 0.219513, 0.060706, 0.049441, -0.153888, 0.004068, -0.029863, 0.138427, -0.105459, 0.108941, -0.061769, -0.118206, 0.045318, 0.047340, 0.031507, 0.014987, -0.034203, -0.061344, -0.043789, -0.066825, 0.006149, -0.027803, -0.048921, 0.026632, 0.052631, -0.053781, -0.018705, 0.022248, 0.037218, -0.107706, 0.075249, 0.121585, -0.045119, 0.038900, 0.001266, -0.072725, -0.007399, -0.063150, 0.052938, -0.095297, -0.050503, 0.131497, -0.085050, 0.061446, -0.064070, -0.030744, 0.041055, 0.095092, 0.055666, -0.038127, 0.044454, 0.059622, 0.053521, 0.040181, -0.032364, 0.087597, 0.036204, -0.077984, 0.072410, -0.008793, -0.061673, 0.018870, -0.159704, -0.025869, -0.042011, -0.005595, 0.052113, 0.063591, 0.123402, 0.119747, 0.043141, 0.119552, -0.009193, -0.062023, -0.044927, -0.016385, -0.053468, -0.036745, -0.092449, -0.075282, 0.112066, -0.049077, -0.094856, 0.075458, 0.053520, -0.004019, 0.026741, -0.110639, -0.027955, -0.069621, -0.061882, 0.038210, 0.080791, 0.064662, -0.074745, 0.041806, -0.032547, -0.074815, 0.023376, -0.057252, -0.051764, 0.023615, 0.070326, -0.011802, 0.109239, -0.006295, -0.003191, -0.007976, -0.071016, -0.000513, 0.021244, -0.085383, -0.162387, 0.022047, 0.003894, -0.024856, -0.136852, 0.032692, -0.003565, -0.087904, 0.005885, 0.144965, -0.079130, -0.026879, -0.067001, -0.012537, -0.018673, 0.142172, 0.087026, 0.167701, -0.027903, 0.105456, 0.039003, 0.050333, -0.043641, 0.108401, -0.068773, -0.124655, 0.057899, 0.043301, 0.001328, 0.021473, 0.038170, -0.015255, -0.127394, -0.075032, -0.082957, -0.041390, 0.075783, -0.000322, 0.068112, 0.151500, 0.120560, -0.297853, -0.006531, -0.017802, -0.156963, -0.119213, 0.066521, -0.047492, 0.005761, -0.015179, 0.012980, 0.031759, -0.095133, 0.059423, 0.102883, -0.010594, -0.015318, -0.067006, 0.133600, 0.042232, 0.022994, -0.066069, -0.024584, 0.066578, 0.179818, 0.093975, 0.111504, -0.133978, 0.103105, -0.057384, -0.013036, 0.050025, 0.034878, -0.097113, 0.035863, -0.116885, 0.080199, -0.004075, 0.043257, -0.048148, 0.107796, -0.005492, -0.063837, -0.079494, -0.049843, 0.009391, 0.142351, 0.147430, -0.091738, -0.035157, -0.114463, -0.131073, -0.032994, 0.153197, -0.051958, -0.068821, -0.087926, -0.023867, -0.071314, 0.020590, 0.016947, -0.061672, 0.035487, 0.012188, 0.101875, 0.052536, 0.057581, -0.044783, 0.044905, 0.171247, 0.013418, 0.130739, -0.061759, -0.065878, 0.026735, -0.030747, 0.083481, 0.084845, -0.043264, -0.260479, -0.040759, -0.038316, -0.016852, -0.149806, -0.087785, 0.162877, -0.159827, -0.082876, 0.102158, -0.063321, 0.205799, -0.177721, -0.019951, 0.002959, 0.088034, -0.088188, -0.059030, 0.136278, -0.153770, -0.103381, -0.006866, 0.050055, 0.066996, 0.018534, -0.059680, -0.024395, 0.166635, -0.087883, 0.075903, 0.101244, -0.058180, -0.137830, 0.008568, 0.011210, -0.025619, -0.073561, 0.134627, -0.062079, 0.107057, 0.085554, -0.045397, 0.014486, 0.160960, -0.030811, -0.042338, -0.066705, 0.163555, 0.171459, -0.034276, -0.043911, -0.065380, 0.124992, 0.065237, -0.005380, -0.069548, 0.017249, 0.084917, 0.193437, 0.112386, -0.010651, 0.107567, -0.089776, 0.032191, -0.163525, 0.034250, -0.249871, -0.085103, -0.010469, -0.031612, 0.075795, 0.040071, -0.144966, -0.139372, -0.097897, 0.109419, -0.011032, -0.018664, 0.063965, 0.079735, -0.001157, 0.045628, 0.055167, -0.133372, -0.057064, -0.039141, -0.016096, -0.013669, -0.014934, 0.015035, -0.071719, -0.127939, -0.038998, -0.000952, -0.095810, 0.101003, 0.094421, 0.083746, 0.013982, -0.073861, 0.087140, -0.212779, -0.074806, 0.147677, -0.076437, 0.079942, -0.027154, 0.095589, 0.059955, 0.081007, -0.092786, -0.061450, -0.083160, -0.104578, -0.137978, 0.059838, 0.034670, -0.019027, -0.066246, 0.011882, 0.026670, 0.020228, -0.049102, 0.005858, 0.009466, -0.033143, 0.061017, 0.003251, -0.072470, 0.056004, -0.184247, -0.116028, -0.057133, -0.056209, 0.110671, -0.043919, 0.039004, 0.080124, 0.102113, -0.086875, 0.012990, 0.079046, 0.059505, 0.117322, -0.044588, 0.010175, 0.178699, -0.040792, -0.018375, -0.040635, 0.030230, 0.000051, 0.032701, 0.039846, 0.065570, 0.058901, 0.099094, 0.045074, -0.175995, -0.051578, -0.093630, 0.073187, 0.025305, -0.107043, -0.032605, 0.046431, -0.001642, -0.197994, -0.062154, 0.060350, 0.031736, 0.091141, 0.129719, -0.021175, 0.116251, -0.035289, -0.076297, -0.087937, 0.076581, -0.042297, 0.139283, -0.059889, 0.034545, -0.063835, 0.028198, 0.097667, 0.130194, -0.150606, -0.129089, -0.014079, -0.104450, 0.028198, -0.035758, 0.012730, 0.079650, -0.114217, 0.002027, -0.094843, 0.014590, 0.068629, 0.058847, -0.079728, 0.009273, 0.084519, -0.184852, -0.020138, 0.146429, -0.064700, -0.018195, 0.115099, -0.023208, -0.091788, 0.155041, 0.007864, 0.099367, -0.014249, -0.025049, 0.031485, 0.022448, -0.102854, -0.100036, 0.005746, 0.044583, -0.089615, 0.013072, 0.115800, 0.038093, 0.088192, -0.013716, 0.137959, 0.017976, 0.011282, 0.043469, 0.067341, -0.042938, 0.004499, -0.083060, 0.010931, -0.120617, -0.061242, -0.129695, 0.066556, -0.055299, -0.009177, 0.007720, -0.060146, -0.130320, 0.458988, 0.138832, 0.036453, 0.200830, 0.095536, -0.104567, 0.052067, 0.331823, -0.051898, 0.084357, 0.045620, -0.047875, 0.046447, 0.051391, -0.080680, -0.031827, 0.373339, -0.050893, 0.157369, -0.198596, -0.101890, 0.431798, -0.009892, 0.200908, -0.027778, 0.024772, -0.188844, -0.201226, -0.126983, -0.071774, -0.009436, 0.153447, -0.014903, 0.103244, -0.079390, -0.099081, 0.023992, 0.062894, 0.012397, 0.070187, -0.080978, -0.185928, 0.150438, -0.001929, -0.033914, -0.064678, 0.243844, -0.027123, 0.104451, 0.165483, 0.024948, -0.267564, 0.099002, 0.199790, -0.113832, 0.017217, -0.208815, 0.120205, 0.031063, -0.188680, -0.241595, -0.106023, -0.098405, -0.164623, -0.020745, -0.076004, -0.059428, -0.152531, -0.011529, -0.468178, -0.006864, 0.097262, 0.045911, 0.415888, -0.057249, 0.092497, -0.284831, 0.195547, 0.177660, -0.063393, 0.077433, -0.134307, 0.002698, -0.127738, -0.035361, 0.099358, 0.194968, 0.037845, -0.238780, 0.082000, 0.124027, 0.062132, 0.071900, -0.063912, 0.133339, -0.045673, 0.110260, 0.026185, 0.011270, -0.075048, 0.060710, -0.090513, 0.070955, -0.067851, 0.045707, -0.097956, -0.007723, -0.015456, -0.025623, -0.017563, 0.115842, 0.044261, 0.078813, -0.007676, -0.079205, 0.061366, -0.043876, -0.005213, -0.053006, 0.006026, -0.086905, 0.126634, -0.044833, 0.014193, 0.034714, 0.124573, 0.006793, 0.120867, -0.066578, -0.162846, 0.024878, -0.079180, -0.029497, 0.013630, 0.025678, -0.066728, -0.182022, 0.005178, -0.169513, 0.110068, 0.192462, 0.049473, -0.007460, -0.050483, 0.100122, -0.232100, 0.174181, 0.106327, -0.247484, -0.127998, 0.067956, -0.122761, -0.038562, -0.006773, -0.099300, 0.093622, -0.089342, -0.126147, -0.131405, 0.130225, -0.057161, 0.018382, 0.122715, 0.099416, 0.057484, -0.025298, 0.136501, 0.031644, 0.119591, 0.008863, 0.075810, 0.074661, -0.022783, -0.111609, -0.039807, -0.026251, -0.088451, -0.163657, 0.021977, -0.016631, 0.154826, -0.018970, -0.002232, -0.076744, 0.111835, -0.036402, 0.028170, -0.053729, 0.105367, -0.182546, 0.185196, 0.248169, 0.050969, -0.176887, 0.123285, -0.060857, -0.077860, 0.165500, -0.051336, -0.121165, -0.048244, -0.149936, -0.164281, -0.009069, -0.046389, -0.032733, 0.095438, -0.088826, 0.016093, 0.031563, 0.048272, 0.038496, -0.104184, -0.101875, -0.058844, -0.102752, -0.162987, 0.025691, 0.051871, 0.004383, -0.058944, 0.167305, -0.069181, -0.203656, -0.061400, -0.094185, 0.025323, 0.026847, -0.171472, 0.056814, 0.044901, 0.017370, -0.006417, -0.055397, 0.177092, -0.151801, 0.014992, 0.047945, -0.027206, -0.049569, -0.148114, 0.020101, -0.264473, -0.136424, -0.017365, 0.068737, -0.151469, 0.106314, -0.138497, -0.167481, 0.014847, -0.136834, 0.010715, 0.070002, -0.102681, -0.024003, -0.036426, -0.122697, -0.089134, 0.064420, 0.043806, -0.065112, 0.017742, -0.073552, -0.109260, 0.242603, 0.139519, -0.148817, -0.066855, -0.110393, -0.014286, 0.100962, 0.177348, -0.004707, -0.160376, 0.101665, -0.104133, 0.020040, -0.092565, -0.008063, 0.157195, 0.215889, -0.075527, 0.003938, 0.113663, -0.015081, -0.056479, -0.137819, 0.112673, -0.150329, -0.109333, -0.022634, -0.064367, -0.063457, -0.073495, -0.145494, -0.142731, 0.015176, 0.038995, -0.058841, 0.053833, -0.103498, -0.182098, 0.146178, 0.021364, -0.028445, -0.117692, 0.117629, 0.050762, -0.065381, 0.043443, 0.036704, -0.012824, -0.149071, 0.030055, -0.074583, -0.164724, -0.097942, 0.106940, -0.023906, -0.034140, 0.035476, 0.089292, 0.169613, -0.175162, 0.013696, 0.065306, -0.098390, 0.287660, 0.076015, -0.065518, 0.049241, -0.083232, -0.191650, 0.028339, 0.066312, -0.080385, -0.225776, 0.009504, -0.087690, -0.124458, 0.048972, 0.050496, 0.035648, 0.042001, -0.052665, -0.004347, -0.057813, -0.114789, 0.077552, -0.160114, -0.107108, 0.043470, -0.037920, -0.035264, 0.013223, 0.010112, 0.133030, 0.024878, 0.026327, 0.204213, -0.065731, -0.009166, -0.038955, 0.028912, 0.159904, 0.130725, -0.033112, -0.004943, 0.095722, -0.016208, -0.090564, -0.076131, -0.049714, 0.061379, 0.056955, 0.139128, 0.029104, 0.120001, 0.008810, 0.039829, -0.161933, 0.037478, -0.031195, 0.019294, -0.008437, -0.108747, 0.074247, 0.036899, 0.135821, -0.260822, 0.045430, 0.001499, 0.017627, 0.008498, 0.052641, 0.047769, 0.009249, -0.070880, 0.115085, 0.010181, 0.056873, 0.034820, 0.006506, -0.015843, -0.034061, -0.015093, 0.049122, -0.020309, -0.017664, -0.005399, -0.135250, 0.037731, -0.044466, 0.028007, -0.137494, -0.036384, 0.034110, -0.328293, 0.162807, -0.009507, -0.024389, -0.060585, 0.025440, -0.045483, -0.086976, -0.053399, -0.012244, -0.095036, 0.038272, -0.128095, -0.105234, 0.052243, -0.147432, 0.100271, 0.012320, -0.002689, -0.003387, 0.034124, -0.030339, 0.005898, 0.013867, -0.083772, -0.064665, 0.148549, -0.013672, 0.073878, 0.136285, 0.065801, 0.117357, 0.062062, 0.069749, 0.132162, -0.093122, 0.009790, 0.029402, 0.048989, -0.041109, -0.106404, 0.106036, 0.092611, -0.073848, -0.066289, -0.033288, 0.129012, -0.014467, 0.079041, 0.068570, -0.097192, -0.018883, -0.054266, -0.104760, 0.156854, 0.013761, 0.126106, 0.034048, -0.041204, 0.061436, -0.080621, 0.029658, -0.090709, 0.041776, -0.026549, -0.057977, -0.125273, 0.084807, 0.099015, 0.037796, 0.032764, -0.024940, 0.164044, 0.071841, -0.001261, -0.090685, -0.108545, -0.067460, 0.048248, 0.046041, -0.077289, 0.019523, -0.082807, -0.115017, 0.004583, -0.019802, 0.100328, -0.084818, 0.028307, -0.000128, 0.063163, 0.011893, 0.074020, 0.051839, -0.288285, -0.008402, 0.202658, -0.018136, 0.091329, -0.078676, 0.089151, 0.004551, 0.205702, -0.071802, -0.054035, 0.035326, 0.225808, -0.079982, -0.107921, 0.070655, 0.061845, -0.082530, 0.019826, -0.111292, 0.297109, -0.205692, 0.076086, 0.037374, -0.098741, 0.073362, -0.031106, -0.109788, -0.240784, -0.057685, -0.054417, 0.051743, 0.027400, 0.026523, -0.143463, 0.212731, 0.091703, 0.000451, -0.062416, -0.066180, 0.252835, 0.248348, 0.062492, -0.053356, -0.029924, 0.078157, -0.118199, -0.097938, -0.031067, -0.117765, 0.012159, 0.374810, -0.098973, 0.011348, 0.178697, 0.087009, -0.121458, -0.051362, -0.046854, -0.044836, -0.059649, -0.092853, -0.077924, 0.127947, -0.185584, -0.018904, -0.168339, -0.066035, -0.062962, -0.112736, -0.076340, 0.167659, 0.248010, -0.117132, -0.019062, -0.091181, -0.128944, 0.058782, -0.054916, 0.123501, -0.089923, -0.076074, 0.022905, -0.044708, 0.117514, 0.126215, 0.120753, -0.213878, -0.107359, -0.011212, 0.042774, -0.058920, 0.041637, 0.172313, -0.249623, -0.068532, -0.041485, -0.032285, 0.247905, -0.129890, -0.097352, 0.005759, -0.012853, -0.186688, -0.119806, 0.126009, 0.006607, 0.010613, 0.015464, 0.045044, -0.069227, 0.006724, 0.221250, -0.010549, 0.249279, -0.117269, -0.117497, 0.174956, -0.062335, 0.093848, -0.178351, 0.095813, -0.078641, 0.141420, 0.143338, 0.061059, 0.238384, 0.070762, 0.150377, -0.086891, 0.065490, -0.010539, 0.005246, -0.002527, 0.134188, -0.016582, -0.101534, -0.192922, 0.023256, 0.054847, 0.081457, -0.075560, -0.187358, -0.055815, -0.031349, 0.191715, 0.109070, 0.046814, 0.147394, -0.018331, 0.078974, 0.022218, 0.013399, -0.125255, 0.004842, 0.005046, 0.007273, 0.072236, 0.048503, 0.040411, -0.260043, -0.038558, -0.009823, -0.013832, 0.157413, 0.006002, 0.081994, -0.080038, 0.072492, -0.016702, 0.073621, 0.096597, 0.000012, 0.032898, 0.004536, -0.046688, -0.021024, 0.012104, 0.152725, 0.098581, -0.092506, -0.125691, -0.077311, 0.159388, 0.006242, -0.168630, -0.065606, -0.063587, -0.091483, 0.000514, -0.098789, 0.027227, -0.131406, -0.096997, -0.051509, 0.056336, 0.070903, 0.037219, 0.136641, 0.153116, -0.134489, -0.003743, 0.077955, -0.095278, 0.039807, 0.040003, -0.130961, 0.033068, 0.101369, 0.036347, 0.032262, 0.000803, -0.048160, 0.084501, 0.086637, 0.061085, 0.055049, 0.074345, 0.163456, -0.047412, 0.147313, 0.048759, 0.013522, -0.073878, 0.003802, -0.014417, -0.023166, -0.058665, -0.206276, -0.030255, 0.012552, 0.075383, -0.109607, -0.034398, 0.124061, -0.037233, 0.029738, -0.015051, 0.089726, -0.004884, 0.133416, -0.055803, -0.147284, -0.000186, -0.099164, -0.184999, 0.010626, -0.073000, 0.054531, -0.187851, -0.147081, -0.012741, 0.134892, 0.122701, -0.016424, 0.070967, 0.140674, -0.046975, 0.069634, -0.059707, -0.044862, 0.249252, 0.052483, -0.060083, 0.032380, 0.185546, 0.085689, 0.100100, -0.038678, 0.032922, -0.057767, 0.099970, 0.184082, -0.088638, -0.164119, -0.018281, 0.020662, 0.136395, -0.082063, 0.095456, -0.170881, -0.197551, 0.016458, 0.083308, -0.084878, 0.178510, 0.022849, 0.063843, 0.013768, 0.087192, 0.029353, -0.368446, 0.113100, 0.149489, -0.236138, -0.125327, -0.026073, -0.246850, -0.085376, -0.188993, 0.000611, 0.146218, -0.125248, -0.032588, 0.053641, -0.105711, 0.131931, -0.007020, 0.121235, -0.025789, 0.073788, 0.058842, 0.040042, 0.004423, -0.121706, 0.099234, 0.026770, -0.039924, -0.189645, -0.110934, 0.067572, 0.031964, -0.140173, -0.148364, -0.019228, -0.004487, 0.250275, -0.069399, 0.065319, -0.109914, 0.224533, -0.011013, 0.064677, -0.168289, 0.039720, 0.003394, -0.102115, 0.067425, 0.143302, -0.147548, 0.067553, -0.035005, -0.049040, -0.089642, -0.032980, -0.095030, 0.038558, -0.043000, -0.125420, -0.070219, 0.138095, 0.043017, 0.133732, 0.033683, -0.013732, 0.116873, 0.004860, 0.079487, -0.062306, 0.038859, -0.123201, -0.060965, 0.054932, 0.032383, 0.026886, 0.070999, 0.042987, 0.251569, -0.025295, -0.277652, -0.023320, 0.045820, 0.026419, 0.017264, 0.021201, -0.115715, -0.101046, 0.098269, -0.197931, 0.068706, 0.029091, -0.072796, -0.083344, 0.025846, 0.142733, 0.014526, 0.033383, 0.287391, -0.070342, -0.054765, 0.096031, -0.103348, 0.036288, -0.072917, -0.191167, 0.167882, -0.039814, -0.089994, 0.034866, 0.014279, -0.011953, -0.116468, 0.142445, -0.064084, -0.084870, 0.153575, 0.235635, 0.100650, -0.028021, -0.001510, -0.019248, 0.021258, -0.000537, -0.137231, -0.005428, -0.062853, -0.226158, 0.094020, 0.091713, 0.048325, 0.066806, -0.022597, 0.021720, 0.058841, 0.033391, 0.030737, -0.162272, -0.094389, -0.020576, -0.208952, 0.263030, 0.115610, -0.039166, -0.212427, 0.071414, 0.278045, 0.001881, -0.031630, -0.040922, -0.219179, -0.141368, -0.084409, -0.153225, 0.024095, 0.091679, 0.218907, -0.006899, -0.028167, -0.001079, 0.121576, -0.060051, -0.018778, -0.017441, 0.082329, -0.127865, -0.264016, -0.069842, -0.006684, 0.019659, -0.066115, 0.073252, 0.109321, -0.009500, -0.292730, -0.024424, -0.111732, 0.017973, 0.043703, -0.066984, 0.001650, -0.192244, 0.022224, 0.155359, -0.153133, 0.218776, -0.073069, -0.042059, 0.045426, -0.008464, 0.061111, -0.048420, 0.164673, 0.119150, -0.069381, -0.114339, -0.001237, 0.007535, -0.063321, -0.092019, -0.192151, -0.032609, -0.161979, 0.107361, 0.180298, -0.062440, 0.067672, -0.172056, -0.149961, -0.147193, 0.200160, 0.086285, 0.177725, 0.020687, -0.161727, -0.154702, 0.194029, 0.137778, -0.099532, 0.024144, -0.066394, 0.117169, 0.067716, -0.046106, 0.141102, 0.012027, 0.076928, -0.105773, -0.059410, -0.057827, -0.004131, 0.140592, 0.297147, 0.093870, -0.128727, 0.186567, 0.096341, -0.017767, -0.120634, 0.043828, -0.185440, -0.077999, -0.035304, -0.113436, -0.048371, -0.143167, -0.053227, 0.001165, 0.039000, 0.096323, 0.062247, -0.103082, -0.068991, -0.007136, 0.053279, -0.046890, -0.045933, 0.024270, -0.010181, -0.127502, -0.064724, -0.063459, -0.035793, 0.001479, 0.067798, 0.023059, 0.207290, 0.097572, -0.154232, -0.117082, -0.061221, 0.044771, 0.012161, -0.138347, -0.021278, -0.125582, 0.038037, 0.008410, 0.005755, 0.105130, -0.004315, -0.025091, -0.035167, -0.048176, -0.103450, -0.003308, 0.134816, -0.148479, -0.098708, -0.112818, 0.111421, -0.105424, 0.121620, -0.055049, -0.068726, 0.095539, -0.158248, 0.045422, 0.180133, -0.011561, 0.113413, -0.034070, -0.038811, -0.084295, -0.090898, 0.080432, -0.073579, -0.067650, -0.072083, 0.081832, 0.130896, 0.006342, -0.069604, -0.108142, -0.022483, 0.009967, 0.157397, 0.033807, 0.048819, -0.061603, 0.004591, 0.108640, 0.064711, 0.074186, 0.003133, -0.055248, 0.261682, 0.076695, 0.090548, 0.094749, -0.071416, 0.013824, -0.010448, -0.133820, -0.016103, -0.086534, -0.009782, 0.024601, -0.052780, 0.251467, 0.011546, -0.232631, 0.005483, 0.029788, -0.013957, -0.020317, 0.197587, 0.062120, -0.142078, -0.057065, 0.110774, 0.101862, 0.016665, -0.045617, 0.037814, -0.128799, 0.014984, 0.070450, 0.101179, 0.071535, 0.098667, 0.067626, -0.004872, -0.061835, 0.116423, 0.030858, 0.011505, 0.010465, -0.079375, -0.323859, 0.021629, -0.062780, 0.081159, -0.119974, 0.009529, -0.024494, 0.118211, 0.058293, 0.047186, 0.197992, 0.038134, -0.102675, -0.056218, 0.238198, -0.011006, 0.145444, -0.065091, -0.055607, 0.038508, -0.040252, -0.083977, -0.030362, -0.147019, 0.036822, 0.020548, 0.248781, 0.075970, 0.089535, 0.118733, 0.074419, -0.032842, 0.080363, 0.169271, 0.012927, -0.011230, 0.025744, -0.002813, 0.055792, 0.083407, -0.216238, -0.081898, -0.007787, 0.111627, 0.038766, 0.044779, -0.112501, -0.068345, 0.118924, 0.058795, 0.034318, -0.250923, -0.124975, -0.145475, 0.030945, 0.006612, 0.016854, -0.071879, 0.015601, 0.236675, -0.109928, -0.005131, -0.057301, -0.030015, -0.154005, -0.030166, -0.219695, 0.004422, 0.035451, 0.221051, 0.042498, -0.085989, 0.089461, -0.079019, 0.036856, -0.216163, -0.295122, 0.028261, 0.031035, 0.099351, 0.003836, 0.158576, -0.012866, -0.255522, 0.120938, -0.012426, 0.211215, 0.051936, -0.177604, -0.099051, 0.035995, -0.075984, 0.011063, 0.279808, -0.241789, -0.030668, 0.347359, -0.210284, 0.246125, -0.157502, -0.022145, -0.057542, 0.170912, -0.011933, -0.164995, -0.142724, 0.196643, -0.086989, -0.124410, -0.025412, 0.166214, -0.023964, -0.122172, 0.001886, 0.177445, -0.144037, 0.001941, 0.404537, 0.035000, -0.009391, -0.155360, 0.115423, -0.184374, -0.296293, -0.213920, -0.031929, -0.048368, 0.026736, -0.228794, 0.160732, 0.326920, -0.086494, -0.043842, 0.210454, 0.501488, 0.131942, 0.074662, -0.344635, 0.180909, 0.178260, 0.053209, 0.052131, -0.126849, 0.004887, 0.243221, 0.452451, 0.104914, 0.096202, 0.066262, -0.154571, -0.067143, -0.046198, 0.047711, 0.082124, 0.005814, -0.085995, -0.064226, 0.045011, 0.145593, -0.028649, -0.141512, 0.075491, -0.009654, 0.082856, 0.040951, 0.123588, 0.060699, 0.050646, -0.042130, -0.114641, 0.038514, 0.039922, 0.005028, -0.060159, 0.010262, 0.058156, 0.038063, 0.022421, 0.134474, 0.075987, -0.064195, -0.259043, -0.098521, 0.065168, -0.062062, 0.035030, 0.035573, 0.027255, -0.155239, 0.074468, -0.015234, 0.042653, 0.041252, -0.091255, -0.084438, 0.043677, -0.035634, 0.164426, 0.060471, -0.003667, 0.213323, 0.004847, -0.037064, -0.092887, 0.121914, -0.077758, -0.023606, 0.022124, 0.106937, 0.125185, -0.024654, 0.059068, -0.119556, -0.017090, 0.091474, 0.036873, 0.026474, 0.177688, 0.008034, 0.071271, -0.013785, 0.093283, -0.191631, 0.055224, 0.099446, -0.032051, 0.034793, 0.023615, 0.113310, -0.118614, 0.012275, -0.194918, -0.012320, -0.074013, -0.021597, 0.070228, 0.058287, -0.112394, 0.124311, 0.195006, 0.066610, 0.046086, -0.032932, -0.055494, 0.123822, 0.152279, -0.052386, 0.014867, 0.033685, 0.107845, -0.028843, -0.033478, -0.002726, 0.023996, -0.161125, -0.075161, -0.085471, -0.128950, 0.111652, 0.032891, 0.011433, -0.031289, -0.098722, -0.107074, 0.004503, -0.082431, -0.007165, 0.194853, -0.079250, 0.132400, -0.093339, -0.062340, 0.063916, 0.014309, -0.064528, -0.000369, 0.013430, 0.104601, 0.061163, -0.086362, 0.066512, 0.069916, -0.121233, 0.101517, 0.070239, -0.001581, -0.225581, 0.009859, -0.102411, -0.030816, 0.035367, 0.059776, 0.102063, -0.061483, 0.106956, -0.038167, 0.106284, 0.005915, 0.064354, -0.044129, -0.101975, 0.054517, 0.108408, -0.070498, -0.049631, -0.027200, 0.063100, -0.015369, -0.022302, 0.206356, 0.053663, -0.036101, -0.154908, -0.173833, 0.087095, 0.123703, -0.036919, -0.085251, -0.168934, 0.047382, -0.074047, 0.026955, 0.009718, 0.156477, 0.154140, 0.041859, 0.016048, 0.215385, 0.013267, -0.048209, -0.010698, 0.037999, 0.019033, 0.037294, 0.160347, 0.023001, -0.049431, 0.032626, 0.165320, 0.094205, 0.003011, -0.078748, -0.003755, 0.145853, -0.117243, 0.047700, 0.084971, 0.028547, -0.038939, -0.089579, 0.079845, -0.186807, 0.061025, 0.027560, -0.010934, 0.115374, 0.079399, -0.102870, -0.095123, -0.151240, 0.020314, 0.113052, -0.117641, 0.121826, -0.010609, 0.064236, 0.115256, 0.004620, 0.010341, -0.006670, -0.035104, 0.128049, 0.059786, -0.125966, -0.101416, -0.169693, -0.163241, 0.089007, -0.078677, 0.020938, -0.166711, -0.007550, -0.106679, 0.210459, -0.003078, -0.139837, 0.108442, 0.021907, -0.132968, -0.182243, 0.016153, 0.041138, 0.141964, -0.130699, -0.030787, 0.134472, 0.182998, -0.179486, -0.049762, 0.080314, 0.173157, 0.110858, 0.179108, 0.192538, 0.160041, 0.076443, 0.053434, -0.037750, 0.034207, 0.198112, 0.001910, -0.070608, -0.201383, -0.066200, -0.093610, 0.047609, -0.193645, 0.091014, -0.038166, -0.206327, 0.168379, 0.062211, 0.003837, 0.007889, 0.024186, -0.084537, 0.031735, 0.060944, -0.061044, -0.018523, 0.034173, 0.059858, 0.104866, 0.089703, -0.148083, 0.084672, 0.039358, 0.011361, -0.072170, 0.056003, 0.033153, 0.017337, -0.033615, -0.030752, 0.051626, -0.030779, 0.173155, -0.055943, -0.084405, -0.043687, 0.063211, 0.003291, 0.021239, -0.044226, -0.122835, -0.003514, -0.028118, -0.035748, 0.010171, 0.109008, -0.009888, 0.096919, -0.026792, -0.117709, -0.150507, 0.064171, 0.034784, 0.062936, 0.050102, -0.167550, -0.155867, 0.099999, -0.089420, 0.092470, -0.007791, -0.027712, -0.117221, -0.036935, -0.019807, 0.003613, 0.021268, 0.129573, 0.044414, 0.024329, 0.196473, -0.018865, 0.091597, -0.072647, -0.118350, 0.039598, -0.083050, -0.160869, -0.001359, 0.087450, 0.107003, 0.027896, 0.073345, 0.070937, 0.050363, 0.070074, 0.062447, 0.116954, -0.003673, 0.123669, 0.094358, -0.081557, -0.060787, -0.055971, 0.023925, -0.097548, -0.083156, 0.049032, -0.167471, 0.133053, 0.098246, -0.143473, -0.009034, 0.046425, 0.006873, 0.007543, -0.109445, -0.192916, 0.103505, -0.042102, 0.014204, 0.166493, 0.040552, -0.154478, 0.029132, 0.283023, -0.081653, 0.014610, 0.036645, -0.014988, -0.007581, 0.004498, -0.078286, 0.023454, 0.147944, 0.158706, 0.114201, -0.141707, 0.019303, 0.078126, -0.080404, 0.019833, -0.178451, 0.102037, -0.099511, -0.071943, 0.006007, -0.136685, -0.058614, 0.026841, -0.001957, -0.057087, 0.078346, -0.105586, -0.039022, 0.084409, -0.014756, 0.107447, -0.047506, -0.193234, -0.086769, -0.047339, -0.149690, -0.141040, 0.110846, -0.150813, -0.045884, 0.075326, -0.012857, 0.071884, 0.040585, 0.136469, 0.159689, -0.101844, -0.082018, 0.013182, 0.065751, 0.041386, -0.110361, -0.086391, -0.189652, -0.137382, -0.102826, -0.104461, 0.007005, 0.018930, -0.061272, -0.156025, -0.175607, 0.010227, 0.110900, 0.248110, 0.065963, 0.106309, -0.161908, 0.136654, 0.050612, 0.023842, 0.005733, -0.148772, 0.155247, -0.066679, -0.099045, 0.053945, 0.157747, -0.085556, -0.055782, 0.020178, 0.033677, 0.049096, 0.202889, -0.054938, 0.030776, 0.029151, 0.032592, -0.024953, -0.024106, 0.060655, 0.004575, 0.118506, 0.014462, -0.061722, -0.060365, 0.035675, 0.026790, 0.086352, -0.011069, 0.034662, 0.129919, 0.129144, 0.081700, -0.116574, 0.118599, 0.133226, 0.018660, -0.001473, 0.139516, 0.117174, 0.027065, -0.066967, -0.046650, -0.036911, 0.002616, 0.050429, 0.112584, 0.118352, -0.070661, -0.234961, -0.024775, -0.020840, -0.048719, 0.024315, -0.008005, -0.017165, -0.219563, -0.074051, 0.002484, 0.050510, 0.054294, -0.027618, 0.053504, 0.016141, -0.070538, 0.012846, -0.072314, 0.173409, 0.084921, 0.010346, -0.049465, -0.051566, 0.059943, 0.042975, -0.031552, -0.088723, -0.001770, -0.134605, 0.150792, 0.004414, 0.054335, 0.022548, -0.003943, -0.155067, -0.124415, 0.085805, 0.093370, -0.017730, -0.048036, 0.040405, -0.121913, 0.145232, 0.080824, -0.038716, -0.049964, -0.099600, 0.051553, 0.048025, -0.027858, -0.054533, -0.100030, 0.050528, -0.013015, -0.077133, 0.090641, -0.005333, 0.091157, 0.239235, 0.023128, 0.075426, -0.072889, 0.057468, 0.050943, 0.132731, 0.001478, 0.013118, 0.074890, 0.044111, 0.032737, 0.073769, 0.093364, 0.100275, -0.038492, 0.014694, -0.025084, -0.053991, -0.008592, 0.035691, -0.000035, -0.001706, -0.067079, 0.007874, 0.121609, 0.015798, -0.119240, 0.089533, -0.050405, 0.003946, 0.088658, 0.084840, 0.004252, 0.162416, -0.063182, 0.224377, -0.074281, 0.058723, 0.013208, 0.007996, -0.013331, -0.049466, -0.371367, 0.026519, -0.113304, 0.119310, -0.104269, -0.072848, -0.041143, 0.035721, -0.019922, 0.035203, 0.180171, 0.025600, 0.012578, -0.075009, 0.055565, -0.029534, 0.092640, 0.065984, -0.080961, 0.078584, 0.026627, -0.033876, -0.077594, -0.023020, 0.024264, -0.126420, 0.156119, 0.024928, 0.086574, 0.024647, 0.003283, 0.015907, 0.076117, 0.029167, -0.031732, -0.151055, -0.153413, 0.009820, -0.108409, -0.025446, -0.054035, -0.055953, -0.063433, -0.014081, -0.018731, -0.010435, 0.018558, 0.025001, 0.101361, -0.076167, -0.021842, -0.193312, -0.083544, 0.106702, -0.208858, -0.293790, -0.189563, 0.070928, 0.020790, 0.378202, 0.018967, -0.035018, -0.043210, 0.177127, 0.002553, 0.156746, -0.038268, 0.055989, 0.432161, 0.452303, 0.082617, -0.118334, 0.098826, 0.049813, -0.082895, -0.176297, -0.226602, -0.019968, 0.076894, -0.050871, 0.018687, -0.032583, -0.020869, 0.035383, 0.062628, -0.253789, 0.071600, 0.061372, -0.006927, -0.075838, -0.012726, 0.042102, 0.043590, 0.041355, -0.178599, 0.168228, 0.349853, -0.405197, 0.158077, 0.070825, 0.069284, -0.017901, -0.077976, 0.082591, 0.010820, -0.197539, 0.296986, 0.041430, -0.064979, -0.139674, 0.230128, 0.016341, -0.155481, 0.076739, 0.264256, -0.157424, 0.147346, -0.134961, -0.030367, -0.039482, -0.025689, 0.005104, -0.020051, -0.222496, -0.155075, 0.058045, -0.210974, -0.073854, -0.206468, 0.034779, 0.481622, 0.063318, 0.062539, 0.037745, 0.514120, 0.007197, -0.042713, -0.084735, 0.285192, -0.057330, 0.084315, 0.057437, -0.036234, -0.001404, 0.271404, -0.071404, -0.062122, 0.011785, 0.112487, -0.021266, -0.090525, -0.026616, -0.083489, 0.303308, -0.048492, -0.074170, 0.084493, 0.063149, -0.042120, -0.040249, -0.054373, 0.091138, 0.145681, 0.130592, 0.165575, 0.041641, -0.015256, 0.044142, 0.072082, -0.079800, -0.002429, 0.003015, 0.029139, 0.048530, 0.146256, -0.104789, -0.005321, -0.012095, 0.091083, 0.077847, 0.041844, -0.014437, -0.114665, 0.125987, 0.024396, -0.013530, -0.006820, 0.015474, -0.019360, 0.077648, 0.140361, -0.153680, 0.167904, 0.018506, 0.015266, -0.168230, 0.062731, 0.214603, 0.094477, 0.010162, 0.104574, 0.092232, 0.077296, -0.089874, 0.043545, 0.020892, -0.025067, -0.061473, -0.039469, -0.142487, -0.070423, 0.002607, 0.032858, -0.058371, -0.040774, -0.002033, -0.138257, 0.126992, -0.025804, 0.135633, 0.098562, -0.040158, -0.159946, 0.015950, 0.165066, 0.083745, -0.001822, 0.031850, 0.072677, -0.000980, -0.064209, 0.070820, 0.007573, 0.112797, -0.026349, 0.049418, -0.032260, -0.001266, 0.017981, -0.054570, -0.127307, -0.067100, -0.081784, -0.272680, -0.066379, 0.132722, 0.154233, -0.045230, -0.093120, 0.142801, -0.126257, -0.109757, -0.103682, 0.002439, -0.029252, -0.104794, -0.130777, 0.034333, -0.149830, 0.026714, -0.001389, -0.112061, -0.125841, -0.252403, -0.064147, -0.200717, 0.184678, 0.143700, 0.126911, 0.073174, 0.041836, -0.118773, 0.086360, -0.110175, 0.011193, 0.279015, -0.218067, -0.018124, -0.109429, -0.075987, -0.008850, 0.306843, -0.124980, 0.050488, 0.266485, -0.096931, -0.070524, -0.083444, -0.002088, -0.054756, 0.088668, 0.069281, -0.042530, -0.271305, 0.173262, -0.179484, 0.056874, 0.174615, 0.019330, 0.011451, -0.005681, -0.167081, 0.052596, 0.058092, 0.112737, -0.029484, -0.063395, 0.072938, -0.107187, 0.135938, 0.025522, -0.073967, 0.006097, -0.269678, 0.040811, -0.220054, -0.022404, 0.084564, -0.054528, 0.005884, 0.063475, 0.236635, 0.145680, 0.220500, 0.098724, -0.030997, -0.121317, 0.172761, 0.158064, 0.026072, -0.036361, -0.092132, 0.120889, 0.208403, -0.055382, -0.026659, -0.058879, -0.066435, 0.156287, 0.034676, 0.031107, 0.104245, 0.040719, 0.001246, 0.007716, -0.207089, 0.124641, -0.064481, -0.095155, 0.055707, -0.260093, 0.035816, 0.146823, -0.070277, -0.079593, -0.053587, 0.066328, -0.110877, -0.179477, -0.029047, -0.034938, 0.174261, 0.140834, 0.052820, 0.059487, 0.091244, 0.024428, 0.045043, -0.068823, 0.077580, -0.105932, -0.034219, 0.071488, 0.009754, -0.035922, -0.110059, -0.054441, 0.118771, 0.035301, 0.180208, -0.001303, -0.029484, -0.114100, -0.059230, 0.021739, 0.191575, -0.005487, 0.062198, 0.172610, -0.193655, 0.133630, 0.001490, 0.102604, -0.090542, -0.154917, 0.125990, 0.000937, -0.118271, -0.040266, 0.206070, 0.115317, 0.107667, 0.103208, 0.026977, -0.071101, 0.027213, 0.186166, -0.092474, 0.040805, 0.006840, 0.052782, 0.081205, -0.182758, 0.014387, 0.083489, 0.216628, 0.031838, -0.012097, 0.148898, -0.142808, -0.112287, 0.003400, 0.039396, 0.068827, 0.080676, -0.017128, 0.096525, 0.158058, -0.004355, -0.049066, -0.132823, -0.127029, -0.033104, 0.140403, 0.033439, 0.024518, 0.084674, -0.088080, -0.148488, 0.104542, 0.034929, 0.019966, -0.106004, -0.053471, 0.013532, -0.025510, -0.027669, -0.063937, -0.010885, 0.021961, 0.068994, 0.109450, -0.006077, 0.092093, -0.029998, 0.163227, 0.003542, -0.045315, 0.038048, 0.087219, 0.158649, 0.164075, -0.145166, 0.185961, -0.038882, 0.024786, -0.070467, 0.069145, -0.105912, -0.029402, -0.154236, 0.036732, -0.049966, 0.110810, -0.085898, -0.114512, 0.020653, -0.044189, 0.044525, 0.059556, 0.142539, 0.115893, 0.003108, -0.096424, 0.164552, 0.077457, -0.110078, -0.088845, -0.181316, 0.132566, -0.114854, -0.129374, -0.078057, 0.013397, 0.054507, 0.013532, 0.148961, 0.225948, 0.016217, 0.149651, 0.025392, 0.045473, -0.119389, 0.095285, 0.004260, -0.095455, -0.098131, -0.164157, 0.056193, -0.005171, -0.118371, 0.076697, -0.133832, 0.039279, 0.096082, -0.054834, -0.088253, -0.010935, 0.022482, -0.091309, -0.171356, -0.283754, 0.102126, 0.015282, 0.037136, -0.087886, -0.056192, 0.114155, -0.003142, 0.075529, -0.022536, 0.079773, 0.016202, 0.046571, 0.100950, 0.138977, 0.090519, -0.002196, 0.290741, 0.179176, 0.003363, -0.017111, 0.022038, 0.081440, -0.099118, 0.135557, -0.148895, 0.118985, -0.238575, -0.154694, 0.068706, -0.143525, -0.064003, 0.179789, -0.054113, 0.055634, 0.037915, 0.161139, -0.154183, 0.139429, -0.045792, 0.027784, -0.013874, -0.042691, -0.214747, 0.029625, -0.044006, -0.002081, -0.015745, -0.079227, -0.013608, -0.154599, 0.080082, -0.051073, 0.123188, 0.127146, -0.077977, -0.022093, 0.108016, 0.148110, 0.030734, 0.139712, -0.027483, 0.014587, -0.114734, -0.329655, -0.018523, -0.109978, 0.076829, -0.331178, 0.134370, -0.040846, -0.047476, 0.037525, -0.017127, 0.060714, -0.093835, 0.051992, -0.170216, 0.033468, 0.151268, -0.087951, -0.044408, 0.021841, 0.003476, -0.213771, -0.049142, -0.027384, 0.263186, -0.255777, -0.071394, -0.031559, -0.126638, 0.055163, 0.165752, -0.329802, 0.070313, 0.013518, 0.096011, 0.112803, -0.128201, 0.070346, -0.058345, 0.170862, -0.016209, -0.059967, -0.057288, 0.097656, -0.158335, -0.013470, -0.136338, -0.027856, -0.026651, 0.080174, 0.041203, -0.069777, 0.095657, 0.140701, 0.072944, -0.070863, -0.115477, -0.036561, 0.022726, -0.088298, -0.080106, 0.081763, -0.058819, -0.048702, 0.083822, 0.131132, -0.060145, 0.015312, -0.103317, -0.009742, -0.025772, -0.056796, 0.092913, 0.034213, -0.148219, -0.054490, 0.177175, -0.041530, 0.091930, -0.119781, -0.101047, -0.150572, -0.004909, 0.158573, -0.026235, 0.067083, 0.124382, -0.090991, -0.075769, 0.012950, -0.018447, 0.023623, -0.023339, -0.054415, 0.095654, -0.007431, -0.038813, 0.044767, -0.071632, 0.115293, -0.051208, -0.126697, -0.108854, -0.003219, 0.014152, 0.060261, 0.042293, 0.078634, -0.182986, 0.113371, 0.004684, 0.045150, 0.024068, -0.045676, 0.026088, -0.027873, -0.043398, 0.036446, 0.030466, 0.189866, -0.015458, -0.090344, -0.109975, 0.023627, -0.029561, 0.068562, -0.064229, 0.002005, 0.049064, -0.213955, -0.086051, 0.071803, -0.118454, 0.000028, -0.026297, 0.023179, -0.122887, 0.048688, -0.100933, -0.096282, -0.169657, 0.031110, -0.083789, 0.000536, -0.080374, 0.070904, -0.098812, -0.120392, -0.012902, 0.011787, 0.069807, 0.063727, 0.055060, 0.020659, 0.172802, -0.095133, -0.052602, 0.078354, -0.016097, 0.032181, -0.036338, 0.211355, -0.120050, -0.042918, 0.081516, -0.088745, -0.047905, -0.027689, -0.282311, 0.140584, -0.175845, 0.028161, -0.001759, -0.065329, 0.054958, -0.006307, -0.057071, 0.079563, 0.152970, 0.008702, -0.092700, -0.104391, 0.043192, 0.049535, -0.123558, 0.120479, 0.024905, 0.066746, -0.138128, -0.120603, -0.019777, -0.127335, -0.068230, -0.133504, -0.037729, 0.117032, 0.039540, 0.028172, -0.032104, -0.038076, -0.041483, -0.053627, 0.077276, -0.125025, -0.080215, -0.029842, -0.086273, -0.063258, -0.143759, 0.029795, -0.070894, 0.098902, 0.121725, 0.081574, -0.047548, -0.069316, -0.035844, 0.024462, -0.019654, -0.311985, -0.049068, 0.128703, -0.193676, -0.048474, -0.195227, 0.236443, -0.052490, 0.178849, -0.047727, -0.016562, 0.031457, -0.039046, -0.080623, -0.063208, 0.052497, -0.098875, 0.285854, 0.219750, -0.147916, -0.027923, -0.108689, 0.246351, 0.035055, -0.123749, -0.123098, 0.078499, 0.039196, -0.123219, 0.106846, 0.039608, -0.008132, 0.007574, 0.072182, -0.083414, -0.105813, 0.200173, -0.151432, 0.159808, -0.087723, -0.082381, 0.013356, 0.097363, -0.300470, 0.042786, 0.182096, -0.342369, -0.001507, -0.040628, -0.072427, -0.051088, 0.082676, 0.121489, -0.061866, -0.076056, -0.042172, 0.079296, -0.074207, -0.110921, 0.115513, 0.005941, -0.038852, 0.011673, 0.176014, -0.245116, 0.062387, 0.018700, -0.057374, -0.041730, -0.049201, -0.173124, -0.022396, 0.063287, 0.005150, 0.157115, -0.035301, 0.103032, -0.147905, -0.011998, 0.406758, 0.054100, 0.026190, -0.056277, 0.281175, -0.048741, 0.074634, 0.039827, 0.216602, -0.108614, -0.068706, -0.084238, -0.198257, 0.027355, 0.066363, -0.219123, -0.004044, -0.049693, 0.071063, -0.068476, -0.140707, 0.014514, 0.135409, 0.085909, 0.065609, 0.091741, -0.003796, 0.021015, -0.074853, -0.148707, -0.095469, -0.029433, 0.150801, 0.150775, 0.039746, -0.014725, -0.062389, 0.091512, -0.112366, -0.018816, -0.042551, -0.045277, 0.038340, -0.065681, -0.041301, -0.106415, 0.075578, 0.029822, 0.217645, 0.026487, -0.129904, 0.089444, -0.071458, -0.075159, -0.087274, 0.103093, -0.102371, 0.146287, -0.004073, 0.059889, 0.120807, -0.095179, -0.077979, -0.118114, 0.071764, -0.178783, 0.022389, -0.044117, 0.139822, -0.050014, 0.095733, -0.018434, 0.028907, -0.021996, -0.143017, 0.076853, 0.058864, 0.063841, -0.102014, -0.320166, 0.097183, -0.030978, 0.044527, -0.099214, 0.008297, 0.046850, -0.103005, -0.081717, 0.000048, 0.190370, -0.020408, 0.004621, -0.154364, 0.008348, 0.233820, 0.090851, -0.016295, -0.055420, 0.200673, -0.023355, 0.038541, 0.040963, -0.031173, -0.017787, 0.073531, -0.075987, 0.000835, -0.098207, 0.086982, -0.171710, -0.537634, -0.100067, 0.048895, -0.277275, -0.242611, 0.060379, 0.089094, 0.043846, 0.003952, 0.043532, -0.113057, -0.084242, -0.275585, -0.090559, 0.030740, 0.003875, -0.065468, 0.128160, -0.134524, 0.051040, 0.040082, -0.181798, 0.064982, -0.118572, 0.016578, -0.027010, 0.300062, 0.004067, 0.189464, 0.098558, 0.082823, -0.172364, -0.105600, -0.078889, -0.121190, 0.053131, -0.179283, -0.226617, -0.070328, -0.057283, 0.118285, 0.283252, -0.084902, 0.211091, 0.355183, -0.021020, -0.052780, -0.182689, 0.047958, -0.081860, 0.074731, 0.254328, -0.100761, -0.092420, -0.011489, -0.032241, -0.034890, -0.009975, -0.127746, 0.044646, 0.221909, 0.136545, 0.012318, 0.049924, 0.098363, -0.133449, -0.124156, 0.054137, -0.277710, 0.073216, -0.076649, -0.128871, -0.146206, -0.295827, -0.036438, -0.138429, 0.084460, 0.005821, 0.020450, 0.208868, 0.040263, 0.206195, 0.296468, 0.413430, 0.055539, 0.120206, -0.185892, 0.205534, -0.042144, 0.012072, -0.100218, -0.087246, -0.021462, 0.240048, -0.188904, -0.147320, -0.058815, -0.006722, 0.116868, -0.016004, 0.213485, -0.004848, 0.086512, -0.006901, -0.092203, -0.084221, 0.021060, -0.227645, 0.062975, 0.014914, 0.088440, 0.036074, -0.076090, -0.108155, 0.014265, 0.109788, -0.065424, -0.052967, -0.061130, -0.110047, 0.188806, -0.077312, 0.046539, 0.038113, -0.089683, -0.131646, 0.125431, 0.133854, 0.001119, 0.065585, -0.086922, 0.042972, 0.044254, 0.051235, -0.051338, 0.064075, 0.007612, 0.179253, 0.080252, 0.089208, 0.132444, -0.151069, 0.040444, -0.188750, -0.037356, 0.140494, -0.061667, -0.058651, 0.120594, -0.216201, 0.116464, 0.154391, -0.077730, 0.098878, -0.025145, -0.010590, -0.148406, -0.237784, 0.231184, -0.001181, -0.060879, -0.084344, -0.029316, 0.106176, -0.093889, -0.129168, 0.219677, -0.034252, -0.176326, 0.026123, -0.172954, 0.181280, 0.186214, 0.047760, -0.061408, 0.011305, 0.092649, 0.012819, 0.166681, -0.005701, -0.024767, 0.131352, 0.022630, -0.017948, -0.059655, 0.081412, 0.140566, -0.167904, -0.199567, 0.051525, 0.006664, -0.382562, -0.019689, 0.034508, 0.093574, 0.015662, -0.100662, 0.038045, -0.024830, -0.103964, 0.045871, -0.049695, 0.006189, 0.069132, -0.102647, 0.068053, 0.018058, -0.126134, 0.057630, -0.022664, -0.006615, 0.099007, -0.086818, -0.105701, 0.080228, 0.054225, 0.104199, -0.024365, 0.053552, 0.053947, 0.008275, 0.085846, -0.110859, 0.225210, -0.061358, -0.066536, -0.097930, 0.061558, -0.082603, 0.012855, -0.174801, 0.065398, -0.023401, 0.112036, -0.025870, -0.152572, 0.038835, 0.026587, 0.061219, -0.074248, 0.118152, 0.011799, -0.036044, -0.129948, 0.181969, -0.032017, -0.060053, 0.053133, -0.075002, 0.237182, -0.217257, -0.130134, -0.057434, -0.182708, 0.050862, -0.193308, 0.162887, 0.155475, 0.056748, 0.067726, 0.042826, -0.031234, -0.114702, -0.078499, -0.148381, -0.137443, -0.080198, 0.045144, 0.000039, 0.142671, -0.002804, -0.062850, -0.151111, 0.032899, 0.114035, -0.145634, 0.113710, 0.043318, -0.062499, 0.079690, -0.018450, -0.345441, -0.003648, 0.129270, 0.028671, -0.367947, 0.008080, 0.104155, -0.025781, 0.065273, 0.003846, 0.133717, -0.071425, 0.070860, 0.178006, 0.122646, 0.116345, 0.002998, 0.084672, -0.018668, 0.076117, -0.022059, -0.097886, 0.075335, -0.123322, 0.161965, -0.209134, 0.063275, -0.113802, -0.032726, -0.060787, -0.216931, 0.018360, 0.027800, 0.063961, 0.201965, -0.074757, 0.288683, -0.099626, -0.040238, 0.007198, -0.009738, 0.035992, -0.092180, -0.272356, -0.007216, -0.211428, -0.027507, -0.010453, 0.049104, -0.091127, -0.038182, -0.101995, -0.068642, 0.300511, 0.193148, 0.067541, 0.053942, 0.041659, 0.022045, -0.179085, -0.054234, -0.040051, 0.075669, 0.007144, -0.041212, -0.383072, 0.106193, -0.077034, -0.359834, 0.003522, -0.044181, 0.121785, 0.093905, 0.066883, 0.287083, -0.130781, -0.147429, -0.175278, 0.015388, -0.004775, -0.077537, 0.052027, -0.038086, 0.110055, -0.334045, -0.252791, -0.039642, 0.211779, -0.303189, 0.053948, 0.048191, 0.014588, -0.105583, 0.195015, -0.390926, -0.048576, -0.156973, -0.037114, -0.092549, -0.012513, -0.054084, 0.119187, 0.138305, 0.069371, 0.073831, 0.007339, -0.061164, 0.016597, -0.146125, -0.060674, -0.073213, 0.136228, 0.015889, 0.038517, -0.161806, -0.095118, -0.029790, 0.030895, -0.101710, -0.171148, 0.067629, -0.078847, -0.071658, 0.125431, 0.084608, -0.075089, -0.167123, 0.161943, 0.150877, -0.056527, 0.162859, -0.183312, -0.008967, -0.060137, 0.052645, -0.072310, -0.045235, -0.065964, 0.012766, 0.109033, -0.012705, 0.076961, -0.070698, -0.027552, -0.065640, 0.040167, -0.048834, -0.039656, 0.065477, 0.087296, -0.010547, -0.038573, 0.112859, -0.041035, 0.087652, 0.086352, -0.154688, -0.145074, -0.288082, -0.001095, -0.100493, 0.013236, -0.231536, 0.003763, 0.038027, -0.147951, 0.014008, 0.002549, 0.119632, -0.139434, -0.115402, -0.151294, 0.066102, 0.227813, 0.038337, -0.093486, -0.025349, 0.071640, 0.005538, -0.037269, 0.104319, -0.081233, 0.051486, 0.001741, -0.072653, -0.018441, -0.104788, 0.155022, -0.207690, -0.120197, 0.018066, 0.017888, -0.300762, 0.039856, -0.004384, 0.013249, 0.072378, -0.014717, 0.103564, -0.215302, 0.067504, -0.026986, -0.089692, -0.004300, 0.047669, -0.069528, 0.095439, -0.093460, 0.015446, -0.070208, -0.047933, 0.025672, 0.036517, 0.035159, 0.032950, 0.139531, -0.009572, 0.056442, 0.002138, 0.061699, -0.060482, 0.038851, -0.010811, -0.223631, 0.135403, -0.143202, 0.033491, -0.046146, -0.176182, 0.092098, 0.061627, -0.173343, 0.061136, 0.011793, 0.066298, -0.129001, -0.009666, -0.050926, 0.008654, 0.058863, -0.087704, 0.155486, -0.078524, -0.074580, 0.081228, 0.136468, -0.014777, -0.093613, -0.097183, -0.022282, 0.109896, -0.047625, 0.052744, -0.018212, 0.007588, -0.063066, -0.261293, -0.102000, 0.277446, 0.194635, 0.007410, -0.138724, -0.060774, -0.098189, -0.117227, 0.108737, -0.215027, -0.090509, 0.002422, -0.011289, 0.007169, -0.108951, 0.064257, -0.111271, 0.113797, -0.019301, -0.052242, -0.003481, 0.005205, -0.084053, 0.003961, -0.084099, -0.063779, -0.128505, 0.176954, -0.018504, -0.414366, -0.125368, 0.142291, -0.112747, -0.041738, -0.097516, 0.024113, -0.000983, 0.112868, -0.023802, -0.055346, -0.128269, 0.045881, 0.076052, -0.029835, -0.031249, -0.012856, 0.039527, -0.132449, -0.019183, 0.130899, -0.316502, 0.044488, 0.013207, -0.133987, 0.106647, -0.038650, 0.049903, -0.057344, 0.181358, 0.097204, -0.013087, 0.186675, -0.087975, 0.059972, 0.017363, -0.183737, 0.015984, 0.103042, -0.281076, 0.062252, -0.210457, -0.071704, -0.169508, -0.132727, 0.083406, -0.140235, 0.086949, -0.058090, 0.194623, 0.038847, 0.021016, -0.022518, 0.098800, -0.024326, -0.049490, 0.302712, -0.068114, 0.120639, -0.034042, -0.159707, -0.096991, 0.062450, -0.007385, -0.075963, 0.054208, 0.180810, 0.071198, -0.067145, 0.185954, -0.023891, -0.069415, -0.141150, -0.120369, -0.201018, 0.068331, -0.114584, 0.017156, -0.195763, 0.098989, -0.050131, -0.219830, -0.004962, -0.077304, -0.225711, 0.076740, -0.029395, -0.266262, 0.030178, 0.011570, -0.009842, -0.151770, 0.085955, -0.019299, -0.194263, -0.122658, 0.089841, 0.021429, 0.178579, 0.014914, 0.150612, -0.125871, -0.142471, -0.060640, -0.186998, -0.051550, -0.061321, 0.021348, 0.043833, 0.118803, -0.011776, 0.059670, 0.180097, -0.123461, 0.059228, -0.006682, 0.079317, 0.066192, -0.105411, 0.001080, -0.029755, -0.014949, -0.098175, 0.289867, 0.057691, -0.104758, -0.015113, -0.183876, -0.065229, 0.062978, -0.035196, 0.032300, 0.136956, -0.103062, 0.072732, 0.126797, -0.006481, -0.037485, -0.039451, 0.045259, -0.111485, -0.068310, -0.006027, 0.119054, 0.177695, 0.011643, -0.125958, 0.064223, 0.085210, -0.032781, -0.181187, -0.014887, -0.048927, -0.065908, 0.077104, 0.027256, 0.016074, 0.011189, -0.038607, -0.149862, -0.063495, 0.069186, 0.016486, -0.108788, 0.160152, -0.123739, -0.055211, -0.030383, 0.095957, 0.092407, 0.086776, 0.010826, 0.109536, 0.043520, 0.023855, 0.074657, 0.090702, -0.060066, -0.106811, -0.229025, 0.014622, -0.136366, -0.016779, 0.102394, 0.064951, -0.441719, -0.183296, -0.067665, 0.006985, -0.234072, 0.004900, 0.124803, 0.108000, 0.029387, 0.067251, -0.024238, -0.194284, -0.083178, -0.096006, -0.251136, 0.035891, -0.300095, 0.194752, -0.116229, 0.086982, -0.030186, -0.088122, 0.017318, -0.092973, 0.112072, 0.024198, 0.245214, 0.119683, 0.265687, 0.048914, -0.038557, -0.153112, 0.027737, 0.021407, -0.041397, 0.022941, -0.053131, -0.125409, -0.091657, -0.129676, 0.201204, 0.391685, -0.273624, 0.089747, 0.110517, -0.165364, 0.045096, -0.059285, 0.005611, -0.147158, -0.075661, -0.076696, -0.254442, -0.099898, 0.235678, -0.091679, 0.102028, 0.065471, 0.066581, -0.036115, 0.157509, -0.006197, 0.102234, 0.115363, 0.045511, 0.224292, -0.062703, -0.241101, -0.217579, 0.230410, 0.002674, -0.067321, -0.042100, -0.310764, 0.133541, -0.164802, 0.131065, -0.015299, 0.082597, 0.212132, 0.032530, 0.185719, 0.421966, 0.417502, -0.011573, 0.074100, -0.044969, 0.303852, -0.054352, -0.135254, -0.299176, 0.048523, -0.030567, 0.168541, -0.190135, -0.030758, -0.109662, -0.368035, 0.090256, 0.013535, 0.289784, 0.012817, -0.093660, 0.007721, -0.208996, 0.034527, 0.016678, -0.230541, 0.052045, -0.038774, -0.036312, 0.214231, -0.116658, -0.220252, 0.016385, 0.142291, -0.054522, 0.031253, -0.004705, 0.007907, 0.262306, 0.056159, 0.225404, 0.001874, -0.048658, -0.113384, 0.030819, 0.049055, -0.249708, 0.041899, -0.228494, -0.018347, 0.061936, 0.235751, -0.160890, 0.175552, 0.040770, 0.182260, 0.132635, 0.137391, 0.093555, -0.061308, 0.019122, -0.020994, -0.033332, 0.053804, -0.029859, 0.092822, 0.160042, -0.303350, -0.055874, 0.067663, -0.202418, -0.101349, -0.052354, 0.037994, -0.134326, -0.191249, 0.151633, -0.025846, -0.064011, -0.246432, -0.003338, 0.194893, -0.011717, -0.041699, 0.004227, -0.000523, -0.165163, -0.127454, -0.167442, 0.244226, 0.112483, 0.075171, -0.101381, 0.105458, -0.056709, 0.182683, 0.116166, -0.063627, -0.199130, 0.037348, -0.054010, 0.070150, -0.084038, -0.077806, 0.015015, -0.099026, -0.221115, 0.100654, -0.074461, -0.343769, -0.032490, 0.006008, 0.067704, 0.002177, 0.084015, 0.120708, -0.220670, -0.131315, 0.229062, 0.073731, -0.053267, -0.014056, -0.142564, 0.086171, -0.079875, -0.003796, -0.070097, 0.075258, 0.039865, 0.262115, 0.074904, 0.056110, 0.078839, 0.087518, 0.101991, -0.119025, 0.022818, -0.054562, 0.071426, 0.045314, -0.275713, 0.092858, -0.196177, 0.019309, 0.069298, -0.068407, 0.098765, 0.040411, -0.202615, 0.144057, 0.003908, 0.172975, -0.013421, 0.032315, 0.029650, -0.071864, -0.108216, -0.064673, 0.232840, 0.056656, -0.036243, 0.051748, 0.145115, 0.032108, -0.062920, -0.067632, -0.033234, 0.111626, -0.051736, -0.048989, -0.018436, -0.008059, 0.040008, -0.175758, -0.033112, 0.112252, 0.003416, 0.040785, 0.165407, 0.037588, -0.092206, -0.236597, -0.224675, -0.022128, -0.010615, 0.135755, 0.062343, 0.168531, -0.013853, 0.008276, -0.013100, -0.055626, -0.041539, -0.012607, 0.010063, 0.050534, -0.019191, -0.040385, -0.140071, -0.281189, 0.000311, 0.057661, 0.070771, -0.318917, -0.264639, -0.060137, -0.029473, 0.121477, 0.038113, -0.143382, -0.093777, -0.085161, 0.363967, 0.152549, -0.145179, 0.013083, 0.119590, 0.062501, -0.020107, -0.091464, -0.024412, 0.191225, 0.012265, 0.113042, 0.090848, 0.221672, -0.004108, 0.067232, -0.097288, 0.025061, -0.033683, 0.060252, 0.092339, -0.103810, -0.088864, 0.092621, -0.094313, 0.128457, -0.049861, 0.003153, -0.124108, -0.037427, -0.097097, -0.010746, -0.156785, 0.056315, -0.127308, -0.049655, -0.090903, 0.113080, -0.195408, -0.146960, 0.123454, 0.087533, 0.155995, -0.123462, 0.061273, -0.171974, -0.041395, -0.110361, -0.057611, 0.172105, -0.148844, -0.128504, -0.098465, 0.051281, 0.092858, -0.099861, 0.167880, 0.166317, 0.083614, -0.047646, 0.063376, 0.194479, -0.081809, 0.069094, -0.283565, 0.014485, 0.130726, 0.096487, -0.011680, 0.060653, -0.028090, -0.230496, 0.011396, -0.105102, 0.070608, -0.129565, -0.009734, -0.036550, 0.010496, -0.040198, 0.142668, -0.242827, -0.144267, 0.079084, 0.014660, -0.377661, -0.003228, 0.042954, 0.110571, 0.027662, -0.025390, 0.164005, -0.066591, 0.086515, 0.101811, -0.105686, -0.006124, 0.089458, 0.218361, 0.003932, -0.101631, -0.080375, 0.030230, 0.124714, -0.107409, 0.132982, -0.051099, -0.023877, -0.028563, -0.005172, 0.070898, -0.188555, 0.045127, 0.047012, 0.037686, 0.018664, -0.108615, 0.140123, -0.139462, 0.020293, 0.044445, -0.015738, -0.140210, -0.072675, -0.136313, 0.217366, -0.072741, 0.035792, 0.062254, 0.051325, -0.084683, -0.049504, -0.143100, -0.005951, 0.166521, 0.072807, 0.023900, -0.184964, 0.098190, 0.067475, -0.127010, 0.050024, -0.015744, 0.145885, -0.051994, -0.098842, -0.124681, -0.156010, -0.056901, -0.176067, -0.118630, 0.127216, 0.062017, 0.042575, 0.060758, 0.107153, -0.130971, -0.158771, -0.276185, 0.053864, 0.094343, 0.016523, 0.066857, -0.073531, 0.090442, -0.180911, 0.052186, 0.061855, -0.033319, 0.053784, 0.044202, 0.014787, -0.012322, 0.052000, 0.041297, -0.097057, -0.151003, -0.054318, -0.019674, -0.015577, -0.147425, -0.035050, 0.071828, 0.134650, -0.053990, -0.019913, 0.042235, 0.045693, 0.138659, 0.056965, -0.070139, -0.055046, -0.103608, 0.080613, -0.113340, -0.088246, -0.065351, -0.125502, -0.029920, 0.102001, 0.120488, 0.183681, 0.101206, -0.086718, 0.082432, 0.003514, -0.009239, -0.038708, 0.153738, 0.160637, 0.048542, 0.091347, 0.006471, -0.003087, -0.069833, -0.092861, 0.178645, 0.104402, -0.122488, -0.052810, 0.014877, -0.048748, -0.069945, -0.079542, -0.022220, 0.075152, -0.065828, -0.214618, 0.027652, -0.027536, 0.036050, 0.019447, 0.181065, 0.161881, -0.032504, -0.042474, 0.036474, 0.016684, 0.094344, -0.069057, -0.059108, 0.154187, -0.066218, -0.126287, 0.110922, 0.071050, 0.073102, -0.022031, -0.110614, 0.083356, 0.072263, -0.129478, -0.010965, -0.222456, 0.070981, 0.083382, 0.012204, 0.051894, 0.160992, -0.073263, -0.001133, 0.153009, 0.002738, 0.098879, 0.074916, 0.040411, -0.078454, 0.073461, -0.117128, -0.126856, -0.263986, 0.140987, -0.102536, -0.213338, -0.157311, -0.031477, -0.080736, -0.049195, -0.015077, 0.172013, -0.175998, -0.011001, -0.078678, -0.027491, 0.075227, 0.084845, 0.003228, -0.097336, 0.097492, 0.052008, 0.008875, 0.001469, 0.008622, -0.066266, -0.029350, 0.114193, -0.011831, 0.112998, -0.051479, -0.059917, 0.046875, 0.031529, 0.309244, -0.070398, -0.138747, 0.144152, -0.070722, -0.123940, -0.025622, -0.167713, 0.047240, 0.074985, -0.181563, 0.067912, 0.034718, -0.041250, 0.071240, 0.079060, -0.086398, 0.127984, -0.125715, -0.068852, 0.059982, 0.117716, 0.069432, 0.201041, -0.030550, -0.090914, -0.059142, -0.019327, -0.100560, 0.045580, -0.037553, 0.053791, -0.085883, 0.003284, 0.047478, -0.223880, -0.141894, 0.191575, -0.046056, -0.005858, -0.111344, 0.008700, 0.034960, -0.092395, 0.095834, -0.029553, -0.029242, 0.031950, -0.070340, 0.108364, 0.049711, -0.026613, -0.122103, -0.061965, 0.077752, 0.037814, -0.039797, -0.091997, -0.053423, 0.012405, -0.013428, 0.034669, -0.045847, -0.156772, 0.206955, -0.083371, -0.195915, 0.062257, -0.059624, 0.047561, 0.014710, 0.014433, 0.008873, 0.006572, 0.092603, 0.299026, -0.047766, -0.032029, 0.025276, 0.167018, -0.053266, -0.000305, -0.008040, 0.031001, -0.033992, 0.086752, 0.131711, 0.190433, 0.025357, -0.042182, -0.059881, -0.025946, 0.072395, 0.081751, -0.106409, 0.030593, -0.014475, 0.079094, -0.095513, 0.015628, -0.025159, 0.018116, 0.045418, 0.090990, -0.250280, 0.018393, -0.106291, 0.141294, 0.091146, -0.031314, 0.028772, 0.033155, -0.122048, -0.292217, 0.111266, 0.060530, 0.095290, 0.066346, 0.139532, 0.142266, 0.068081, -0.096509, -0.077799, 0.042250, -0.035441, -0.269995, 0.103439, 0.101038, -0.011450, -0.167541, 0.153977, 0.171851, 0.121879, -0.154183, 0.202044, -0.015015, 0.001431, -0.079804, -0.085935, -0.159930, 0.149858, 0.065694, -0.052397, 0.065826, 0.201126, -0.040769, 0.091404, 0.083719, 0.114106, -0.047083, 0.086546, 0.041441, -0.267367, 0.010016, 0.104760, -0.013908, -0.273785, -0.249585, 0.021786, 0.194262, -0.036273, -0.137726, 0.171693, 0.046778, 0.018783, -0.162061, -0.001142, 0.121076, 0.089047, -0.045717, -0.234250, -0.078546, -0.047194, 0.210912, -0.150216, -0.250237, -0.089378, 0.111060, -0.078129, 0.201316, 0.068313, 0.264875, 0.122314, -0.131986, 0.258405, 0.054296, -0.016376, -0.232063, 0.063667, 0.423056, 0.061224, -0.169658, -0.042572, -0.058981, 0.071700, 0.147510, 0.066104, 0.459029, -0.007603, 0.224268, 0.091078, 0.046672, -0.026042, -0.032645, -0.001403, -0.240950, -0.074876, -0.140322, 0.037467, -0.070640, 0.132727, -0.032142, 0.357400, 0.319203, -0.197324, -0.051680, 0.007391, 0.019944, 0.100866, -0.261074, 0.133998, 0.081034, -0.033500, 0.055889, 0.056889, 0.207393, -0.021535, -0.089609, 0.169204, 0.034858, -0.278260, 0.016421, -0.072526, -0.043851, 0.224863, 0.095962, 0.000751, -0.161396, 0.171266, 0.009660, 0.199751, 0.297495, -0.170480, 0.313865, -0.052205, -0.106645, -0.304047, -0.055027, -0.029059, 0.121455, -0.166435, -0.057444, -0.117737, -0.138554, 0.003988, 0.043228, -0.032345, -0.032252, -0.085252, -0.046674, 0.016945, -0.077913, 0.142406, 0.054185, -0.032964, 0.067206, 0.023205, 0.204596, -0.118448, -0.041607, -0.126775, -0.018375, 0.039757, 0.038995, 0.159604, 0.110578, 0.074950, 0.132723, -0.017548, 0.089301, -0.079795, 0.114918, 0.026572, 0.102528, -0.059806, 0.000978, -0.001636, -0.030830, -0.001631, -0.084624, 0.123428, 0.026991, -0.116769, 0.048309, 0.048948, 0.009494, -0.081599, -0.028007, -0.069685, 0.114784, -0.088683, -0.175920, -0.012807, 0.029026, 0.005204, 0.018309, 0.093739, -0.029395, 0.061207, -0.136465, -0.152965, 0.147841, -0.007226, -0.165315, 0.075782, 0.015785, -0.003560, -0.006215, 0.062833, 0.115082, 0.017248, -0.144512, -0.004862, 0.059090, -0.063795, -0.082142, -0.081736, 0.022284, 0.077625, 0.073082, 0.013390, 0.073627, 0.176315, 0.041472, -0.018162, 0.019469, 0.052815, 0.010301, 0.087960, -0.049039, -0.135817, -0.102410, -0.080561, 0.015282, -0.226403, -0.120390, -0.035060, 0.040462, -0.193068, 0.047776, 0.108780, -0.051856, -0.077800, -0.105857, 0.043271, -0.129930, 0.162473, 0.076394, -0.019315, -0.051350, -0.159618, 0.105042, -0.039884, -0.144097, -0.113792, 0.076800, -0.066227, 0.063550, 0.141332, 0.207296, 0.211311, 0.099232, 0.202881, 0.145757, 0.035095, 0.079981, 0.034908, 0.151159, -0.133538, 0.179238, 0.018474, 0.003449, 0.028893, 0.074760, 0.103863, 0.004915, -0.138015, 0.012269, -0.162331, 0.181003, 0.054418, -0.172078, -0.063098, 0.034417, -0.079650, -0.176681, 0.013448, 0.105845, 0.062028, 0.030452, 0.188088, 0.160363, 0.001641, 0.063238, -0.172672, 0.185861, 0.012322, -0.164720, 0.238374, 0.125782, -0.112584, -0.163374, 0.188116, 0.298115, 0.095490, -0.199965, 0.132161, -0.027652, -0.142929, -0.043355, -0.283523, -0.127586, 0.106258, 0.149872, -0.018121, -0.071029, 0.044178, 0.064681, -0.064153, 0.065366, -0.062463, 0.049573, 0.074290, 0.077204, -0.045559, -0.025215, 0.032355, -0.053233, -0.004520, -0.096187, 0.137708, -0.018002, -0.216878, -0.286144, 0.003356, 0.157663, 0.093068, -0.155296, 0.153564, 0.030539, 0.098259, 0.225693, -0.102952, 0.091573, 0.073351, 0.061379, 0.025300, -0.233474, -0.104016, 0.090200, -0.047790, 0.125589, 0.048130, 0.305612, -0.050736, -0.195112, 0.038183, 0.022473, 0.020073, -0.119752, 0.126736, -0.126459, -0.018811, 0.097748, -0.094967, -0.017598, -0.028756, 0.000871, -0.025329, 0.130172, 0.054402, -0.022844, -0.193239, 0.091078, 0.037088, -0.183263, -0.052880, -0.010233, -0.123527, -0.041306, 0.050914, 0.097363, 0.037441, 0.079811, 0.167252, -0.034478, -0.144836, 0.136219, -0.173588, -0.185894, -0.299696, -0.197822, 0.037931, 0.068095, -0.061701, -0.087363, 0.154053, -0.013112, -0.015495, -0.057989, 0.165234, 0.222486, -0.048050, -0.009642, -0.360005, 0.036169, 0.273843, 0.332577, -0.071972, -0.021107, 0.050216, -0.149690, -0.108994, 0.136329, -0.190938, 0.114650, 0.052382, 0.073919, -0.212143, -0.083185, 0.082395, -0.013575, -0.188479, -0.157828, -0.014620, 0.062328, -0.126845, 0.021821, 0.001719, 0.042642, -0.093614, 0.012205, -0.090764, -0.134064, 0.007040, 0.094302, -0.144415, 0.072146, 0.049675, 0.115640, 0.022061, -0.019144, -0.088314, 0.089607, -0.096775, 0.130334, 0.073999, 0.135995, -0.029404, -0.039250, 0.045332, 0.078486, 0.020853, 0.109325, 0.080648, 0.033067, -0.047537, 0.136544, -0.125063, -0.069481, -0.080504, 0.099335, -0.000983, 0.013939, -0.127615, 0.008418, -0.097227, 0.036888, -0.041325, -0.124790, -0.074372, 0.005930, -0.185160, -0.149488, 0.038862, 0.182248, 0.153413, 0.007364, 0.002191, 0.080539, 0.021806, -0.106771, -0.032527, -0.062995, 0.034720, -0.276854, 0.041501, 0.027602, -0.077886, 0.012739, -0.105399, 0.065789, 0.041179, -0.035537, 0.057912, 0.078661, -0.039705, -0.129251, -0.113871, 0.056182, 0.092969, 0.085957, 0.056727, 0.010921, 0.082005, 0.024909, -0.104141, 0.013848, 0.162058, 0.059359, 0.002110, 0.054644, -0.144933, -0.106512, 0.076508, 0.080180};
const float BIAS_FC[NUM_OF_NEURONS]= {0.067336, 0.032738, -0.007057, 0.087550, 0.003710, 0.000370, -0.014977, -0.038011, -0.018047, 0.095756, 0.010212, 0.048329, -0.048482, -0.070718, 0.010843, -0.011067, -0.014707, -0.069336, 0.023550, 0.011072, 0.034083, 0.013143, -0.019443, 0.002675, 0.007562, 0.017909, -0.033365, -0.027448, -0.018481, -0.011849, -0.021426, -0.044692, 0.099971, 0.020617, -0.019434, -0.013024, -0.006175, 0.043275, -0.015024, -0.013798, -0.003516, 0.067341, 0.122548, 0.018670, 0.009268, 0.067075, 0.024181, 0.000458, -0.016322, -0.023294, -0.039861, 0.029563, -0.011455, -0.010818, -0.006660, 0.014092, 0.029842, 0.026623, -0.088455, 0.015670, 0.106041, -0.014980, 0.014682, 0.015691, -0.009361, 0.133694, -0.028973, 0.005465, 0.009201, 0.061997, 0.019570, -0.006501, 0.056676, 0.022119, 0.065951, 0.053153, 0.042731, -0.014151, 0.021263, -0.031200, -0.013920, -0.028983, -0.058626, 0.025452, 0.019189, 0.038389, -0.044507, 0.044331, 0.022544, -0.013389, -0.049018, -0.017744, 0.015463, 0.068685};const float WTs_S[NUM_OF_NEURONS*10]={0.265476, -0.379220, -0.214371, 0.067266, -0.482002, 0.123319, 0.107881, 0.057162, 0.084947, 0.051011, -0.210583, 0.221915, -0.031998, 0.050366, -0.204030, 0.027189, 0.119803, 0.072616, 0.155305, -0.409607, -0.665409, -0.063941, -0.205833, 0.054816, 0.391247, 0.196109, -0.662465, 0.112492, -0.192548, 0.291409, 0.215984, 0.222946, -0.338483, 0.338185, -0.366808, 0.222865, -0.220197, 0.114562, -0.221719, -0.040855, 0.228580, -0.140820, 0.244964, 0.104938, -0.091479, -0.228151, 0.068118, 0.189893, 0.077090, -0.260375, 0.067295, 0.336499, -0.121393, -0.009830, -0.039859, -0.281249, 0.306885, 0.175547, 0.323974, -0.346633, -0.070907, -0.138363, 0.269541, 0.219424, -0.294891, -0.492446, -0.316400, 0.064711, 0.003688, 0.259111, -0.399599, 0.049147, -0.293981, 0.152294, 0.093550, 0.148487, 0.173435, 0.103945, -0.235507, 0.181827, 0.051563, 0.168972, -0.147250, -0.096858, 0.206316, 0.181490, 0.089693, -0.039695, -0.140559, -0.224478, 0.266571, 0.067621, -0.318172, -0.071468, -0.051483, -0.169315, 0.178580, 0.582027, -0.347730, -0.296714, 0.141925, -0.394766, 0.073894, -0.117380, 0.280492, 0.135169, 0.028584, -0.269986, -0.310209, 0.034945, -0.094242, 0.228500, 0.045050, -0.114683, -0.108659, 0.328706, -0.302711, 0.074909, 0.237864, -0.327180, -0.079466, -0.373785, 0.104990, 0.144006, -0.165344, 0.042724, -0.018907, -0.310578, 0.275289, 0.035890, -0.266341, -0.274138, -0.404797, -0.117500, 0.205529, 0.219083, 0.135002, -0.177347, 0.127941, -0.072287, 0.068527, 0.181403, 0.128320, -0.063848, -0.258012, -0.255699, 0.040186, 0.010596, -0.144065, -0.271184, -0.172287, -0.244028, -0.146449, -0.060647, 0.015835, -0.172119, -0.004551, -0.192772, 0.087199, 0.193163, -0.210768, -0.081742, -0.248931, 0.338668, 0.000836, 0.280616, -0.282830, 0.131448, 0.254443, 0.189059, -0.298730, 0.004247, 0.170591, 0.252919, 0.270607, -0.155533, -0.338058, 0.038203, -0.050316, 0.189505, -0.035884, -0.073792, -0.327794, -0.137209, -0.384800, 0.452944, 0.109646, 0.012839, -0.363034, 0.196142, -0.061677, 0.091279, 0.088712, -0.087564, 0.055072, -0.180412, 0.204018, -0.073422, 0.024211, -0.526665, -0.220976, 0.216862, 0.295173, 0.225432, 0.218614, -0.342409, 0.209069, 0.027010, -0.108038, -0.213360, 0.059070, -0.002943, -0.112779, 0.195105, -0.312739, 0.143604, -0.019776, 0.047681, 0.111124, 0.289789, -0.166343, -0.212206, -0.176360, -0.086650, -0.218153, 0.070750, -0.121603, 0.208416, 0.068351, 0.012182, -0.348310, -0.046249, 0.126921, 0.192597, -0.440791, 0.162897, 0.084952, -0.308588, -0.074962, -0.212498, 0.283365, -0.235000, 0.130867, -0.104720, 0.184965, 0.161426, 0.224146, -0.208698, 0.128402, 0.198498, -0.072490, 0.094660, -0.334663, 0.004058, 0.274208, 0.288625, -0.112620, -0.374881, -0.060419, 0.142327, -0.195323, -0.147853, 0.336603, -0.188668, 0.030404, -0.099735, -0.125445, -0.138678, 0.240885, 0.180934, 0.211884, 0.080683, -0.012841, -0.356802, 0.322029, -0.348578, 0.203137, -0.216582, 0.274949, 0.092201, -0.248646, 0.066062, 0.274577, 0.053698, 0.132086, -0.040274, 0.083500, -0.068599, -0.056483, 0.037999, 0.159841, -0.062415, -0.120725, -0.556793, 0.152627, -0.008798, -0.242605, -0.138505, 0.153848, 0.085336, -0.222498, 0.211466, -0.200181, -0.000879, -0.171137, 0.230987, -0.006604, 0.195890, 0.145405, -0.090387, 0.147738, -0.067292, 0.046321, 0.259641, -0.079104, -0.204585, -0.088381, -0.058002, 0.193122, -0.120005, -0.186811, 0.044077, -0.700842, -0.251422, -0.331035, 0.129173, 0.168811, -0.359598, -0.143013, 0.111621, 0.328115, 0.393910, 0.184559, 0.237774, -0.435075, -0.051070, -0.321612, 0.153263, -0.138162, -0.327972, 0.176192, -0.179228, 0.034988, 0.113100, 0.288074, -0.127152, 0.049088, 0.200102, -0.259058, -0.258195, 0.293961, -0.427661, -0.508413, -0.044022, 0.108413, -0.024321, -0.067882, 0.295596, -0.182104, 0.004446, -0.022764, 0.185244, 0.274536, 0.058800, -0.215584, 0.068025, 0.147090, -0.175330, 0.058215, -0.025771, 0.225653, 0.181172, -0.567959, -0.396931, -0.072147, 0.199603, -0.093956, 0.184144, 0.022712, -0.244496, -0.107131, 0.212834, 0.156957, -0.231640, -0.041401, 0.096827, -0.133294, -0.085451, 0.022605, 0.130461, 0.078216, -0.278014, 0.040216, 0.100141, -0.063095, -0.075132, -0.130635, -0.019793, -0.097901, 0.090621, -0.005112, 0.208650, -0.200288, -0.113891, 0.218116, 0.086032, 0.170794, 0.020377, -0.026442, -0.423637, -0.300377, 0.120793, 0.209238, -0.376788, -0.027341, 0.045763, -0.332829, 0.299151, -0.025637, 0.091737, 0.496121, -0.272651, 0.398066, -0.108402, -0.667119, -0.006518, 0.015684, -0.108430, -0.344348, -0.011061, 0.272399, 0.135083, 0.140839, 0.221675, -0.389216, -0.456686, -0.307097, 0.092875, -0.184076, 0.401725, -0.374839, 0.074226, -0.100950, -0.219475, 0.019158, -0.288558, -0.423355, 0.238831, 0.285382, 0.169951, 0.241954, -0.301624, 0.102173, -0.056121, -0.255927, 0.126242, 0.252535, -0.225870, 0.047099, 0.046470, -0.142185, 0.191938, -0.475903, 0.271184, 0.297784, -0.046601, -0.012291, -0.047736, -0.296665, 0.320274, -0.112566, 0.124936, 0.126882, 0.158908, -0.762806, -0.382511, -0.431225, 0.302613, 0.055394, -0.469923, 0.118384, -0.226546, -0.136075, 0.095075, -0.109956, -0.035966, -0.224785, -0.021874, -0.085976, -0.155978, 0.223691, -0.142621, -0.412089, -0.304070, 0.089856, -0.038438, 0.026732, 0.134576, 0.169736, 0.015769, -0.087153, 0.096975, 0.288384, 0.180008, 0.233252, -0.303365, -0.109228, 0.242732, 0.161724, -0.161567, -0.035371, 0.410432, -0.030318, -0.469775, 0.103875, -0.240546, -0.228309, 0.245918, -0.644234, -0.236735, 0.019569, 0.066736, 0.071716, 0.228054, -0.343859, 0.162884, 0.244175, 0.019366, 0.197730, -0.256931, -0.585379, -0.282233, -0.348768, 0.231548, 0.046074, 0.147271, 0.157975, -0.489487, -0.212355, 0.076231, -0.071884, 0.081375, -0.439305, -0.079000, 0.194404, 0.053815, 0.249194, 0.081418, -0.158648, 0.305519, -0.306534, 0.136140, 0.285153, 0.099520, 0.095862, 0.147763, 0.153709, 0.169737, 0.061132, -0.608851, -0.119371, 0.003690, 0.308779, -0.189420, -0.273391, 0.193639, -0.088781, -0.418551, -0.043047, -0.023162, 0.027460, -0.155181, 0.225095, 0.045370, -0.449365, 0.064792, 0.062268, 0.336059, -0.272298, -0.338987, -0.430442, -0.142175, 0.004855, 0.030837, 0.175108, -0.048425, -0.177625, 0.089043, 0.199607, -0.023052, 0.016148, -0.058866, 0.055466, -0.277140, 0.144600, 0.318073, -0.345579, 0.288989, -0.316329, -0.336617, -0.360134, 0.365577, 0.107019, -0.335416, 0.159808, 0.175331, 0.295411, -0.379782, -0.376452, -0.213545, -0.057694, 0.120155, 0.237579, 0.173019, 0.072947, -0.056474, -0.011496, -0.193427, 0.278918, 0.001058, -0.431983, 0.190543, -0.276494, -0.530232, 0.144386, -0.247890, -0.224254, 0.142278, 0.254237, -0.053500, -0.361153, 0.065452, -0.091311, -0.253826, -0.240814, -0.170068, 0.484077, -0.244934, -0.101366, -0.215149, 0.134746, -0.232826, 0.265164, 0.010464, 0.063043, 0.015423, -0.346044, 0.197038, 0.177027, 0.266303, 0.268055, 0.357568, -0.513921, -0.566828, -0.286605, 0.142808, 0.365225, -0.159384, -0.259813, 0.110459, 0.169259, -0.030811, 0.111734, 0.036807, -0.157228, -0.191553, 0.037267, 0.088244, -0.047606, 0.143652, -0.562882, 0.236735, -0.090532, -0.050186, 0.019360, 0.093849, -0.425939, 0.376823, -0.329666, -0.046994, 0.157249, -0.286118, 0.175510, -0.006762, -0.243156, 0.205699, 0.037528, -0.156130, 0.214340, 0.124574, 0.280190, 0.281946, 0.213952, -0.295345, -0.039764, -0.451712, -0.128590, -0.449592, 0.200136, 0.152047, -0.166257, -0.150423, 0.216186, -0.345515, -0.279710, 0.147616, 0.208949, -0.225769, 0.221788, -0.329081, -0.336178, 0.207869, -0.558188, 0.427991, 0.024654, 0.092248, -0.210749, -0.036338, -0.382109, -0.012644, 0.142418, 0.257789, 0.286626, 0.375496, -0.354388, 0.197548, -0.137704, -0.061519, -0.168970, 0.029997, -0.151223, -0.028028, -0.286506, 0.243914, -0.437437, 0.277842, -0.020751, -0.053602, 0.016914, 0.057923, 0.164730, 0.108110, -0.241133, -0.295581, 0.182831, 0.074756, 0.268781, -0.105264, -0.118580, -0.441898, 0.012379, 0.150576, -0.463857, -0.465272, -0.266321, 0.164896, 0.006454, -0.278317, 0.314150, -0.180319, 0.242903, 0.270352, 0.094824, -0.344681, 0.221281, -0.282243, 0.112461, -0.259439, -0.076648, -0.123169, 0.019236, -0.236939, -0.025151, 0.149937, 0.023805, -0.354544, 0.204715, 0.233205, -0.254810, 0.142411, -0.399535, -0.029234, -0.065602, 0.069049, 0.006618, 0.220650, -0.490627, 0.192172, -0.004254, 0.085629, -0.257461, -0.239738, 0.211385, -0.255466, 0.166994, 0.160279, 0.221089, -0.428615, 0.016866, 0.032714, -0.018440, 0.125240, -0.122505, 0.222478, -0.048637, 0.060427, -0.237529, -0.210886, 0.147122, -0.149700, -0.125558, -0.229800, -0.055112, -0.400560, 0.098971, -0.370419, 0.285418, -0.527055, 0.022901, 0.301630, -0.515554, 0.008607, -0.094938, -0.077770, 0.195581, -0.027402, -0.074617, 0.082940, 0.020173, 0.023486, 0.166746, 0.132469, 0.240532, -0.199493, 0.226740, -0.405817, -0.180199, 0.230213, -0.055576, 0.119690, 0.104441, -0.021006, 0.154821, -0.056281, -0.184662, -0.416791, -0.054369, 0.205143, 0.193946, 0.188655, 0.046435, -0.206544, 0.133633, -0.145050, 0.128319, 0.066179, -0.068235, -0.225009, -0.366011, 0.008174, 0.156263, 0.118050, -0.247593, 0.256255, 0.211750, 0.079678, -0.462048, -0.013649, 0.337422, 0.132107, -0.277478, 0.190970, 0.155155, -0.338643, -0.209037, 0.144958, -0.334355, 0.396933, -0.342463, -0.000432, 0.188932, 0.089327, -0.058212, -0.219257, 0.291454, 0.092374, 0.164643, -0.486837, 0.029339, 0.183551, 0.116135, 0.155474, -0.021623, -0.098824, -0.068170, 0.119292, 0.168332, -0.127465, 0.138642, 0.075084, 0.258372, -0.323886, -0.161901, 0.197995, -0.095173, -0.180631, 0.246996, -0.374197, 0.222316, 0.116312, -0.224169, -0.046542, -0.153407, -0.034206, -0.005567, -0.181917, -0.171974, -0.185110, 0.216788, 0.009133, -0.011050, -0.353139, -0.302420, 0.084016, 0.041025, 0.242427, 0.227101, 0.216013, -0.027733, 0.165538, -0.195329, 0.232135, -0.461318, -0.390242, 0.117612, -0.057144, -0.299307, 0.303338, -0.540800, 0.359009};
const float BIAS_S[10]={0.024506, 0.028878, 0.056287, -0.001391, -0.050985, 0.045454, -0.054425, -0.019049, -0.042211, 0.009920};
float conv_o[NUM_OF_FILTERS][24][24];
float maxp_o[NUM_OF_FILTERS][8*8];
float flatten[NUM_OF_FILTERS*8*8];
float FC_output[NUM_OF_NEURONS];
float probabilities[10];
char pro[6];

char nums[748*4];
int n;
uint8_t image[748];
uint32_t duration;
volatile uint32_t timer;
uint8_t calculating;
void serialWriteLine(char* str)
{
	for(int i=0;i<strlen(str);i++){
		while(!USART_GetFlagStatus(USART1, USART_FLAG_TXE));
		USART_SendData(USART1,str[i]);
	}
	while(!USART_GetFlagStatus(USART1, USART_FLAG_TXE));
	USART_SendData(USART1,'\r');
	while(!USART_GetFlagStatus(USART1, USART_FLAG_TXE));
	USART_SendData(USART1,'\n');
}

void strToInt(char* str, uint8_t* x)
{
	char* tmp;
	int i = 0;
	tmp = strtok (str," ,.-");
	i=0;
	while (tmp != NULL){
		x[i++]=strtol(tmp,NULL,10);
		tmp = strtok (NULL, " ,.-");
	}
}

float ReLu(float x)
{
	return x<0 ? 0 : x;
}

void convolutionalLayer()
{
	for(int i = 0; i < NUM_OF_FILTERS; i++)
		for(int j = 0; j < 24; j++) //row
			for(int k = 0; k < 24; k++){//column
				conv_o[i][j][k]=BIAS_C[i];
				for(int l = 0; l < 5; l++)//row
					for(int m = 0; m < 5; m++)//column
						conv_o[i][j][k]+=image[j*28+k+l*28+m]/255.0*WTs_C[i][l][m];// l m
				conv_o[i][j][k]=ReLu(conv_o[i][j][k]);
			}
}

void maxPoolLayer()
{
	for(int i = 0; i < NUM_OF_FILTERS; i++)
		for(int j = 0; j < 8; j++) //row
			for(int k = 0; k < 8; k++){//column
				maxp_o[i][j*8+k]=conv_o[i][j*3][k*3];
				for(int l = 0; l < 3; l++)//row
					for(int m = 0; m < 3; m++)//column
						if(conv_o[i][j*3+l][k*3+m]>maxp_o[i][j*8+k])
							maxp_o[i][j*8+k]=conv_o[i][j*3+l][k*3+m];
			}
}

void flattenLayer()
{
	for(int j = 0; j < 64; j++)
		for(int i = 0; i < NUM_OF_FILTERS; i++)
			flatten[j*NUM_OF_FILTERS+i]=maxp_o[i][j];
}

void fullyConnectedLayer()
{
	for(int i = 0;i<NUM_OF_NEURONS;i++)
		FC_output[i]=BIAS_FC[i];
	for(int pixel = 0; pixel < 64*NUM_OF_FILTERS; pixel++)
		for(int neuron = 0; neuron < NUM_OF_NEURONS; neuron++)
			FC_output[neuron]+=flatten[pixel]*WTs_FC[NUM_OF_NEURONS*pixel+neuron];
	for(int neuron = 0; neuron < NUM_OF_NEURONS; neuron++)
		FC_output[neuron]=ReLu(FC_output[neuron]);
}
void softMax()
{
	for(int i = 0;i<10;i++)
		probabilities[i]=BIAS_S[i];
	for(int neuron = 0;neuron<NUM_OF_NEURONS;neuron++)
		for(int class = 0; class<10;class++)
			probabilities[class]+=FC_output[neuron]*WTs_S[10*neuron+class];
	float sum=0;
	for(int i = 0; i < 10; i++)
		sum+=exp(probabilities[i]);
	for(int i = 0; i < 10; i++)
		probabilities[i]=exp(probabilities[i])/sum;
}


void USART1_IRQHandler(void)
{
	char x = USART_ReceiveData(USART1);
	if(x == '\n' || x == ' ')
		calculating=1;
	else
		nums[n++]=x;
	USART_ClearITPendingBit(USART1, USART_IT_RXNE);
}

void SysTick_Handler(void)
{
    if (timer > 0)
		timer--;
}

int main(void)
{
	GPIO_InitTypeDef GPIO_InitStruct; //inicijalizacijska struktura za GPIO
	USART_InitTypeDef USART_InitStruct; //inicijalizacijska struktura za USART
	RCC_AHB1PeriphClockCmd(RCC_AHB1Periph_GPIOB, ENABLE); //ukljuci takt za port B
	RCC_APB2PeriphClockCmd(RCC_APB2Periph_USART1, ENABLE); //ukljuci takt za USART1
	// koristi se alternativna funkcija GPIO pinova PB6 i PB7
	GPIO_InitStruct.GPIO_Pin = GPIO_Pin_6 | GPIO_Pin_7;
	GPIO_InitStruct.GPIO_Mode = GPIO_Mode_AF;
	GPIO_Init(GPIOB, &GPIO_InitStruct);
	GPIO_PinAFConfig(GPIOB, GPIO_PinSource6, GPIO_AF_USART1); //PB6 se koristi kao USART1_Tx
	GPIO_PinAFConfig(GPIOB, GPIO_PinSource7, GPIO_AF_USART1); //PB7 se koristi kao USART1_Rx
	USART_InitStruct.USART_BaudRate = 9600; //brzina prijenosa 9600 bps
	USART_InitStruct.USART_HardwareFlowControl = USART_HardwareFlowControl_None; //ne koristi se CTS i RTS
	USART_InitStruct.USART_Mode = USART_Mode_Rx | USART_Mode_Tx; //koristi se i prijemnik i predajnik
	USART_InitStruct.USART_Parity = USART_Parity_No; //komunikacija bez pariteta
	USART_InitStruct.USART_StopBits = USART_StopBits_1; //1 stop bit
	USART_InitStruct.USART_WordLength = USART_WordLength_8b; //digitalna rijec je velicine 8 bita
	USART_Init(USART1, &USART_InitStruct); //zapisivanje UART1 postavki
	USART_Cmd(USART1, ENABLE); //omoguci rad UART1 periferije
	USART_ITConfig(USART1,USART_IT_RXNE,ENABLE); //omoguci USART1 prekid uslijed primanja podataka
	//podesi priority grouping: 4 bita za preemptive priority, 0 bita za subpriority
	NVIC_SetPriorityGrouping(NVIC_PriorityGroup_4);
	//postavi prioritet USART1_IRQn prekida
	NVIC_SetPriority(USART1_IRQn, NVIC_EncodePriority(NVIC_GetPriorityGrouping(),0,0));
	//omoguci USART1_IRQn prekid
	NVIC_EnableIRQ(USART1_IRQn);

	SysTick_Config(168000);

	serialWriteLine("START");

	while (1){
		if(calculating==1){
			strToInt(nums,image);
			timer=10000;
			convolutionalLayer();
			maxPoolLayer();
			flattenLayer();
			fullyConnectedLayer();
			softMax();
			duration=10000-timer;
			sprintf(pro, "%d", duration);
			serialWriteLine("Duration: ");
			serialWriteLine(pro);
			serialWriteLine("Probabilities: ");
			for(int i = 0; i < 10; i++){
				if(probabilities[i]<0.0001)
					probabilities[i]=0;
				gcvt(probabilities[i],4,pro);
				serialWriteLine(pro);
			}
			for(int i = 0;i<strlen(nums);i++)
				nums[i]=0;
			serialWriteLine("START");
			n=0;
			calculating=0;
		}
	}
}
